{
  "version": "1.0",
  "truncation": null,
  "padding": null,
  "added_tokens": [
    {
      "id": 0,
      "content": "<|endoftext|>",
      "single_word": false,
      "lstrip": false,
      "rstrip": false,
      "normalized": false,
      "special": true
    },
    {
      "id": 1,
      "content": "<|pad|>",
      "single_word": false,
      "lstrip": false,
      "rstrip": false,
      "normalized": false,
      "special": true
    },
    {
      "id": 2,
      "content": "<|bos|>",
      "single_word": false,
      "lstrip": false,
      "rstrip": false,
      "normalized": false,
      "special": true
    },
    {
      "id": 3,
      "content": "<|eos|>",
      "single_word": false,
      "lstrip": false,
      "rstrip": false,
      "normalized": false,
      "special": true
    },
    {
      "id": 4,
      "content": "<|ghost_user|>",
      "single_word": false,
      "lstrip": false,
      "rstrip": false,
      "normalized": false,
      "special": true
    },
    {
      "id": 5,
      "content": "<|ghost_assistant|>",
      "single_word": false,
      "lstrip": false,
      "rstrip": false,
      "normalized": false,
      "special": true
    },
    {
      "id": 6,
      "content": "<|ghost_end|>",
      "single_word": false,
      "lstrip": false,
      "rstrip": false,
      "normalized": false,
      "special": true
    },
    {
      "id": 7,
      "content": "<|tool_call|>",
      "single_word": false,
      "lstrip": false,
      "rstrip": false,
      "normalized": false,
      "special": true
    },
    {
      "id": 8,
      "content": "<|/tool_call|>",
      "single_word": false,
      "lstrip": false,
      "rstrip": false,
      "normalized": false,
      "special": true
    },
    {
      "id": 9,
      "content": "<|tool_response|>",
      "single_word": false,
      "lstrip": false,
      "rstrip": false,
      "normalized": false,
      "special": true
    },
    {
      "id": 10,
      "content": "<|/tool_response|>",
      "single_word": false,
      "lstrip": false,
      "rstrip": false,
      "normalized": false,
      "special": true
    }
  ],
  "normalizer": null,
  "pre_tokenizer": {
    "type": "ByteLevel",
    "add_prefix_space": false,
    "trim_offsets": true,
    "use_regex": true
  },
  "post_processor": null,
  "decoder": {
    "type": "ByteLevel",
    "add_prefix_space": true,
    "trim_offsets": true,
    "use_regex": true
  },
  "model": {
    "type": "BPE",
    "dropout": null,
    "unk_token": "<|endoftext|>",
    "continuing_subword_prefix": null,
    "end_of_word_suffix": null,
    "fuse_unk": false,
    "byte_fallback": false,
    "ignore_merges": false,
    "vocab": {
      "<|endoftext|>": 0,
      "<|pad|>": 1,
      "<|bos|>": 2,
      "<|eos|>": 3,
      "<|ghost_user|>": 4,
      "<|ghost_assistant|>": 5,
      "<|ghost_end|>": 6,
      "<|tool_call|>": 7,
      "<|/tool_call|>": 8,
      "<|tool_response|>": 9,
      "<|/tool_response|>": 10,
      "!": 11,
      "\"": 12,
      "#": 13,
      "$": 14,
      "%": 15,
      "&": 16,
      "'": 17,
      "(": 18,
      ")": 19,
      "*": 20,
      "+": 21,
      ",": 22,
      "-": 23,
      ".": 24,
      "/": 25,
      "0": 26,
      "1": 27,
      "2": 28,
      "3": 29,
      "4": 30,
      "5": 31,
      "6": 32,
      "7": 33,
      "8": 34,
      "9": 35,
      ":": 36,
      ";": 37,
      "<": 38,
      "=": 39,
      ">": 40,
      "?": 41,
      "@": 42,
      "A": 43,
      "B": 44,
      "C": 45,
      "D": 46,
      "E": 47,
      "F": 48,
      "G": 49,
      "H": 50,
      "I": 51,
      "J": 52,
      "K": 53,
      "L": 54,
      "M": 55,
      "N": 56,
      "O": 57,
      "P": 58,
      "Q": 59,
      "R": 60,
      "S": 61,
      "T": 62,
      "U": 63,
      "V": 64,
      "W": 65,
      "X": 66,
      "Y": 67,
      "Z": 68,
      "[": 69,
      "\\": 70,
      "]": 71,
      "^": 72,
      "_": 73,
      "`": 74,
      "a": 75,
      "b": 76,
      "c": 77,
      "d": 78,
      "e": 79,
      "f": 80,
      "g": 81,
      "h": 82,
      "i": 83,
      "j": 84,
      "k": 85,
      "l": 86,
      "m": 87,
      "n": 88,
      "o": 89,
      "p": 90,
      "q": 91,
      "r": 92,
      "s": 93,
      "t": 94,
      "u": 95,
      "v": 96,
      "w": 97,
      "x": 98,
      "y": 99,
      "z": 100,
      "{": 101,
      "|": 102,
      "}": 103,
      "~": 104,
      "¡": 105,
      "¢": 106,
      "£": 107,
      "¤": 108,
      "¥": 109,
      "¦": 110,
      "§": 111,
      "¨": 112,
      "©": 113,
      "ª": 114,
      "«": 115,
      "¬": 116,
      "®": 117,
      "¯": 118,
      "°": 119,
      "±": 120,
      "²": 121,
      "³": 122,
      "´": 123,
      "µ": 124,
      "¶": 125,
      "·": 126,
      "¸": 127,
      "¹": 128,
      "º": 129,
      "»": 130,
      "¼": 131,
      "½": 132,
      "¾": 133,
      "¿": 134,
      "À": 135,
      "Á": 136,
      "Â": 137,
      "Ã": 138,
      "Ä": 139,
      "Å": 140,
      "Æ": 141,
      "Ç": 142,
      "È": 143,
      "É": 144,
      "Ê": 145,
      "Ë": 146,
      "Ì": 147,
      "Í": 148,
      "Î": 149,
      "Ï": 150,
      "Ð": 151,
      "Ñ": 152,
      "Ò": 153,
      "Ó": 154,
      "Ô": 155,
      "Õ": 156,
      "Ö": 157,
      "×": 158,
      "Ø": 159,
      "Ù": 160,
      "Ú": 161,
      "Û": 162,
      "Ü": 163,
      "Ý": 164,
      "Þ": 165,
      "ß": 166,
      "à": 167,
      "á": 168,
      "â": 169,
      "ã": 170,
      "ä": 171,
      "å": 172,
      "æ": 173,
      "ç": 174,
      "è": 175,
      "é": 176,
      "ê": 177,
      "ë": 178,
      "ì": 179,
      "í": 180,
      "î": 181,
      "ï": 182,
      "ð": 183,
      "ñ": 184,
      "ò": 185,
      "ó": 186,
      "ô": 187,
      "õ": 188,
      "ö": 189,
      "÷": 190,
      "ø": 191,
      "ù": 192,
      "ú": 193,
      "û": 194,
      "ü": 195,
      "ý": 196,
      "þ": 197,
      "ÿ": 198,
      "Ā": 199,
      "ā": 200,
      "Ă": 201,
      "ă": 202,
      "Ą": 203,
      "ą": 204,
      "Ć": 205,
      "ć": 206,
      "Ĉ": 207,
      "ĉ": 208,
      "Ċ": 209,
      "ċ": 210,
      "Č": 211,
      "č": 212,
      "Ď": 213,
      "ď": 214,
      "Đ": 215,
      "đ": 216,
      "Ē": 217,
      "ē": 218,
      "Ĕ": 219,
      "ĕ": 220,
      "Ė": 221,
      "ė": 222,
      "Ę": 223,
      "ę": 224,
      "Ě": 225,
      "ě": 226,
      "Ĝ": 227,
      "ĝ": 228,
      "Ğ": 229,
      "ğ": 230,
      "Ġ": 231,
      "ġ": 232,
      "Ģ": 233,
      "ģ": 234,
      "Ĥ": 235,
      "ĥ": 236,
      "Ħ": 237,
      "ħ": 238,
      "Ĩ": 239,
      "ĩ": 240,
      "Ī": 241,
      "ī": 242,
      "Ĭ": 243,
      "ĭ": 244,
      "Į": 245,
      "į": 246,
      "İ": 247,
      "ı": 248,
      "Ĳ": 249,
      "ĳ": 250,
      "Ĵ": 251,
      "ĵ": 252,
      "Ķ": 253,
      "ķ": 254,
      "ĸ": 255,
      "Ĺ": 256,
      "ĺ": 257,
      "Ļ": 258,
      "ļ": 259,
      "Ľ": 260,
      "ľ": 261,
      "Ŀ": 262,
      "ŀ": 263,
      "Ł": 264,
      "ł": 265,
      "Ń": 266,
      "Ġt": 267,
      "Ġa": 268,
      "in": 269,
      "he": 270,
      "re": 271,
      "on": 272,
      "er": 273,
      "at": 274,
      "Ġthe": 275,
      "Ġs": 276,
      "or": 277,
      "Ġc": 278,
      "en": 279,
      "es": 280,
      "it": 281,
      "is": 282,
      "Ġo": 283,
      "an": 284,
      "Ġp": 285,
      "ed": 286,
      "ion": 287,
      "ing": 288,
      "al": 289,
      "Ġan": 290,
      "ic": 291,
      "Ġw": 292,
      "Ġf": 293,
      "Ġin": 294,
      "Ġb": 295,
      "ro": 296,
      "Ġto": 297,
      "Ġd": 298,
      "ĠĠ": 299,
      "Ġm": 300,
      "ec": 301,
      "Ġof": 302,
      "Ġand": 303,
      "ar": 304,
      "le": 305,
      "ou": 306,
      "ent": 307,
      "st": 308,
      "Ġth": 309,
      "et": 310,
      "ac": 311,
      "Ġre": 312,
      "om": 313,
      "ation": 314,
      "Ġe": 315,
      "as": 316,
      "il": 317,
      "Ġn": 318,
      "us": 319,
      "lo": 320,
      "Ġis": 321,
      "ut": 322,
      "Ġh": 323,
      "ĠT": 324,
      "ve": 325,
      "ly": 326,
      "ur": 327,
      "im": 328,
      "id": 329,
      "ĠS": 330,
      "ect": 331,
      "ĠA": 332,
      "ig": 333,
      "ers": 334,
      "ity": 335,
      "am": 336,
      "ĠI": 337,
      "ot": 338,
      "Ġfor": 339,
      "Ġpro": 340,
      "ĠĠĠĠ": 341,
      "Ġbe": 342,
      "Ġthat": 343,
      "Ġon": 344,
      "ol": 345,
      "ul": 346,
      "un": 347,
      "if": 348,
      "ess": 349,
      "Ġus": 350,
      "Ġcon": 351,
      "Ġv": 352,
      "ab": 353,
      "ce": 354,
      "ĠC": 355,
      "Ġl": 356,
      "âĢ": 357,
      "em": 358,
      "Ġor": 359,
      "Ġ(": 360,
      "Ġg": 361,
      "ith": 362,
      "Ġas": 363,
      "ct": 364,
      "el": 365,
      "ag": 366,
      "Ġcom": 367,
      "Ġst": 368,
      "ver": 369,
      "ow": 370,
      "ate": 371,
      "Ġal": 372,
      "ad": 373,
      "od": 374,
      "ack": 375,
      "pt": 376,
      "ir": 377,
      "Ġex": 378,
      "ure": 379,
      "Ġy": 380,
      "Ġare": 381,
      "se": 382,
      "ay": 383,
      "Ġwith": 384,
      "Ġit": 385,
      "ãģ": 386,
      "Ġat": 387,
      "pp": 388,
      "ch": 389,
      "ain": 390,
      "nt": 391,
      "ãĥ": 392,
      "qu": 393,
      "ri": 394,
      "Ġyou": 395,
      "Ġcan": 396,
      "ĠM": 397,
      "ĠP": 398,
      "ment": 399,
      "her": 400,
      "ist": 401,
      "ĠThe": 402,
      "ãĤ": 403,
      "Ġde": 404,
      "ecur": 405,
      "Ġen": 406,
      "Ġwh": 407,
      "ies": 408,
      "ĠD": 409,
      "Ġr": 410,
      "Ġby": 411,
      "ecurity": 412,
      "est": 413,
      "ke": 414,
      "are": 415,
      "for": 416,
      "ter": 417,
      "rom": 418,
      "ore": 419,
      "Ġcomp": 420,
      "and": 421,
      "ork": 422,
      "Ġsu": 423,
      "cc": 424,
      "ive": 425,
      "Ġwe": 426,
      "ort": 427,
      "ĠW": 428,
      "..": 429,
      "iz": 430,
      "Ġ1": 431,
      "ss": 432,
      "ial": 433,
      "Ġad": 434,
      "ĠR": 435,
      "um": 436,
      "ĠF": 437,
      "ĠE": 438,
      "Ġ2": 439,
      "form": 440,
      "Ġatt": 441,
      "ions": 442,
      "ill": 443,
      "Ġfrom": 444,
      "iv": 445,
      "yst": 446,
      "Ġnot": 447,
      "ication": 448,
      "Ġthis": 449,
      "00": 450,
      "ld": 451,
      "ĠB": 452,
      "low": 453,
      "Ġtr": 454,
      "ystem": 455,
      "ant": 456,
      "up": 457,
      "Ġun": 458,
      "act": 459,
      "ata": 460,
      "ire": 461,
      "etw": 462,
      "ust": 463,
      "Ġcont": 464,
      "age": 465,
      "ated": 466,
      "able": 467,
      "per": 468,
      "ple": 469,
      "Ġne": 470,
      "art": 471,
      "Ġapp": 472,
      "ile": 473,
      "âĢĻ": 474,
      "ave": 475,
      "all": 476,
      "oc": 477,
      "vic": 478,
      "Ġsecurity": 479,
      "ud": 480,
      "ail": 481,
      "Ġlo": 482,
      "ical": 483,
      "ĠL": 484,
      "his": 485,
      "ware": 486,
      "ĠH": 487,
      "Ġacc": 488,
      "ĠO": 489,
      "Ġint": 490,
      "ine": 491,
      "ĠN": 492,
      "ff": 493,
      "Ġim": 494,
      "ry": 495,
      "The": 496,
      "Ġattack": 497,
      "Ġsystem": 498,
      "Ġser": 499,
      "Ġch": 500,
      "ap": 501,
      "Ġsp": 502,
      "Ġle": 503,
      "ere": 504,
      "ost": 505,
      "Ġsh": 506,
      "end": 507,
      "nd": 508,
      "Ġres": 509,
      "Ġdata": 510,
      "igh": 511,
      "ich": 512,
      "ult": 513,
      "ould": 514,
      "ard": 515,
      "ther": 516,
      "ame": 517,
      "Ġhave": 518,
      "so": 519,
      "ĠU": 520,
      "ous": 521,
      "etwork": 522,
      "ber": 523,
      "ĠĠĠĠĠĠĠĠ": 524,
      "ign": 525,
      "ans": 526,
      "ge": 527,
      "Ġinc": 528,
      "ass": 529,
      "our": 530,
      "Ġwhich": 531,
      "ach": 532,
      "--": 533,
      "ex": 534,
      "pl": 535,
      "Ġwhe": 536,
      "Ġhe": 537,
      "ĠG": 538,
      "Ġse": 539,
      "ations": 540,
      "ĠĠĠ": 541,
      "Ġpre": 542,
      "ĠâĢ": 543,
      "ord": 544,
      "ection": 545,
      "Ġman": 546,
      "**": 547,
      "ĠIn": 548,
      "uct": 549,
      "th": 550,
      "Ġcl": 551,
      "gr": 552,
      "Ġwill": 553,
      "Ġyour": 554,
      "Ġsc": 555,
      "formation": 556,
      "abil": 557,
      "Ġhas": 558,
      "Ġab": 559,
      "Ġnetwork": 560,
      "ind": 561,
      "os": 562,
      "reat": 563,
      "ance": 564,
      "out": 565,
      "ib": 566,
      "ide": 567,
      "ast": 568,
      "ft": 569,
      "Ġ\"": 570,
      "Ġadd": 571,
      "ner": 572,
      "Ġso": 573,
      "port": 574,
      "Ġtheir": 575,
      "ual": 576,
      "ak": 577,
      "ue": 578,
      "ome": 579,
      "ĠThis": 580,
      "Ġcomm": 581,
      "ight": 582,
      "int": 583,
      "Ġuse": 584,
      "Ġwas": 585,
      "Ġdis": 586,
      "ident": 587,
      "ress": 588,
      "ary": 589,
      "Ġper": 590,
      "Ġinformation": 591,
      "ck": 592,
      "gh": 593,
      "rypt": 594,
      "ep": 595,
      "ase": 596,
      "ech": 597,
      "Ġused": 598,
      "Ġother": 599,
      "Ġaccess": 600,
      "ode": 601,
      "yp": 602,
      "Ġ=": 603,
      "ime": 604,
      "Ġk": 605,
      "Ġact": 606,
      "Ġdo": 607,
      "ious": 608,
      "ip": 609,
      "op": 610,
      "Ġall": 611,
      "plo": 612,
      "der": 613,
      "Ġmore": 614,
      "Ġdet": 615,
      "Ġthey": 616,
      "ens": 617,
      "Ġalso": 618,
      "Ġpl": 619,
      "ors": 620,
      "Ġup": 621,
      "vice": 622,
      "Ġprov": 623,
      "ub": 624,
      "ount": 625,
      "own": 626,
      "ĠV": 627,
      "'s": 628,
      "av": 629,
      "Ġev": 630,
      "Ġrequ": 631,
      "##": 632,
      "Ġke": 633,
      "ents": 634,
      ").": 635,
      "fere": 636,
      "cess": 637,
      "Ġem": 638,
      "Ġaut": 639,
      "ulner": 640,
      "....": 641,
      "Ġprot": 642,
      "ie": 643,
      "ell": 644,
      "01": 645,
      "Ġro": 646,
      "ys": 647,
      "Ġ|": 648,
      "lication": 649,
      "Ġif": 650,
      "lud": 651,
      "ities": 652,
      "ition": 653,
      "ite": 654,
      "ces": 655,
      "Ġone": 656,
      "Ġmal": 657,
      "ace": 658,
      "Ġbut": 659,
      "get": 660,
      "Ġuser": 661,
      "ang": 662,
      "Ġinter": 663,
      "Ġpo": 664,
      "Ġits": 665,
      "ory": 666,
      "ected": 667,
      "Ġag": 668,
      "Ġsuch": 669,
      "ok": 670,
      "Ġmod": 671,
      "ific": 672,
      "ence": 673,
      "ates": 674,
      "ia": 675,
      "Ġar": 676,
      "one": 677,
      "Ġout": 678,
      "Ġvulner": 679,
      "ake": 680,
      "ert": 681,
      "rol": 682,
      "Ġrec": 683,
      "log": 684,
      "Ġmay": 685,
      "Ġ.": 686,
      "gan": 687,
      "Ġinst": 688,
      "ability": 689,
      "Ġpart": 690,
      "Ġany": 691,
      "ased": 692,
      "Ġ[": 693,
      "Ġset": 694,
      "Ġass": 695,
      "Ġthese": 696,
      "),": 697,
      "vices": 698,
      "ong": 699,
      "Ġ-": 700,
      "Ġinclud": 701,
      "echn": 702,
      "Ġspec": 703,
      "ments": 704,
      "ear": 705,
      "Ġprocess": 706,
      "Ġusing": 707,
      "Ġdef": 708,
      "Ġme": 709,
      "riv": 710,
      "red": 711,
      "Ġdif": 712,
      "ating": 713,
      "Ġind": 714,
      "âĢĿ": 715,
      "pon": 716,
      "Ġstr": 717,
      "Ġqu": 718,
      "ject": 719,
      "Ġapplication": 720,
      "Ġwhen": 721,
      "Ġnum": 722,
      "rib": 723,
      "Ġ3": 724,
      "Ġinto": 725,
      "Ġrem": 726,
      "Ġcomput": 727,
      "Ġident": 728,
      "Ġdes": 729,
      "ern": 730,
      "ĠJ": 731,
      "aus": 732,
      "Ġneed": 733,
      "ike": 734,
      "ĠIt": 735,
      "In": 736,
      "ential": 737,
      "ures": 738,
      "lic": 739,
      "ms": 740,
      "Ġtyp": 741,
      "tt": 742,
      "min": 743,
      "ify": 744,
      "Ġover": 745,
      "eth": 746,
      "over": 747,
      "Ġwork": 748,
      "Ġenc": 749,
      "Ġconf": 750,
      "Ġval": 751,
      "Ġallow": 752,
      "Ġnew": 753,
      "ener": 754,
      "Ġorgan": 755,
      "ugh": 756,
      "Ġpr": 757,
      "ĠSt": 758,
      "ĠK": 759,
      "Ġfile": 760,
      "ser": 761,
      "unct": 762,
      "Ġfol": 763,
      "ient": 764,
      "Ġthreat": 765,
      "ĠCon": 766,
      "Ġob": 767,
      "Ġcy": 768,
      "Ġonly": 769,
      "Ġhow": 770,
      "ning": 771,
      "Ġcr": 772,
      "Ġkn": 773,
      "ied": 774,
      "ext": 775,
      "ose": 776,
      "02": 777,
      "Ġsome": 778,
      "Ġtime": 779,
      "ting": 780,
      "put": 781,
      "Ġtechn": 782,
      "Ġsec": 783,
      "ãĢ": 784,
      "ample": 785,
      "ization": 786,
      "ement": 787,
      "ks": 788,
      "ĠĠĠĠĠĠĠ": 789,
      "ĠâĢľ": 790,
      "ution": 791,
      "Ġbeen": 792,
      "Ġaddress": 793,
      "ffic": 794,
      "rough": 795,
      "Ġoper": 796,
      "Ġfil": 797,
      "str": 798,
      "ef": 799,
      "ible": 800,
      "Ġweb": 801,
      "Ġprovid": 802,
      "vers": 803,
      "irect": 804,
      "abl": 805,
      "Ġfe": 806,
      "ict": 807,
      "Ġthere": 808,
      "Ġj": 809,
      "ally": 810,
      "res": 811,
      "Ġkey": 812,
      "ced": 813,
      "Ġusers": 814,
      "olic": 815,
      "Ġabout": 816,
      "Ġshould": 817,
      "Ġsystems": 818,
      "Ġpass": 819,
      "ftware": 820,
      "ound": 821,
      "icro": 822,
      "Ġunder": 823,
      "duct": 824,
      "ove": 825,
      "Ġrequire": 826,
      "__": 827,
      "ise": 828,
      "olog": 829,
      "ays": 830,
      "Ġfollow": 831,
      "ĠPro": 832,
      "Ġcontrol": 833,
      "Ġbec": 834,
      "og": 835,
      "Ġcons": 836,
      "gram": 837,
      "Ġdiffere": 838,
      "Ġtrans": 839,
      "irst": 840,
      "Ġinf": 841,
      "ree": 842,
      "Ġreg": 843,
      "ular": 844,
      "Ġattacks": 845,
      "ll": 846,
      "Ġsign": 847,
      "Ġent": 848,
      "word": 849,
      "Ġgro": 850,
      "ãĥ¼": 851,
      "Ġfunct": 852,
      "com": 853,
      "ages": 854,
      "wo": 855,
      "Ġ$": 856,
      "Ġlike": 857,
      "pro": 858,
      "Ġ0": 859,
      "Ġthem": 860,
      "Ġserver": 861,
      "ns": 862,
      "Ġthrough": 863,
      "ized": 864,
      "ĠInt": 865,
      "oud": 866,
      "Ġcode": 867,
      "velo": 868,
      "ause": 869,
      "arget": 870,
      "vent": 871,
      "und": 872,
      "Ġthan": 873,
      "ows": 874,
      "ically": 875,
      "lp": 876,
      "hed": 877,
      "Ġsim": 878,
      "Ġlog": 879,
      "aw": 880,
      "ĠWe": 881,
      "ick": 882,
      "ote": 883,
      "load": 884,
      "Ġ**": 885,
      "Ġthen": 886,
      "Ġvar": 887,
      "ĊĠĠĠĠĠĠĠĠ": 888,
      "Ġmost": 889,
      "its": 890,
      "Ġnumber": 891,
      "ption": 892,
      "ĠSecurity": 893,
      "ethod": 894,
      "Ġsub": 895,
      "bers": 896,
      "Ġdec": 897,
      "Ġwere": 898,
      "icious": 899,
      "ne": 900,
      "Ġconn": 901,
      "//": 902,
      "iew": 903,
      "Ġencrypt": 904,
      "ffect": 905,
      "Ġpat": 906,
      "Ġgener": 907,
      "Ġmanag": 908,
      "Ġrel": 909,
      "Ġ4": 910,
      "Ġtwo": 911,
      "ful": 912,
      "Ġtool": 913,
      "Ġsoftware": 914,
      "hent": 915,
      "tr": 916,
      "Ġanal": 917,
      "ics": 918,
      "iss": 919,
      "Ġdifferent": 920,
      "con": 921,
      "Ġgo": 922,
      "du": 923,
      "Ġris": 924,
      "velop": 925,
      "Ġinv": 926,
      "----": 927,
      "Ġeach": 928,
      "ĠY": 929,
      "ange": 930,
      "Ġsupp": 931,
      "ize": 932,
      "ĠFor": 933,
      "Ġmess": 934,
      "uring": 935,
      "Ġwhere": 936,
      "Ġwould": 937,
      "Ġ201": 938,
      "enc": 939,
      "ative": 940,
      "Ġfirst": 941,
      "elf": 942,
      "Ġprogram": 943,
      "Ġpriv": 944,
      "igure": 945,
      "Ġcould": 946,
      "Ġdisc": 947,
      "een": 948,
      "Ġno": 949,
      "ever": 950,
      "ĊĠĠĠĠĠĠĠ": 951,
      "fore": 952,
      "Ġbot": 953,
      "te": 954,
      "ved": 955,
      "Ġrespon": 956,
      "Ġmalware": 957,
      "Ġtarget": 958,
      "Ġmethod": 959,
      "abilities": 960,
      "Ġexp": 961,
      "Ġform": 962,
      "iqu": 963,
      "lock": 964,
      "hat": 965,
      "Ġexample": 966,
      "Ġav": 967,
      "Ġoff": 968,
      "ource": 969,
      "ification": 970,
      "Ġver": 971,
      "hes": 972,
      "Ġ5": 973,
      "ten": 974,
      "ãģ®": 975,
      "vel": 976,
      "etween": 977,
      "Ġhelp": 978,
      "Ġexec": 979,
      "Ġexplo": 980,
      "Ġresult": 981,
      "arch": 982,
      "Ġrun": 983,
      "ets": 984,
      "Ġac": 985,
      "Ġsol": 986,
      "ĠIf": 987,
      "Ġpub": 988,
      "Ġcre": 989,
      "ph": 990,
      "Ġ\\": 991,
      "Ġph": 992,
      "ob": 993,
      "nce": 994,
      "ĠRe": 995,
      "Ġprob": 996,
      "ute": 997,
      "ink": 998,
      "ĠCom": 999,
      "........": 1000,
      "Ġbu": 1001,
      "Ġloc": 1002,
      "hor": 1003,
      "Ġcall": 1004,
      "ues": 1005,
      "pen": 1006,
      "ĠIP": 1007,
      "Ġbetween": 1008,
      "pr": 1009,
      "Ġimport": 1010,
      "Ġour": 1011,
      "Ġdevelop": 1012,
      "the": 1013,
      "Ġtest": 1014,
      "Ġfiles": 1015,
      "ified": 1016,
      "Ġcol": 1017,
      "als": 1018,
      "ĠEx": 1019,
      "heck": 1020,
      "Ġsame": 1021,
      "Ġwhat": 1022,
      "Ġpassword": 1023,
      "ild": 1024,
      "Ġcomputer": 1025,
      "Ġend": 1026,
      "Ġappro": 1027,
      "nal": 1028,
      "ttp": 1029,
      "ains": 1030,
      "ility": 1031,
      "Ġpers": 1032,
      "ploy": 1033,
      "Ġperform": 1034,
      "Ġfunction": 1035,
      "Ġmat": 1036,
      "ãģĻ": 1037,
      "Ġcor": 1038,
      "ix": 1039,
      "fter": 1040,
      "ĠâĢĵ": 1041,
      "Ġsa": 1042,
      "Ġpolic": 1043,
      "aph": 1044,
      "Ġemail": 1045,
      "Ġwho": 1046,
      "hen": 1047,
      "Ġdoes": 1048,
      "cept": 1049,
      "Ġcommun": 1050,
      "plement": 1051,
      "ĊĠĠĠ": 1052,
      "Ġmany": 1053,
      "ish": 1054,
      "Ġfollowing": 1055,
      "oint": 1056,
      "Ġlist": 1057,
      "Ġmon": 1058,
      "ĠSer": 1059,
      "ough": 1060,
      "Ġmodel": 1061,
      "vir": 1062,
      "istr": 1063,
      "ulti": 1064,
      "ings": 1065,
      "ature": 1066,
      "ĠCh": 1067,
      "ãĥ³": 1068,
      "indows": 1069,
      "ines": 1070,
      "ice": 1071,
      "Ġvulnerability": 1072,
      "Ġaccount": 1073,
      "ocol": 1074,
      "Ġcyber": 1075,
      "Ġmalicious": 1076,
      "Ġgroup": 1077,
      "rend": 1078,
      "Ġagain": 1079,
      "Ġens": 1080,
      "Ġmust": 1081,
      "net": 1082,
      "Ġdirect": 1083,
      "ark": 1084,
      "Ġauthent": 1085,
      "Ġcert": 1086,
      "ational": 1087,
      "Ġback": 1088,
      "Ġiss": 1089,
      "ĠMicro": 1090,
      "line": 1091,
      "urre": 1092,
      "Ġcomple": 1093,
      "ade": 1094,
      "ond": 1095,
      "iness": 1096,
      "ccess": 1097,
      "Ġservice": 1098,
      "any": 1099,
      "Ġvers": 1100,
      "Ġdevices": 1101,
      "ually": 1102,
      "ology": 1103,
      "Ġfr": 1104,
      "Ġret": 1105,
      "itor": 1106,
      "very": 1107,
      "ĠUn": 1108,
      "Ġreport": 1109,
      "10": 1110,
      "app": 1111,
      "ered": 1112,
      "apt": 1113,
      "Ġmain": 1114,
      "://": 1115,
      "erm": 1116,
      "ross": 1117,
      "ĠAd": 1118,
      "ruct": 1119,
      "sc": 1120,
      "Ġdist": 1121,
      "ources": 1122,
      "read": 1123,
      "ts": 1124,
      "ãĤĴ": 1125,
      "This": 1126,
      "Ġwell": 1127,
      "viron": 1128,
      "led": 1129,
      "Ġhigh": 1130,
      "rit": 1131,
      "urn": 1132,
      "to": 1133,
      "Ġget": 1134,
      "usiness": 1135,
      "aining": 1136,
      "cl": 1137,
      "Ġname": 1138,
      "ug": 1139,
      "ited": 1140,
      "Ġdown": 1141,
      "Ġposs": 1142,
      "Ġeffect": 1143,
      "ook": 1144,
      "row": 1145,
      "Ġsee": 1146,
      "Ġknow": 1147,
      "Ġrequest": 1148,
      "==": 1149,
      "lect": 1150,
      "Ġbeing": 1151,
      "Ġsupport": 1152,
      "iel": 1153,
      "Ġimplement": 1154,
      "ym": 1155,
      "ator": 1156,
      "Ġmake": 1157,
      "ãĥĪ": 1158,
      "TP": 1159,
      "Ġ19": 1160,
      "Ġrep": 1161,
      "ustom": 1162,
      "Ġ6": 1163,
      "Ġdevice": 1164,
      "of": 1165,
      "Ġgr": 1166,
      ".,": 1167,
      "Ġcommand": 1168,
      "Ġ{": 1169,
      "itive": 1170,
      "ript": 1171,
      "Ġ'": 1172,
      "Ġway": 1173,
      "Ġins": 1174,
      "orm": 1175,
      "err": 1176,
      "Ġte": 1177,
      "otential": 1178,
      "Ġrisk": 1179,
      "stand": 1180,
      "Ġproduct": 1181,
      "ases": 1182,
      "li": 1183,
      "Ġpoint": 1184,
      "ministr": 1185,
      "Ġwithin": 1186,
      "Ġrese": 1187,
      "ield": 1188,
      "Ġdesign": 1189,
      "ves": 1190,
      "Ġupd": 1191,
      "ysis": 1192,
      "ĠHow": 1193,
      "ital": 1194,
      "other": 1195,
      "Ġthreats": 1196,
      "Ġpe": 1197,
      "Ġsecure": 1198,
      "Ġam": 1199,
      "Ġmulti": 1200,
      "Ġenviron": 1201,
      "Ġbefore": 1202,
      "Ġavail": 1203,
      "Ġeven": 1204,
      "izations": 1205,
      "Ġactiv": 1206,
      "11": 1207,
      "SS": 1208,
      "Ġapplications": 1209,
      "ocu": 1210,
      "Ġboth": 1211,
      "âĢ¢": 1212,
      "inu": 1213,
      "Ġpar": 1214,
      "andard": 1215,
      "ĠX": 1216,
      "ID": 1217,
      "Ġtype": 1218,
      "igur": 1219,
      "Ġ8": 1220,
      "Ġagainst": 1221,
      "Ġmem": 1222,
      "ng": 1223,
      "Ġmanagement": 1224,
      "Ġservices": 1225,
      "Ġsm": 1226,
      "Ġspecific": 1227,
      "Ġpotential": 1228,
      "ãģ¾": 1229,
      "gor": 1230,
      "ĠWindows": 1231,
      "less": 1232,
      "Ġperson": 1233,
      "anag": 1234,
      "Ġdom": 1235,
      "Ġbecause": 1236,
      "Ġpack": 1237,
      "Ġ202": 1238,
      "Ġincre": 1239,
      "ãĢĤ": 1240,
      "ian": 1241,
      "Ġvulnerabilities": 1242,
      "Ġproble": 1243,
      "Ġinstall": 1244,
      "uch": 1245,
      "Ġfind": 1246,
      "Ġincluding": 1247,
      "Ġ200": 1248,
      "Ġcheck": 1249,
      "Ġallows": 1250,
      "Ġyear": 1251,
      "Ġblock": 1252,
      "ash": 1253,
      "ĠTo": 1254,
      "Ġpublic": 1255,
      "based": 1256,
      "ãģĹ": 1257,
      "Ġsend": 1258,
      "Ġprotect": 1259,
      "Ġlar": 1260,
      "ĠIntern": 1261,
      "Ġcloud": 1262,
      "Ġfound": 1263,
      "ater": 1264,
      "Ġread": 1265,
      "ule": 1266,
      "ined": 1267,
      "ãĢģ": 1268,
      "pect": 1269,
      "Ġlevel": 1270,
      "point": 1271,
      "Ġ+": 1272,
      "Ġorganization": 1273,
      "Ġtra": 1274,
      "Ġattacker": 1275,
      "Ġobject": 1276,
      "egr": 1277,
      "Ġpartic": 1278,
      "Ġwhile": 1279,
      "Ġprovide": 1280,
      "Ġbusiness": 1281,
      "ily": 1282,
      "acy": 1283,
      "ĠCl": 1284,
      "eng": 1285,
      "aking": 1286,
      "Ġbased": 1287,
      "Ġvari": 1288,
      "Ġvir": 1289,
      "Ġchar": 1290,
      "Ġimportant": 1291,
      "Ġwithout": 1292,
      "etr": 1293,
      "Ġlook": 1294,
      "12": 1295,
      "Ġstud": 1296,
      "nc": 1297,
      "ST": 1298,
      "Ġstat": 1299,
      "ider": 1300,
      "Ġprotocol": 1301,
      "urrent": 1302,
      "Ġvalue": 1303,
      "ĠTh": 1304,
      "Ġport": 1305,
      "ault": 1306,
      "les": 1307,
      "Ġ*": 1308,
      "orld": 1309,
      "inal": 1310,
      "Ġimp": 1311,
      "ax": 1312,
      "ency": 1313,
      "Ġcommon": 1314,
      "ov": 1315,
      "Ġpres": 1316,
      "ĠTr": 1317,
      "Ġreal": 1318,
      "Ġtools": 1319,
      "Ġhost": 1320,
      "eg": 1321,
      "ĠSc": 1322,
      "ox": 1323,
      "ath": 1324,
      "Ġmessage": 1325,
      "oci": 1326,
      "Ġbeh": 1327,
      "miss": 1328,
      "Ġjust": 1329,
      "fer": 1330,
      "Ġopen": 1331,
      "Ġcustom": 1332,
      "Ġavailable": 1333,
      "Ġprevent": 1334,
      "Ġtraffic": 1335,
      "uc": 1336,
      "Ġevery": 1337,
      "ãģ«": 1338,
      "()": 1339,
      "Ġorganizations": 1340,
      "Ġhand": 1341,
      "Ġknown": 1342,
      "ators": 1343,
      "Ġexper": 1344,
      "ince": 1345,
      "Ġext": 1346,
      "ople": 1347,
      "Ġdat": 1348,
      "\",": 1349,
      "Ġow": 1350,
      "Âł": 1351,
      "Ġdesc": 1352,
      "Ġaddition": 1353,
      "Ġstart": 1354,
      "ense": 1355,
      "Ġadv": 1356,
      "ER": 1357,
      "Ġidentify": 1358,
      "hing": 1359,
      "ĠThese": 1360,
      "Ġauthentication": 1361,
      "Ġmin": 1362,
      "Ġthose": 1363,
      "Ġstep": 1364,
      "Ġ7": 1365,
      "ral": 1366,
      "Ġencryption": 1367,
      "Ġbre": 1368,
      "ron": 1369,
      "Ġtake": 1370,
      "Ġsetting": 1371,
      "Ġinclude": 1372,
      "Ġeas": 1373,
      "graph": 1374,
      "Ġmach": 1375,
      "Ġhack": 1376,
      "Ġclass": 1377,
      "Ġgu": 1378,
      "anc": 1379,
      "Ġ10": 1380,
      "AN": 1381,
      "Ġchang": 1382,
      "Ġafter": 1383,
      "ivid": 1384,
      "Ġvia": 1385,
      "Ġdig": 1386,
      "Ġexploit": 1387,
      "ĠAl": 1388,
      "Ġcrit": 1389,
      "Ġoften": 1390,
      "ives": 1391,
      "Ġpossible": 1392,
      "bersecurity": 1393,
      "io": 1394,
      "pec": 1395,
      "Ġ/": 1396,
      "Ġsens": 1397,
      "iven": 1398,
      "Ġhard": 1399,
      "Ġpract": 1400,
      "Con": 1401,
      "old": 1402,
      "Ġautom": 1403,
      "ãĤ¹": 1404,
      "ness": 1405,
      "Ġdocu": 1406,
      "ower": 1407,
      "hem": 1408,
      "ĠZ": 1409,
      "Ġcase": 1410,
      "ww": 1411,
      "ites": 1412,
      "round": 1413,
      "ĠAn": 1414,
      "WS": 1415,
      "sh": 1416,
      "tain": 1417,
      "Ġscan": 1418,
      "Ġfact": 1419,
      "utions": 1420,
      "Ġexist": 1421,
      "Ġremote": 1422,
      "](": 1423,
      "ted": 1424,
      "ering": 1425,
      "Ġstandard": 1426,
      "Ġcap": 1427,
      "ãĤ¤": 1428,
      "ier": 1429,
      "akes": 1430,
      "Ġprovides": 1431,
      "ĠInternet": 1432,
      "AT": 1433,
      "ull": 1434,
      "ules": 1435,
      "Ġfl": 1436,
      "Ġunderstand": 1437,
      "ward": 1438,
      "Ġrece": 1439,
      "ĠApp": 1440,
      "face": 1441,
      "Ġadministr": 1442,
      "Ġsel": 1443,
      "ĠAs": 1444,
      "Ġtechniqu": 1445,
      "Ġanalysis": 1446,
      "Ġvery": 1447,
      "pos": 1448,
      "view": 1449,
      "Ġlong": 1450,
      "Ġensure": 1451,
      "Ġhad": 1452,
      "ee": 1453,
      "Ġlear": 1454,
      "ttps": 1455,
      "ised": 1456,
      "Ġdetail": 1457,
      "aut": 1458,
      "Ġequ": 1459,
      "ograph": 1460,
      "Ġpeople": 1461,
      "To": 1462,
      "Ġcount": 1463,
      "ãģ¾ãģĻ": 1464,
      "imes": 1465,
      "Ġstore": 1466,
      "Ġconnect": 1467,
      "Ġco": 1468,
      "mit": 1469,
      "Ġbr": 1470,
      "iguration": 1471,
      "Ġsur": 1472,
      "rast": 1473,
      "ĠQ": 1474,
      "ared": 1475,
      "ĠHowever": 1476,
      "Ġwebs": 1477,
      "Ġproper": 1478,
      "ansom": 1479,
      "atures": 1480,
      "IN": 1481,
      "oot": 1482,
      "Ġcommunication": 1483,
      "soft": 1484,
      "Ġcreate": 1485,
      "Ġcred": 1486,
      "Ġorder": 1487,
      "ession": 1488,
      "hers": 1489,
      "Ġlead": 1490,
      "Ġdetect": 1491,
      "AC": 1492,
      "Ġnetworks": 1493,
      "Ġ--": 1494,
      "par": 1495,
      "gorith": 1496,
      "ĠManag": 1497,
      "ateg": 1498,
      "Ġmeas": 1499,
      "Ġintegr": 1500,
      "Ġdep": 1501,
      "imate": 1502,
      "ead": 1503,
      "000": 1504,
      "Ġlim": 1505,
      ");": 1506,
      "Ġcrypt": 1507,
      "Ġenvironment": 1508,
      "tic": 1509,
      "ãĤ¯": 1510,
      "Ġmight": 1511,
      "ret": 1512,
      "ãĥ«": 1513,
      "eb": 1514,
      "ĊĠĠĠĠĠĠĠĠĠĠĠ": 1515,
      "Ġ`": 1516,
      "PI": 1517,
      "Ġcompon": 1518,
      "ON": 1519,
      "Ġcurrent": 1520,
      "ĠWeb": 1521,
      "Ġet": 1522,
      "Ġmonitor": 1523,
      "work": 1524,
      "ĠHT": 1525,
      "med": 1526,
      "Ġversion": 1527,
      "uss": 1528,
      "ĠOne": 1529,
      "Ġtypes": 1530,
      "Ġsever": 1531,
      "rop": 1532,
      "Ġown": 1533,
      "Ġrele": 1534,
      "Ġwant": 1535,
      "not": 1536,
      "ables": 1537,
      "ĠYou": 1538,
      "ru": 1539,
      "Ġcompany": 1540,
      "Ġdetection": 1541,
      "ivers": 1542,
      "SA": 1543,
      "arc": 1544,
      "Ġattackers": 1545,
      "ision": 1546,
      "isc": 1547,
      "Ġcalled": 1548,
      "Ġerr": 1549,
      "ently": 1550,
      "ingle": 1551,
      "Ġright": 1552,
      "Ġtop": 1553,
      "Ġprotection": 1554,
      "ribut": 1555,
      "overn": 1556,
      "ĠBy": 1557,
      "Ġeng": 1558,
      "ames": 1559,
      "ior": 1560,
      "Ġcomprom": 1561,
      "Ġ&": 1562,
      "omm": 1563,
      "Ġsource": 1564,
      "ank": 1565,
      "--------": 1566,
      "Ġanother": 1567,
      "Ġleg": 1568,
      "Ġmultiple": 1569,
      "Ġacross": 1570,
      "Ġpolicy": 1571,
      "Ġable": 1572,
      "Ġrout": 1573,
      "Ġlarge": 1574,
      "yn": 1575,
      "Ġopt": 1576,
      "Ġresources": 1577,
      "ividual": 1578,
      "Ġuses": 1579,
      "Ġpost": 1580,
      "IP": 1581,
      "Ġparticular": 1582,
      "Ġpay": 1583,
      "Ġ9": 1584,
      "Ġed": 1585,
      "Ġ:": 1586,
      "empt": 1587,
      "Ġduring": 1588,
      "19": 1589,
      "atform": 1590,
      "####": 1591,
      "Ġ<": 1592,
      "val": 1593,
      "bit": 1594,
      "alth": 1595,
      "Ġpur": 1596,
      "ience": 1597,
      "ices": 1598,
      "Ġmeans": 1599,
      "att": 1600,
      "16": 1601,
      "Ġx": 1602,
      "ra": 1603,
      "ĠĠĠĠĠĠĠĠĠĠĠĠĠĠĠĠ": 1604,
      "ger": 1605,
      "ĠCont": 1606,
      "Ġcent": 1607,
      "amet": 1608,
      "St": 1609,
      "Ġinvol": 1610,
      "Ġocc": 1611,
      "ety": 1612,
      "Ġteam": 1613,
      "'t": 1614,
      "ason": 1615,
      "Ġcontain": 1616,
      "ively": 1617,
      "Ġest": 1618,
      "ãĤĭ": 1619,
      "ended": 1620,
      "Ġemploy": 1621,
      "ĠAm": 1622,
      "Ġclient": 1623,
      "Ġauthor": 1624,
      "ĠDe": 1625,
      "ermin": 1626,
      "ples": 1627,
      "inc": 1628,
      "Ġnow": 1629,
      "Ġcybersecurity": 1630,
      "nel": 1631,
      "Ġbas": 1632,
      "ayer": 1633,
      "ecess": 1634,
      "ilar": 1635,
      "name": 1636,
      "Ġresponse": 1637,
      "Ġnon": 1638,
      "Ġcritical": 1639,
      "Ġdomain": 1640,
      "Ġvarious": 1641,
      "usion": 1642,
      "201": 1643,
      "Ġi": 1644,
      "):": 1645,
      "ĠRes": 1646,
      "ew": 1647,
      "Ġindividual": 1648,
      "ķãĤ": 1649,
      "Ġz": 1650,
      "Ġcontent": 1651,
      "Ġalgorith": 1652,
      "rastruct": 1653,
      "VE": 1654,
      "Ġdel": 1655,
      "RE": 1656,
      "ĠAWS": 1657,
      "atch": 1658,
      "oid": 1659,
      "Ġsaf": 1660,
      "icated": 1661,
      "RL": 1662,
      "ĠThey": 1663,
      "Ġhis": 1664,
      "Ġthree": 1665,
      "Ġservers": 1666,
      "ording": 1667,
      "Ġconc": 1668,
      "wall": 1669,
      "ially": 1670,
      "Ex": 1671,
      "erg": 1672,
      "urther": 1673,
      "...": 1674,
      "Ġworld": 1675,
      "ality": 1676,
      "ĊĠĠ": 1677,
      "For": 1678,
      "Ġdatab": 1679,
      "____": 1680,
      "ĠProt": 1681,
      "az": 1682,
      "AM": 1683,
      "Ġmed": 1684,
      "here": 1685,
      "Ġsecond": 1686,
      "Ġproblem": 1687,
      "angu": 1688,
      "Ġorig": 1689,
      "Ġtext": 1690,
      "ference": 1691,
      "ving": 1692,
      "por": 1693,
      "20": 1694,
      "Ġsingle": 1695,
      "action": 1696,
      "irewall": 1697,
      "Ġseveral": 1698,
      "ather": 1699,
      "Ġfield": 1700,
      "ĠThere": 1701,
      "If": 1702,
      "Ġsaid": 1703,
      "Ġstate": 1704,
      "amp": 1705,
      "Ġvis": 1706,
      "ances": 1707,
      "rect": 1708,
      "Ġrepres": 1709,
      "0000": 1710,
      "Ġ#": 1711,
      "Ġimpro": 1712,
      "Ġbehav": 1713,
      "day": 1714,
      "Ġstill": 1715,
      "ock": 1716,
      "hishing": 1717,
      "Ġassoci": 1718,
      "Ġbest": 1719,
      "tual": 1720,
      "Ġtechnology": 1721,
      "ished": 1722,
      "ins": 1723,
      "25": 1724,
      "ansomware": 1725,
      "ĠAnd": 1726,
      "Ġpa": 1727,
      "Ġexecut": 1728,
      "ĠSystem": 1729,
      "Ġvalid": 1730,
      "ãĥª": 1731,
      "ãģ¯": 1732,
      "Ġmade": 1733,
      "fr": 1734,
      "ictim": 1735,
      "way": 1736,
      "Ġchange": 1737,
      "def": 1738,
      "erpr": 1739,
      "AP": 1740,
      "ood": 1741,
      "Ġmuch": 1742,
      "Ġself": 1743,
      "................": 1744,
      "Ġprof": 1745,
      "rastructure": 1746,
      "Ġdigital": 1747,
      "ype": 1748,
      "Ġclick": 1749,
      "Ġsuccess": 1750,
      "Ġinit": 1751,
      "NS": 1752,
      "Ġapproach": 1753,
      "Ġlocal": 1754,
      "Ġlow": 1755,
      "ĠIT": 1756,
      "ĠAut": 1757,
      "Ġsensitive": 1758,
      "Ġstruct": 1759,
      "ask": 1760,
      "echan": 1761,
      "Ġcle": 1762,
      "Ġline": 1763,
      "yz": 1764,
      "requ": 1765,
      "Ġdownload": 1766,
      "Ġsignific": 1767,
      "EC": 1768,
      "Ġview": 1769,
      "Ġdescrib": 1770,
      "ibility": 1771,
      "Ġvictim": 1772,
      "vious": 1773,
      "Ġmemory": 1774,
      "Ġtrust": 1775,
      "Ġredu": 1776,
      "Ġprivate": 1777,
      "ĠWhen": 1778,
      "Ġpresent": 1779,
      "Ġrequired": 1780,
      "Ġexpl": 1781,
      "Ġmachine": 1782,
      "Ġmessages": 1783,
      "Ġscript": 1784,
      "Ġdeploy": 1785,
      "Ġattempt": 1786,
      "32": 1787,
      "rary": 1788,
      "**:": 1789,
      "Ġdocument": 1790,
      "Ġsmall": 1791,
      "ways": 1792,
      "ãģ¦": 1793,
      "sing": 1794,
      "ries": 1795,
      "esc": 1796,
      "ination": 1797,
      "Ġcertific": 1798,
      "anced": 1799,
      "ĠTrend": 1800,
      "CP": 1801,
      "ĠMicrosoft": 1802,
      "Ġmethods": 1803,
      "Ġbrow": 1804,
      "Ġwrit": 1805,
      "hile": 1806,
      "15": 1807,
      "Ġresults": 1808,
      "Ġyears": 1809,
      "text": 1810,
      "As": 1811,
      "Ġconfiguration": 1812,
      "Ġsettings": 1813,
      "Ġfin": 1814,
      "ism": 1815,
      "ĠNetwork": 1816,
      "lob": 1817,
      "It": 1818,
      "Ġnecess": 1819,
      "inux": 1820,
      "ãĥ¼ãĤ": 1821,
      "ants": 1822,
      "ET": 1823,
      "Ġreturn": 1824,
      "time": 1825,
      "ĠHTTP": 1826,
      "Ġcar": 1827,
      "Ġinput": 1828,
      "Ġgovern": 1829,
      "play": 1830,
      "Ġphys": 1831,
      "Ġpower": 1832,
      "acter": 1833,
      "Ġlink": 1834,
      "ledge": 1835,
      "IT": 1836,
      "Ġcoll": 1837,
      "ird": 1838,
      "ãĥĥ": 1839,
      "overy": 1840,
      "ĠSo": 1841,
      "Ġpolicies": 1842,
      "tern": 1843,
      "Ġgiven": 1844,
      "set": 1845,
      "Ġear": 1846,
      "Ġele": 1847,
      "xy": 1848,
      "Ġpos": 1849,
      "ocial": 1850,
      "dition": 1851,
      "Ġfail": 1852,
      "14": 1853,
      "arm": 1854,
      "amework": 1855,
      "Ġdefault": 1856,
      "Ġpage": 1857,
      "ists": 1858,
      "Ġinvest": 1859,
      "Pro": 1860,
      "ither": 1861,
      "xt": 1862,
      "ocus": 1863,
      "Ġrecord": 1864,
      "AR": 1865,
      "Ġsignificant": 1866,
      "We": 1867,
      "Ġdem": 1868,
      "ĠAg": 1869,
      "$$": 1870,
      "ĠCloud": 1871,
      "ĠAr": 1872,
      "Ġcomb": 1873,
      "Ġcredential": 1874,
      "itions": 1875,
      "Ġpop": 1876,
      "OS": 1877,
      "ero": 1878,
      "Ġaddresses": 1879,
      "obile": 1880,
      "Ġconfigure": 1881,
      "Ġref": 1882,
      "ey": 1883,
      "Ġcard": 1884,
      "Ġquest": 1885,
      "ĠID": 1886,
      "Ġel": 1887,
      "An": 1888,
      "Ġmechan": 1889,
      "mail": 1890,
      "ery": 1891,
      "imin": 1892,
      "iate": 1893,
      "aces": 1894,
      "Ġplan": 1895,
      "Ġoperating": 1896,
      "Ġparamet": 1897,
      "ellig": 1898,
      "roup": 1899,
      "ural": 1900,
      "fficient": 1901,
      "Ġconsider": 1902,
      "Ġsimilar": 1903,
      "Ġshow": 1904,
      "Ġresearch": 1905,
      "Ġincident": 1906,
      "overed": 1907,
      "``": 1908,
      "Ġreason": 1909,
      "rior": 1910,
      "ven": 1911,
      "Ġendpoint": 1912,
      "13": 1913,
      "Ġresearc": 1914,
      "Ġimpact": 1915,
      "Ġrunning": 1916,
      "ĠServer": 1917,
      "Ġplace": 1918,
      "Ġchanges": 1919,
      "Ġissues": 1920,
      "ĠAp": 1921,
      "Ġplatform": 1922,
      "Ġhead": 1923,
      "Ġsince": 1924,
      "Ġtechniques": 1925,
      "Ġcertain": 1926,
      "Ġconnection": 1927,
      "Ġoccur": 1928,
      "Ġcomplex": 1929,
      "ention": 1930,
      "ĠAct": 1931,
      "ulation": 1932,
      "Ġcreat": 1933,
      "Ġevent": 1934,
      "Ġgood": 1935,
      "Ġkeep": 1936,
      "Ġant": 1937,
      "struct": 1938,
      "Ġut": 1939,
      "Ġarch": 1940,
      "Ġinfrastructure": 1941,
      "ãģ§": 1942,
      "====": 1943,
      "ĠSS": 1944,
      "Ġcost": 1945,
      "Ġrespons": 1946,
      "gest": 1947,
      "amples": 1948,
      "||": 1949,
      "anguage": 1950,
      "Ġprivile": 1951,
      "Ġdatabase": 1952,
      "icate": 1953,
      "Ġsent": 1954,
      "Ġsite": 1955,
      "SP": 1956,
      "aving": 1957,
      "wit": 1958,
      "Ġfeatures": 1959,
      "ged": 1960,
      "ĠAPI": 1961,
      "alu": 1962,
      "Ġben": 1963,
      "by": 1964,
      "Ġassociated": 1965,
      "andom": 1966,
      "aj": 1967,
      "Ġstor": 1968,
      "ĠSh": 1969,
      "OR": 1970,
      "Ġstrateg": 1971,
      "Ġdepend": 1972,
      "Ġsolution": 1973,
      "Ġengine": 1974,
      "Ġissue": 1975,
      "Ġartic": 1976,
      "Ġelect": 1977,
      "ĠGo": 1978,
      "ik": 1979,
      "gu": 1980,
      "org": 1981,
      "Ġtem": 1982,
      "Ġsom": 1983,
      "Ġfocus": 1984,
      "itig": 1985,
      "Ġfunctions": 1986,
      "odes": 1987,
      "reen": 1988,
      "Ġwhether": 1989,
      "Ġhere": 1990,
      "Ġless": 1991,
      "Ġindust": 1992,
      "Ġselect": 1993,
      "Re": 1994,
      "Ġbuild": 1995,
      "opy": 1996,
      "Ġclo": 1997,
      "ĠURL": 1998,
      "Ġhum": 1999,
      "Ġess": 2000,
      "Ġneeds": 2001,
      "Ġassess": 2002,
      "Ġcreated": 2003,
      "sole": 2004,
      "Ġaud": 2005,
      "Ġappear": 2006,
      "Ġfew": 2007,
      "Ġoperations": 2008,
      "ĊĠ": 2009,
      "Ġsolutions": 2010,
      "eed": 2011,
      "ique": 2012,
      "ty": 2013,
      "ES": 2014,
      "Ġprocesses": 2015,
      "Ġkeys": 2016,
      ".âĢĿ": 2017,
      "50": 2018,
      "Ġdesigned": 2019,
      "Ġ>": 2020,
      "Ġrisks": 2021,
      "ons": 2022,
      "Ġdue": 2023,
      "Ġchall": 2024,
      "ãģĦ": 2025,
      "Ġsearch": 2026,
      "Ġgreat": 2027,
      "Ġrules": 2028,
      "Ġdi": 2029,
      "Ġransomware": 2030,
      "Ġdiff": 2031,
      "anies": 2032,
      "Ġ,": 2033,
      "Ġactivity": 2034,
      "Ġ12": 2035,
      "icult": 2036,
      "Ġrepresent": 2037,
      "âĢĶ": 2038,
      "rite": 2039,
      "ĠOn": 2040,
      "Ġevalu": 2041,
      "aches": 2042,
      "Ġcomplete": 2043,
      "itect": 2044,
      "erest": 2045,
      "Ġperformance": 2046,
      "Ġcannot": 2047,
      "atic": 2048,
      "Ġcontext": 2049,
      "ĠData": 2050,
      "ler": 2051,
      "Ġencrypted": 2052,
      "Ġpermiss": 2053,
      "18": 2054,
      "].": 2055,
      "Ġfirewall": 2056,
      "asing": 2057,
      "do": 2058,
      "Ġbl": 2059,
      "upp": 2060,
      "17": 2061,
      "202": 2062,
      "Ġprom": 2063,
      "Ġdon": 2064,
      "elligence": 2065,
      "ogle": 2066,
      "ãĤ¢": 2067,
      "irc": 2068,
      "ĠCy": 2069,
      "Ġshe": 2070,
      "Ġrelated": 2071,
      "ale": 2072,
      "Ġnumbers": 2073,
      "64": 2074,
      "Ġword": 2075,
      "Ad": 2076,
      "Ġtable": 2077,
      "Ġpath": 2078,
      "Ġphishing": 2079,
      "Ġpasswords": 2080,
      "etter": 2081,
      "idd": 2082,
      "Ġvalues": 2083,
      "How": 2084,
      "What": 2085,
      "ĠManagement": 2086,
      "acks": 2087,
      "ream": 2088,
      "Ġcho": 2089,
      "ients": 2090,
      "Ġincludes": 2091,
      "Ġsize": 2092,
      "Ġmy": 2093,
      "af": 2094,
      "Ġonline": 2095,
      "hip": 2096,
      "Ġtry": 2097,
      "ived": 2098,
      "Ġagent": 2099,
      "pass": 2100,
      "Ġeither": 2101,
      "Ġwebsite": 2102,
      "Ġaction": 2103,
      "Ġvirus": 2104,
      "Ġadditional": 2105,
      "ĠIm": 2106,
      "Ġcause": 2107,
      "cent": 2108,
      "ool": 2109,
      "Ġnecessary": 2110,
      "å®": 2111,
      "apter": 2112,
      "Ġfurther": 2113,
      "aries": 2114,
      "Ġ}": 2115,
      "liance": 2116,
      "ĠOr": 2117,
      "ges": 2118,
      "Ġmean": 2119,
      "Ġaround": 2120,
      "Ġfeature": 2121,
      "Ġcases": 2122,
      "author": 2123,
      "ling": 2124,
      "ternal": 2125,
      "Ġabove": 2126,
      "MS": 2127,
      "Ġmaking": 2128,
      "IS": 2129,
      "sp": 2130,
      "Ġoutput": 2131,
      "Ġcredentials": 2132,
      "lick": 2133,
      "roj": 2134,
      "iod": 2135,
      "Ġidentity": 2136,
      "Ġroot": 2137,
      "Ġcorrect": 2138,
      "Ġbecome": 2139,
      "Ġsteps": 2140,
      "de": 2141,
      "Ġdr": 2142,
      "Ġbehavior": 2143,
      "Ġlat": 2144,
      "Ġmark": 2145,
      "Ġdevelopment": 2146,
      "Ġdetails": 2147,
      "Ġchild": 2148,
      "ĠWhat": 2149,
      "###": 2150,
      "ĠLinux": 2151,
      "ength": 2152,
      "Ġintro": 2153,
      "Ġcomputers": 2154,
      "Ġleast": 2155,
      "Ġprograms": 2156,
      "ĠCent": 2157,
      "Ġtesting": 2158,
      "Ġessential": 2159,
      "ember": 2160,
      "ĠComm": 2161,
      "Ġsk": 2162,
      "Ġmonitoring": 2163,
      "Ġestabl": 2164,
      "Ġprior": 2165,
      "ĠPl": 2166,
      "ãģĮ": 2167,
      "Ġfree": 2168,
      "Ġcharacter": 2169,
      "ding": 2170,
      "Ġnext": 2171,
      "Ġprovided": 2172,
      "IC": 2173,
      "Ġcompanies": 2174,
      "Ġsimple": 2175,
      "ĠHe": 2176,
      "ands": 2177,
      "ging": 2178,
      "EN": 2179,
      "iting": 2180,
      "Ġpersonal": 2181,
      "ches": 2182,
      "Ġprim": 2183,
      "Ġphysical": 2184,
      "Ġaccounts": 2185,
      "Ġprivacy": 2186,
      "Ġknowledge": 2187,
      "Ġsus": 2188,
      "Ġanalyz": 2189,
      "Ġlast": 2190,
      "Ġoption": 2191,
      "ĠAtt": 2192,
      "lobal": 2193,
      "abled": 2194,
      "Ġcontains": 2195,
      "cr": 2196,
      ".\"": 2197,
      "Ġste": 2198,
      "Ġbelow": 2199,
      "Ġsocial": 2200,
      "Ġerror": 2201,
      "Ġmitig": 2202,
      "Ġdiscuss": 2203,
      "QL": 2204,
      "ãģŁ": 2205,
      "Ġgroups": 2206,
      "self": 2207,
      "ãģĹãģ¾ãģĻ": 2208,
      "Ġfull": 2209,
      "Ġresearchers": 2210,
      "ector": 2211,
      "ecure": 2212,
      "Ġvulnerable": 2213,
      "âĢľ": 2214,
      "ready": 2215,
      "ajor": 2216,
      "Ġbetter": 2217,
      "aws": 2218,
      "Ġrange": 2219,
      "Ġstored": 2220,
      "Ġsection": 2221,
      "Ġmakes": 2222,
      "Ġprevious": 2223,
      "ipher": 2224,
      "ained": 2225,
      "Ġrequires": 2226,
      "Ġsym": 2227,
      "LL": 2228,
      "reg": 2229,
      "rel": 2230,
      "ium": 2231,
      "Ġextr": 2232,
      "30": 2233,
      "Ġcontin": 2234,
      "When": 2235,
      "atically": 2236,
      "ĠBut": 2237,
      "Ġgrow": 2238,
      "Ġrecomm": 2239,
      "Ġfix": 2240,
      "Ġalways": 2241,
      "irm": 2242,
      "ĠInst": 2243,
      "Ġitself": 2244,
      "Ġcour": 2245,
      "Ġinstance": 2246,
      "Ġbel": 2247,
      "Ġcaus": 2248,
      "Ġvirtual": 2249,
      "Ġupdate": 2250,
      "ribution": 2251,
      "oard": 2252,
      "loc": 2253,
      "ãĥ³ãĥĪ": 2254,
      "(\"": 2255,
      "Ġsuccessful": 2256,
      "Ġ18": 2257,
      "Ġproducts": 2258,
      "Ġcryptograph": 2259,
      "Ġrequirements": 2260,
      "rem": 2261,
      "}{": 2262,
      "ache": 2263,
      "Ġinterest": 2264,
      "ãģĻãĤĭ": 2265,
      "Ġcomponents": 2266,
      "ired": 2267,
      "https": 2268,
      "Ġbro": 2269,
      "ume": 2270,
      "Ġaff": 2271,
      "eric": 2272,
      "Ġhealth": 2273,
      "Ġdele": 2274,
      "ĠWith": 2275,
      "Ġproject": 2276,
      "izing": 2277,
      "ody": 2278,
      "Ġexecution": 2279,
      "ĠService": 2280,
      "Ġobser": 2281,
      "Ch": 2282,
      "arent": 2283,
      "Ġprodu": 2284,
      "aps": 2285,
      "etric": 2286,
      "Ġalready": 2287,
      "Ġinterface": 2288,
      "oS": 2289,
      "ises": 2290,
      "erc": 2291,
      "Ġeffective": 2292,
      "Ġmodels": 2293,
      "ension": 2294,
      "ãĥĹ": 2295,
      "Ġdifficult": 2296,
      "iversity": 2297,
      "Ġability": 2298,
      "ĠCVE": 2299,
      "Ġalgorithm": 2300,
      "LS": 2301,
      "ĠSp": 2302,
      "Ġinvestig": 2303,
      "stant": 2304,
      "Ġfac": 2305,
      "side": 2306,
      "ract": 2307,
      "ĠInd": 2308,
      "40": 2309,
      "Ġred": 2310,
      "ermine": 2311,
      "Ġload": 2312,
      "Ġfam": 2313,
      "',": 2314,
      "pose": 2315,
      "chie": 2316,
      "Ġlif": 2317,
      ",âĢĿ": 2318,
      "ees": 2319,
      "Ġfore": 2320,
      "\":": 2321,
      "Ġgovernment": 2322,
      "ton": 2323,
      "irus": 2324,
      "ĠAccess": 2325,
      "ription": 2326,
      "Ġformat": 2327,
      "ĠâĢĶ": 2328,
      "Ġunique": 2329,
      "Ġproced": 2330,
      "Ġmet": 2331,
      "Ġusually": 2332,
      "Ġinstruct": 2333,
      "22": 2334,
      "Ġrest": 2335,
      "Ġmobile": 2336,
      "annel": 2337,
      "pri": 2338,
      "Ġexecute": 2339,
      "))": 2340,
      "lying": 2341,
      "AS": 2342,
      "epend": 2343,
      "authorized": 2344,
      "ryption": 2345,
      "Ġden": 2346,
      "ogn": 2347,
      "ren": 2348,
      "Figure": 2349,
      "Ġrepl": 2350,
      "Ġnorm": 2351,
      "Ġframework": 2352,
      "though": 2353,
      "Ġstructure": 2354,
      "ape": 2355,
      "Ġversions": 2356,
      "Ġdid": 2357,
      "Ġquick": 2358,
      "Ġrole": 2359,
      "respon": 2360,
      "wer": 2361,
      "There": 2362,
      "Ġregist": 2363,
      "Ġarticle": 2364,
      "Ġgeneral": 2365,
      "ari": 2366,
      "ĠUS": 2367,
      "right": 2368,
      "Ġspace": 2369,
      "aster": 2370,
      "Ġmeasures": 2371,
      "ologies": 2372,
      "ãĥī": 2373,
      "orth": 2374,
      "Ġmajor": 2375,
      "ĠDNS": 2376,
      "Ġadvers": 2377,
      "alse": 2378,
      "nces": 2379,
      "ides": 2380,
      "ĊĠĠĠĠ": 2381,
      "ably": 2382,
      "Ġminim": 2383,
      "Ġwar": 2384,
      "Ġrequests": 2385,
      "alc": 2386,
      "Ġlearning": 2387,
      "Ġstorage": 2388,
      "Ġavoid": 2389,
      "ĠApex": 2390,
      "Ġthough": 2391,
      "ynam": 2392,
      "Ġstrong": 2393,
      "Ġperiod": 2394,
      "kn": 2395,
      "Ġvol": 2396,
      "ãģķãĤ": 2397,
      "Ġrandom": 2398,
      "conf": 2399,
      "ML": 2400,
      "idence": 2401,
      "Ġtok": 2402,
      "Ġlanguage": 2403,
      "Ġhuman": 2404,
      "Ġachie": 2405,
      "Sc": 2406,
      "Ġactivities": 2407,
      "ĠControl": 2408,
      "Ġdone": 2409,
      "force": 2410,
      "Ġcontrols": 2411,
      "olicy": 2412,
      "www": 2413,
      "aring": 2414,
      "_{": 2415,
      "Int": 2416,
      "Ġlikely": 2417,
      "Ġthird": 2418,
      "ĠInformation": 2419,
      "sequ": 2420,
      "ãģķãĤĮ": 2421,
      "ble": 2422,
      "Ġhardware": 2423,
      "Ġlater": 2424,
      "Ġhttps": 2425,
      "jection": 2426,
      "],": 2427,
      "Ġlearn": 2428,
      "Ġstudy": 2429,
      "acking": 2430,
      "Ċĉ": 2431,
      "bed": 2432,
      "ĠEng": 2433,
      "Ġarchitect": 2434,
      "uture": 2435,
      "Ġhapp": 2436,
      "Ġide": 2437,
      "Ġimage": 2438,
      "Ġbeg": 2439,
      "Ġspecial": 2440,
      "tes": 2441,
      "Ġfrequ": 2442,
      "ĠAll": 2443,
      "til": 2444,
      "light": 2445,
      "Ġbrowser": 2446,
      "inary": 2447,
      "Ġevents": 2448,
      "34": 2449,
      "ĠâĢĺ": 2450,
      "ributed": 2451,
      "use": 2452,
      "Ġcompromised": 2453,
      "Ġthink": 2454,
      "80": 2455,
      "Ġinternal": 2456,
      "Ġes": 2457,
      "Ġexisting": 2458,
      "dent": 2459,
      "part": 2460,
      "Ġstring": 2461,
      "Ġcontinu": 2462,
      "Ġdefined": 2463,
      "Ġamount": 2464,
      "aun": 2465,
      "Ġproblems": 2466,
      "Ġhig": 2467,
      "Ġpractices": 2468,
      "ireless": 2469,
      "Ġetc": 2470,
      "air": 2471,
      "ĠGoogle": 2472,
      "ences": 2473,
      "Ġ20": 2474,
      "Ġcertificate": 2475,
      "illion": 2476,
      "Ġways": 2477,
      "Ġaffect": 2478,
      "iving": 2479,
      "Ġdefin": 2480,
      "Ġgain": 2481,
      "Al": 2482,
      "Ġlet": 2483,
      "Ġassign": 2484,
      "Ġdetermine": 2485,
      "ĊĠĠĠĠĠĠĠĠĠĠĠĠĠĠĠ": 2486,
      "cont": 2487,
      "Ġconcept": 2488,
      "Ġindic": 2489,
      "man": 2490,
      "Ġunauthorized": 2491,
      "Ġinternet": 2492,
      "ored": 2493,
      "Ġobtain": 2494,
      "Ġdisplay": 2495,
      "Ġlayer": 2496,
      "Ġimprove": 2497,
      "Ġdirectly": 2498,
      "Ġdest": 2499,
      "ĠOpen": 2500,
      "ilt": 2501,
      "onom": 2502,
      "Ġclear": 2503,
      "Ġ$$": 2504,
      "Ġreview": 2505,
      "Ġarea": 2506,
      "RO": 2507,
      "ĊĊĠĠĠ": 2508,
      "pd": 2509,
      "Ġregular": 2510,
      "Ġunderstanding": 2511,
      "24": 2512,
      "Ġcompliance": 2513,
      "ĠNew": 2514,
      "box": 2515,
      "AD": 2516,
      "Ġutil": 2517,
      "ope": 2518,
      "Ġlib": 2519,
      "olution": 2520,
      "99": 2521,
      "Ġintrodu": 2522,
      "Ġpacket": 2523,
      "Ġscen": 2524,
      "Ġsepar": 2525,
      "aging": 2526,
      "ising": 2527,
      "ems": 2528,
      "rojan": 2529,
      "Ġprotocols": 2530,
      "Tr": 2531,
      "Ġpubl": 2532,
      "Ġsure": 2533,
      "Ġneeded": 2534,
      "Ġalert": 2535,
      "Ġtrad": 2536,
      "Ġec": 2537,
      "Ġmanage": 2538,
      "ched": 2539,
      "Ġhist": 2540,
      "Ġtypically": 2541,
      "Ġactions": 2542,
      "Ġentire": 2543,
      "vant": 2544,
      "Ġbenef": 2545,
      "Ġoriginal": 2546,
      "erprise": 2547,
      "br": 2548,
      "Ġidentif": 2549,
      "Ġshows": 2550,
      "Ġlit": 2551,
      "DP": 2552,
      "inks": 2553,
      "PN": 2554,
      "Ġcare": 2555,
      "ply": 2556,
      "ancial": 2557,
      "EE": 2558,
      "Ġsug": 2559,
      "fact": 2560,
      "iles": 2561,
      "Ġhash": 2562,
      "Ġconcern": 2563,
      "alware": 2564,
      "Ġnames": 2565,
      "Ġlocation": 2566,
      "Ġshown": 2567,
      "Ġfilter": 2568,
      "Ġshare": 2569,
      "strict": 2570,
      "Ġintr": 2571,
      "Ġshort": 2572,
      "ĠConf": 2573,
      "60": 2574,
      "sers": 2575,
      "itimate": 2576,
      "ĠEn": 2577,
      "Ġworks": 2578,
      "ression": 2579,
      "Ġloss": 2580,
      "Ġappl": 2581,
      "ately": 2582,
      "Ġincreasing": 2583,
      "Ġhackers": 2584,
      "Ġenable": 2585,
      "aling": 2586,
      "ething": 2587,
      "aim": 2588,
      "=\"": 2589,
      "Ġwide": 2590,
      "MP": 2591,
      "Ġbit": 2592,
      "Ġexpos": 2593,
      "Ġter": 2594,
      "Ġadministrators": 2595,
      "Ġtimes": 2596,
      "Ġmove": 2597,
      "Ġupdates": 2598,
      "Ġlab": 2599,
      "Ġcirc": 2600,
      "ĠAss": 2601,
      "Ġdam": 2602,
      "Ġwater": 2603,
      "AA": 2604,
      "Ġaccording": 2605,
      "Ġsites": 2606,
      "ivity": 2607,
      "Ġconnected": 2608,
      "Ġflow": 2609,
      "Ġcamp": 2610,
      "Ġeasy": 2611,
      "Ġworking": 2612,
      "level": 2613,
      "Ġtoday": 2614,
      "ffor": 2615,
      "frac": 2616,
      "vention": 2617,
      "inter": 2618,
      "Ġfour": 2619,
      "Ġday": 2620,
      "micro": 2621,
      "pre": 2622,
      "Ġdeveloped": 2623,
      "encies": 2624,
      "tle": 2625,
      "ĊĊ": 2626,
      "Ġweak": 2627,
      "alk": 2628,
      "Ġinfected": 2629,
      "roid": 2630,
      "ps": 2631,
      "Ġidentified": 2632,
      "flow": 2633,
      "Ġappropri": 2634,
      "els": 2635,
      "Ġrather": 2636,
      "back": 2637,
      "Ġrule": 2638,
      "å®ļ": 2639,
      "Ġexternal": 2640,
      "Ġpaper": 2641,
      "be": 2642,
      "Ġ15": 2643,
      "change": 2644,
      "Ġpayload": 2645,
      "Ġpoints": 2646,
      "iation": 2647,
      "ĠReg": 2648,
      "Ġobjects": 2649,
      "opt": 2650,
      "mission": 2651,
      "tm": 2652,
      "ava": 2653,
      "Ġdiscovered": 2654,
      "Ġlimit": 2655,
      "Ġresource": 2656,
      "Ġmode": 2657,
      "Ġtraining": 2658,
      "Ġoperation": 2659,
      "ĠDirect": 2660,
      "ĠTechn": 2661,
      "Ġcapabilities": 2662,
      "Ġaffected": 2663,
      "Ġtoo": 2664,
      "istic": 2665,
      "Ġfuture": 2666,
      "Ġvend": 2667,
      "Ġhowever": 2668,
      "asks": 2669,
      "Ġrob": 2670,
      "ION": 2671,
      "earch": 2672,
      "ãģ¨": 2673,
      "ĠDet": 2674,
      "known": 2675,
      "Ġschem": 2676,
      "iver": 2677,
      "aign": 2678,
      "Ġwhy": 2679,
      "Ġans": 2680,
      "eder": 2681,
      "ĠSet": 2682,
      "ĠAnal": 2683,
      "Ġimplementation": 2684,
      "You": 2685,
      "ĠMod": 2686,
      "Ġcomponent": 2687,
      "cing": 2688,
      "thing": 2689,
      "Ġput": 2690,
      "Ġarbit": 2691,
      "Ġtargeted": 2692,
      "Ġautomatically": 2693,
      "Ġcopy": 2694,
      "Ġsession": 2695,
      "Cl": 2696,
      "isk": 2697,
      "ole": 2698,
      "Ġlegitimate": 2699,
      "Ġpred": 2700,
      "los": 2701,
      "Ġdetermin": 2702,
      "Ġbecom": 2703,
      "Ġconduct": 2704,
      ",\"": 2705,
      "hens": 2706,
      "ffer": 2707,
      "Ġlogs": 2708,
      "Ġadded": 2709,
      "Ġinitial": 2710,
      "ceed": 2711,
      "Ġeasily": 2712,
      "Ġsum": 2713,
      "ray": 2714,
      "Ġintelligence": 2715,
      "Ġland": 2716,
      "Ġhaving": 2717,
      "Ġcruc": 2718,
      "Th": 2719,
      "Ġsusp": 2720,
      "Ġpermissions": 2721,
      "Ġsequ": 2722,
      "Ġinstalled": 2723,
      "trend": 2724,
      "Ġmeasure": 2725,
      "Ġmaintain": 2726,
      "Ġproviding": 2727,
      "iminals": 2728,
      "oding": 2729,
      "ric": 2730,
      "gether": 2731,
      "Ġcustomers": 2732,
      "erial": 2733,
      "Ġdri": 2734,
      "go": 2735,
      "Com": 2736,
      "ĠAmeric": 2737,
      "exe": 2738,
      "OC": 2739,
      "aken": 2740,
      "Ġconsid": 2741,
      "Ġtrig": 2742,
      "Ġothers": 2743,
      "Ġplay": 2744,
      "AL": 2745,
      "add": 2746,
      "Ġsomething": 2747,
      "actions": 2748,
      "ifying": 2749,
      "Ġcrucial": 2750,
      "åĲ": 2751,
      "ifications": 2752,
      "onstr": 2753,
      "Ġcontact": 2754,
      "Ġuseful": 2755,
      "mediate": 2756,
      "ãĥŃ": 2757,
      "vert": 2758,
      "Ġpen": 2759,
      "Ġoptions": 2760,
      "ison": 2761,
      "pecially": 2762,
      "On": 2763,
      "ribute": 2764,
      "Ġprotected": 2765,
      "è¨": 2766,
      "ĠComput": 2767,
      "let": 2768,
      "azon": 2769,
      "oll": 2770,
      "ĠOS": 2771,
      "Ġ16": 2772,
      "^{": 2773,
      "Ġlaw": 2774,
      "Ġsuggest": 2775,
      "co": 2776,
      "ĠWhile": 2777,
      "Ġquestion": 2778,
      "ties": 2779,
      "Ġincrease": 2780,
      "ĠQu": 2781,
      "Ġwebsites": 2782,
      "ED": 2783,
      "Ġbook": 2784,
      "ception": 2785,
      "Ġlength": 2786,
      "Ġindustry": 2787,
      "Ġemails": 2788,
      "Ġdirectory": 2789,
      "200": 2790,
      "key": 2791,
      "Ġpackets": 2792,
      "data": 2793,
      "Ġactors": 2794,
      "Ġmonth": 2795,
      "ĠFr": 2796,
      "we": 2797,
      "Ġcommands": 2798,
      "Ġthings": 2799,
      "Ġzero": 2800,
      "Ġfinancial": 2801,
      "Ġenh": 2802,
      "35": 2803,
      "Ġsimply": 2804,
      "istics": 2805,
      "mod": 2806,
      "Ġconsist": 2807,
      "Ġuntil": 2808,
      "Ġalong": 2809,
      "ĠLog": 2810,
      "Ġtask": 2811,
      "Ġkind": 2812,
      "Ġallowing": 2813,
      "ane": 2814,
      "lease": 2815,
      "ĠDef": 2816,
      "abling": 2817,
      "Ġarbitrary": 2818,
      "Ġswit": 2819,
      "ĠPh": 2820,
      "Ġmedia": 2821,
      "like": 2822,
      "36": 2823,
      "Ġgraph": 2824,
      "Ġchalleng": 2825,
      "Ġrestrict": 2826,
      "Ġâ": 2827,
      "Ġinstead": 2828,
      "ĠRem": 2829,
      "verage": 2830,
      "Ġsay": 2831,
      "Ġcampaign": 2832,
      "ãĥĨ": 2833,
      "çĶ": 2834,
      "ching": 2835,
      "file": 2836,
      "Ġchannel": 2837,
      "itional": 2838,
      "Ġenvironments": 2839,
      "Ġdetected": 2840,
      "ars": 2841,
      "PT": 2842,
      "Ġaware": 2843,
      "elect": 2844,
      "ming": 2845,
      "ĠPre": 2846,
      "Ġsit": 2847,
      "ĊĠĠĠĠĠĠĠĠĠĠĠĠĠĠĠĠ": 2848,
      "Aut": 2849,
      "ernel": 2850,
      "Ġcell": 2851,
      "Ġappropriate": 2852,
      "Ġonce": 2853,
      "Ġreduce": 2854,
      "ont": 2855,
      "rupt": 2856,
      "CS": 2857,
      "Ġscreen": 2858,
      "Ġterms": 2859,
      "chool": 2860,
      "Ġhttp": 2861,
      "Ġpopular": 2862,
      "Ġold": 2863,
      "Ġtechnical": 2864,
      "omain": 2865,
      "Ġcalc": 2866,
      "Ġamong": 2867,
      "ilit": 2868,
      "Ġopp": 2869,
      "Ġrecent": 2870,
      "rie": 2871,
      "izes": 2872,
      "Ġeffor": 2873,
      "Ġspecified": 2874,
      "ateway": 2875,
      "Ġrecogn": 2876,
      "cle": 2877,
      "Ġstatus": 2878,
      "isms": 2879,
      "ulate": 2880,
      "ĠSome": 2881,
      "Ġemployees": 2882,
      "ĠEnc": 2883,
      "ronic": 2884,
      "44": 2885,
      "Ġproxy": 2886,
      "Ġprompt": 2887,
      "print": 2888,
      "Ġdemonstr": 2889,
      "EM": 2890,
      "ĠUniversity": 2891,
      "}$": 2892,
      "Ġconsidered": 2893,
      "math": 2894,
      "ones": 2895,
      "Ġexam": 2896,
      "Ġsafe": 2897,
      "atory": 2898,
      "oss": 2899,
      "Ġregard": 2900,
      "Ġoptim": 2901,
      "nder": 2902,
      "ĠAI": 2903,
      "Ġ11": 2904,
      "ĠPC": 2905,
      "ĠNot": 2906,
      "Ġcome": 2907,
      "Ġagents": 2908,
      "ãĥĿ": 2909,
      "ploit": 2910,
      "ĠAcc": 2911,
      "ensive": 2912,
      "ãĤ¨": 2913,
      "lu": 2914,
      "________": 2915,
      "Ġcover": 2916,
      "ĠClick": 2917,
      "from": 2918,
      "Ġ$\\": 2919,
      "ĠProtection": 2920,
      "Ġquickly": 2921,
      "Ġlaun": 2922,
      "Ġrefer": 2923,
      "86": 2924,
      "Ġgive": 2925,
      "security": 2926,
      "70": 2927,
      "Ġconfigured": 2928,
      "aud": 2929,
      "Res": 2930,
      "Ġcipher": 2931,
      "Ġbasic": 2932,
      "ĠUsing": 2933,
      "hold": 2934,
      "duction": 2935,
      "hensive": 2936,
      "Ġcomes": 2937,
      "Ġcourse": 2938,
      "Ġbelie": 2939,
      "Ġcompre": 2940,
      "Ġprocessing": 2941,
      "Ġspread": 2942,
      "Ġwireless": 2943,
      "ĠGu": 2944,
      "Ġtechnologies": 2945,
      "----------------": 2946,
      "Ġadvant": 2947,
      "Ġaccept": 2948,
      "head": 2949,
      "ditions": 2950,
      "ots": 2951,
      "Ġhome": 2952,
      "90": 2953,
      "Ġbound": 2954,
      "ĠUse": 2955,
      "board": 2956,
      "Ġglobal": 2957,
      "\")": 2958,
      "ãģĹãģ¦": 2959,
      "ãĥ¼ãĥ«": 2960,
      "Ġstudents": 2961,
      "âĢĵ": 2962,
      "Ġcorrespon": 2963,
      "Ġespecially": 2964,
      "Ġadvanced": 2965,
      "Ġtrue": 2966,
      "most": 2967,
      "now": 2968,
      "hy": 2969,
      "wise": 2970,
      "Ġtechnique": 2971,
      "gs": 2972,
      "Ġactually": 2973,
      "active": 2974,
      "Ġenough": 2975,
      "ĠThat": 2976,
      "One": 2977,
      "Ġconnections": 2978,
      "56": 2979,
      "OT": 2980,
      "ah": 2981,
      "Ġgenerated": 2982,
      "idential": 2983,
      "Ġcapt": 2984,
      "Ġareas": 2985,
      "taining": 2986,
      "hich": 2987,
      "Ġwrite": 2988,
      "Ġmax": 2989,
      "Ġclaim": 2990,
      "Ġbank": 2991,
      "Ġside": 2992,
      "acters": 2993,
      "terns": 2994,
      "Ġconsum": 2995,
      "Ġterm": 2996,
      "Ġseen": 2997,
      "Ġlatest": 2998,
      "ãĤ§": 2999,
      "ĠAt": 3000,
      "ĠDisc": 3001,
      "ä¸": 3002,
      "Ġwritten": 3003,
      "ĠSQL": 3004,
      "Ġsubject": 3005,
      "Ġtri": 3006,
      "where": 3007,
      "code": 3008,
      "LM": 3009,
      "ĠIs": 3010,
      "ĠUnited": 3011,
      "By": 3012,
      "ights": 3013,
      "Ġrate": 3014,
      "ental": 3015,
      "ĠThreat": 3016,
      "Ġ14": 3017,
      "Ġspam": 3018,
      "Ġask": 3019,
      "ĠCyber": 3020,
      "Ġhy": 3021,
      "Ġcreating": 3022,
      "ideo": 3023,
      "Ġhigher": 3024,
      "Ġbroad": 3025,
      "ĠAgent": 3026,
      "ãĥ©": 3027,
      "Ġquant": 3028,
      "Ġparameter": 3029,
      "Ġtogether": 3030,
      "Ġmaterial": 3031,
      "ĠGroup": 3032,
      "33": 3033,
      "Ġearly": 3034,
      "ãĤ»": 3035,
      "Ġher": 3036,
      "Ġbegin": 3037,
      "ublic": 3038,
      "Ġtasks": 3039,
      "Ġ)": 3040,
      "Ġbi": 3041,
      "Ġlife": 3042,
      "Ġdistribution": 3043,
      "Security": 3044,
      "Ġlinks": 3045,
      "Ġprinc": 3046,
      "Ġeffectively": 3047,
      "Ġmiss": 3048,
      "Ġsources": 3049,
      "Ġindividuals": 3050,
      "Ġaspect": 3051,
      "ĠInc": 3052,
      "Ġactive": 3053,
      "ãĥķãĤ": 3054,
      "Ġpast": 3055,
      "Ġdynam": 3056,
      "Ġnormal": 3057,
      "Ġtot": 3058,
      "oT": 3059,
      "ĠIdent": 3060,
      "Ġsecret": 3061,
      "Ġcybercr": 3062,
      "Ġpotentially": 3063,
      "US": 3064,
      "Ġmodule": 3065,
      "Ġshared": 3066,
      "ached": 3067,
      "Ġtaken": 3068,
      "ring": 3069,
      "Ġaccur": 3070,
      "ĠRec": 3071,
      "Ġrespond": 3072,
      "Ġrad": 3073,
      "ĠTrans": 3074,
      "arily": 3075,
      "Ġlevels": 3076,
      "Ġcollect": 3077,
      "Ġleft": 3078,
      "Ġhelps": 3079,
      "Ġensuring": 3080,
      "Ġparameters": 3081,
      "Ġpurpose": 3082,
      "ĠSSL": 3083,
      "27": 3084,
      "Ġdoesn": 3085,
      "Ġlogin": 3086,
      "ĠDec": 3087,
      "Ġbuilt": 3088,
      "DoS": 3089,
      "amed": 3090,
      "yle": 3091,
      "PC": 3092,
      "Ġintegrity": 3093,
      "Ġsignature": 3094,
      "Ġreve": 3095,
      "Ġbusinesses": 3096,
      "Ġdays": 3097,
      "Ġreported": 3098,
      "Ġfar": 3099,
      "ĠApplication": 3100,
      "Un": 3101,
      "Ġbody": 3102,
      ".)": 3103,
      "Ġwords": 3104,
      "aced": 3105,
      "ĠFigure": 3106,
      "ergy": 3107,
      "Ġgoing": 3108,
      "Ġefficient": 3109,
      "ĠBe": 3110,
      "26": 3111,
      "mitted": 3112,
      "Ġprimary": 3113,
      "ram": 3114,
      "ãĥ¥": 3115,
      "è¡": 3116,
      "Ġbreak": 3117,
      "Ġcharacters": 3118,
      "So": 3119,
      "ĠWork": 3120,
      "Ġneg": 3121,
      "Ġturn": 3122,
      "ĠAdd": 3123,
      "Ġapply": 3124,
      "23": 3125,
      "Ġorigin": 3126,
      "Ġallowed": 3127,
      "Ġ!": 3128,
      "verse": 3129,
      "Ġmis": 3130,
      "ĠVPN": 3131,
      "Ġinvolves": 3132,
      "une": 3133,
      "erous": 3134,
      "Ġrobust": 3135,
      "Ġlimited": 3136,
      "åı": 3137,
      "Ġstandards": 3138,
      "ma": 3139,
      "Ser": 3140,
      "Im": 3141,
      "Ġill": 3142,
      "Ġbreach": 3143,
      "Ġdate": 3144,
      "ĠPriv": 3145,
      "Ġmanaged": 3146,
      "lex": 3147,
      "Ġprivileges": 3148,
      "oney": 3149,
      "28": 3150,
      "ouse": 3151,
      "Ġcompromise": 3152,
      "elves": 3153,
      "Ġ100": 3154,
      "Ġ17": 3155,
      "Ġtargets": 3156,
      "Ġconditions": 3157,
      "ections": 3158,
      "ĠEd": 3159,
      "Ġcomputing": 3160,
      "Ġrecommend": 3161,
      "Ġnever": 3162,
      "Ġsitu": 3163,
      "55": 3164,
      "erson": 3165,
      "iable": 3166,
      "Ġwee": 3167,
      "ãĥĥãĤ¯": 3168,
      "Ġcontinue": 3169,
      "Ġmachines": 3170,
      "ĠOffic": 3171,
      "Ġtakes": 3172,
      "ĠAndroid": 3173,
      "Ġcustomer": 3174,
      "Ġparticularly": 3175,
      "Ġincluded": 3176,
      "Ġadministrator": 3177,
      "96": 3178,
      "import": 3179,
      "book": 3180,
      "ulnerability": 3181,
      "Ġuns": 3182,
      "Ġelements": 3183,
      "Ġargu": 3184,
      "Ġtransfer": 3185,
      "\".": 3186,
      "Ġalgorithms": 3187,
      "Ġdistributed": 3188,
      "Ġconstruct": 3189,
      "100": 3190,
      "Ġoffers": 3191,
      "Ġregul": 3192,
      "Ġsmart": 3193,
      "etimes": 3194,
      "Ġclients": 3195,
      "Ġlight": 3196,
      "ĠStates": 3197,
      "ĠProtocol": 3198,
      "IM": 3199,
      "avig": 3200,
      "Ġcross": 3201,
      "Ġcentral": 3202,
      "Ġattempts": 3203,
      "Ġtoken": 3204,
      "Ġpublished": 3205,
      "Ġscanning": 3206,
      "Ġmechanism": 3207,
      "ferences": 3208,
      "Ġcomprehensive": 3209,
      "Ġpatterns": 3210,
      "clusion": 3211,
      "etration": 3212,
      "ãĥ¼ãĤ¸": 3213,
      "iol": 3214,
      "ãĤ¿": 3215,
      "Ġmarket": 3216,
      "App": 3217,
      "Ġarchitecture": 3218,
      "Ġenergy": 3219,
      "Ġapps": 3220,
      "hentication": 3221,
      "Ġprofession": 3222,
      "Ġpercent": 3223,
      "ills": 3224,
      "{\\": 3225,
      "PU": 3226,
      "Ġfund": 3227,
      "ners": 3228,
      "Ġbase": 3229,
      "unction": 3230,
      "Cont": 3231,
      "inst": 3232,
      "Ġmillion": 3233,
      "Ġlay": 3234,
      "Ġnear": 3235,
      "Ġstrategy": 3236,
      "Ġdocuments": 3237,
      "list": 3238,
      "with": 3239,
      "('": 3240,
      "Ġwind": 3241,
      "Ġreports": 3242,
      "icit": 3243,
      "Ġpractice": 3244,
      "Ġforward": 3245,
      "ivirus": 3246,
      "arant": 3247,
      "kt": 3248,
      "Name": 3249,
      "Ġspecif": 3250,
      "Ġlonger": 3251,
      "Ġdescribed": 3252,
      "Ġdomains": 3253,
      "ĠDo": 3254,
      "Ġcur": 3255,
      "ump": 3256,
      "Ġapplied": 3257,
      "Ġimmediate": 3258,
      "Ġguid": 3259,
      "IST": 3260,
      "ãĤ¦": 3261,
      "Ġpropos": 3262,
      "Ġstream": 3263,
      "ĠTrojan": 3264,
      "ift": 3265,
      "Ġ%": 3266,
      "aves": 3267,
      "Ġdamage": 3268,
      "ications": 3269,
      "LE": 3270,
      "user": 3271,
      "hell": 3272,
      "Ġimpl": 3273,
      "ĠEnt": 3274,
      "Ġcommunications": 3275,
      "ĠTCP": 3276,
      "ãģª": 3277,
      "37": 3278,
      "Ġclose": 3279,
      "ĠAfter": 3280,
      "ags": 3281,
      "Ġchain": 3282,
      "Ġgenerate": 3283,
      "Data": 3284,
      "ili": 3285,
      "Ġdecrypt": 3286,
      "ĠLe": 3287,
      "Ġexperience": 3288,
      "ĠSm": 3289,
      "Ġprovider": 3290,
      "Ġremove": 3291,
      "Ġinside": 3292,
      "UID": 3293,
      "eline": 3294,
      "attack": 3295,
      "Ġteams": 3296,
      "Ġenables": 3297,
      "Ġlot": 3298,
      "ãĤµ": 3299,
      "ãĥ¼ãĥĪ": 3300,
      "Ġbig": 3301,
      "ĠFile": 3302,
      "ĠMon": 3303,
      "Ġengineering": 3304,
      "Ġquery": 3305,
      "Ġsays": 3306,
      "ĠTest": 3307,
      "Ġprint": 3308,
      "land": 3309,
      "Ġimplemented": 3310,
      "abor": 3311,
      "Ġchecks": 3312,
      "Ġfunctionality": 3313,
      "45": 3314,
      "ategor": 3315,
      "yth": 3316,
      "atively": 3317,
      "lier": 3318,
      "ãĥĲ": 3319,
      "ĠSe": 3320,
      "ĠTe": 3321,
      "ned": 3322,
      "Ġreceived": 3323,
      "Ġart": 3324,
      "icense": 3325,
      "urop": 3326,
      "ols": 3327,
      "reate": 3328,
      "Ġrespect": 3329,
      "Ġmechanisms": 3330,
      "Ġevidence": 3331,
      "Ġleak": 3332,
      "class": 3333,
      "ectors": 3334,
      "tings": 3335,
      "========": 3336,
      "ĠKey": 3337,
      "With": 3338,
      "Ġseries": 3339,
      "uster": 3340,
      "Ġestablish": 3341,
      "urns": 3342,
      "Ġreceive": 3343,
      "Ġdriv": 3344,
      "ecause": 3345,
      "Ġnote": 3346,
      "Ġtermin": 3347,
      "Ġenterprise": 3348,
      "Ġentry": 3349,
      "Ġbinary": 3350,
      "Ġrecords": 3351,
      "Ġenabled": 3352,
      "onym": 3353,
      "ãĥ¬": 3354,
      "Ġmodern": 3355,
      "Ġ30": 3356,
      "Ġfalse": 3357,
      "Ġdevelopers": 3358,
      "ĠGener": 3359,
      "Ġrelations": 3360,
      "CE": 3361,
      "Ġhold": 3362,
      "Ġbackup": 3363,
      "Ġeduc": 3364,
      "Ġnode": 3365,
      "Ġoffer": 3366,
      "Ġchildren": 3367,
      "down": 3368,
      "bl": 3369,
      "aff": 3370,
      "ining": 3371,
      "ãĤ°": 3372,
      "ĠãĤĴ": 3373,
      "Ġmail": 3374,
      "Ġkernel": 3375,
      "Ġdisk": 3376,
      "Ġtotal": 3377,
      "Ġsurface": 3378,
      "Ġembed": 3379,
      "Ġoutside": 3380,
      "ĠUser": 3381,
      "OM": 3382,
      "ĠOnce": 3383,
      "98": 3384,
      "ously": 3385,
      "Ġreleased": 3386,
      "mselves": 3387,
      "Ġsy": 3388,
      "oved": 3389,
      "Ġrelevant": 3390,
      "Ġexact": 3391,
      "48": 3392,
      "SC": 3393,
      "ean": 3394,
      "Ġoffic": 3395,
      "Ġremain": 3396,
      "Ġquestions": 3397,
      "Ġsuspicious": 3398,
      "iction": 3399,
      "}\\": 3400,
      ":**": 3401,
      "enge": 3402,
      "ina": 3403,
      "Ġtreat": 3404,
      "Ġendpoints": 3405,
      "21": 3406,
      "Ġassets": 3407,
      "phist": 3408,
      "Ġtraditional": 3409,
      "Ġlooking": 3410,
      "Ġthemselves": 3411,
      "Ġ...": 3412,
      "Ġhistory": 3413,
      "Ġ@": 3414,
      "Ġexamples": 3415,
      "Ġanti": 3416,
      "orn": 3417,
      "agn": 3418,
      "rix": 3419,
      "HA": 3420,
      "Ġinstructions": 3421,
      "DR": 3422,
      "ending": 3423,
      "ederal": 3424,
      "Ġevol": 3425,
      "Note": 3426,
      "Ġsn": 3427,
      "Ġgen": 3428,
      "Ġemerg": 3429,
      "artment": 3430,
      "Ġtrusted": 3431,
      "Ġextract": 3432,
      "Ġsafety": 3433,
      "comm": 3434,
      "ĠAmazon": 3435,
      "Ġcondition": 3436,
      "Ġregion": 3437,
      "idden": 3438,
      "Ġchoose": 3439,
      "porate": 3440,
      "oring": 3441,
      "ai": 3442,
      "Ġprocedures": 3443,
      "Ġdefense": 3444,
      "Ġplug": 3445,
      "Ġmicro": 3446,
      "Ġyet": 3447,
      "Ġhappen": 3448,
      "Ġverify": 3449,
      "Ġinjection": 3450,
      "ĠSoftware": 3451,
      "oving": 3452,
      "78": 3453,
      "38": 3454,
      "ĠEm": 3455,
      "Ġphone": 3456,
      "Ġincor": 3457,
      "lood": 3458,
      "Ġcertificates": 3459,
      "ĠEach": 3460,
      "Ġconsole": 3461,
      "Ġtab": 3462,
      "ĠServices": 3463,
      "ĠNo": 3464,
      "ersion": 3465,
      "Ġsending": 3466,
      "Ġbypass": 3467,
      "II": 3468,
      "tml": 3469,
      "ological": 3470,
      "ully": 3471,
      "ĠCan": 3472,
      "ĠScan": 3473,
      "EL": 3474,
      "Ġsophist": 3475,
      "................................": 3476,
      "Ġenforce": 3477,
      "Ġmult": 3478,
      "Ġmaxim": 3479,
      "Ġharm": 3480,
      "ĠCode": 3481,
      "Ġbox": 3482,
      "ips": 3483,
      "pping": 3484,
      "alf": 3485,
      "Ġfinal": 3486,
      "Ġnat": 3487,
      "iec": 3488,
      "amb": 3489,
      "oh": 3490,
      "Ġpages": 3491,
      "ãĤ£": 3492,
      "pped": 3493,
      "ä½": 3494,
      "ĠMac": 3495,
      "\\[": 3496,
      "Ġassum": 3497,
      "Ġassessment": 3498,
      "ours": 3499,
      "host": 3500,
      "Ġmanip": 3501,
      "ĠManager": 3502,
      "Ġmeaning": 3503,
      "ncy": 3504,
      "ĠSim": 3505,
      "UT": 3506,
      "Ġupdated": 3507,
      "Ġattach": 3508,
      "ributes": 3509,
      "quest": 3510,
      "Ġindepend": 3511,
      "Ġinvolved": 3512,
      "ãĤ·": 3513,
      "ops": 3514,
      "Ġvideo": 3515,
      "ĠNational": 3516,
      "ython": 3517,
      "Ġanswer": 3518,
      "Ġelse": 3519,
      "ĠMore": 3520,
      "Ġmot": 3521,
      "ĠComp": 3522,
      "Ġmeet": 3523,
      "Ġsumm": 3524,
      "Ġconstant": 3525,
      "è¨Ń": 3526,
      "Ġusage": 3527,
      "Ġcryptographic": 3528,
      "Ġvariety": 3529,
      "Ġshell": 3530,
      "Ġresponsible": 3531,
      "Ġwor": 3532,
      "29": 3533,
      "Ġpress": 3534,
      "ws": 3535,
      "Ġ2020": 3536,
      "Ġaim": 3537,
      "Ġ13": 3538,
      "ĠRed": 3539,
      "ç´": 3540,
      "Ġcommunity": 3541,
      "FA": 3542,
      "Ġhighly": 3543,
      "Ġbreaches": 3544,
      "Ġdetailed": 3545,
      "ĠPolicy": 3546,
      "Ġlittle": 3547,
      "gress": 3548,
      "help": 3549,
      "Ġlock": 3550,
      "ories": 3551,
      "è¨Ńå®ļ": 3552,
      "ustr": 3553,
      "Ġmanaging": 3554,
      "Ġreally": 3555,
      "Ġmass": 3556,
      "rec": 3557,
      "Ġthus": 3558,
      "conn": 3559,
      "ĠAttack": 3560,
      "bu": 3561,
      "Ġheader": 3562,
      "Ġvictims": 3563,
      "ulated": 3564,
      "ded": 3565,
      "ams": 3566,
      "ĠCentral": 3567,
      "Ġder": 3568,
      "Ġbits": 3569,
      "door": 3570,
      "Ġann": 3571,
      "ortun": 3572,
      "ĠEurop": 3573,
      "Ġexecuted": 3574,
      "04": 3575,
      "Ġdefine": 3576,
      "oded": 3577,
      "Ġinform": 3578,
      "iguring": 3579,
      "Ġcurrently": 3580,
      "Ġproperly": 3581,
      "ĠOb": 3582,
      "Ġchallenges": 3583,
      "Ġcontaining": 3584,
      "Ġspeed": 3585,
      "enses": 3586,
      "isions": 3587,
      "ĠGr": 3588,
      "bre": 3589,
      "Ġrouter": 3590,
      "php": 3591,
      "Ġblog": 3592,
      "ario": 3593,
      "stit": 3594,
      "service": 3595,
      "na": 3596,
      "Ġupon": 3597,
      "Ġimages": 3598,
      "ats": 3599,
      "Ġnature": 3600,
      "ĠJava": 3601,
      "Ġtrack": 3602,
      "aft": 3603,
      "Ġnodes": 3604,
      "ufact": 3605,
      "\\]": 3606,
      "upport": 3607,
      "Ġfall": 3608,
      "Ġrights": 3609,
      "ĊĊĠĠĠĠĠĠĠ": 3610,
      "Ġperformed": 3611,
      "AB": 3612,
      "Ġtherefore": 3613,
      "ĠBl": 3614,
      "iddle": 3615,
      "ta": 3616,
      "Ġmembers": 3617,
      "Ġbehind": 3618,
      "Ġintended": 3619,
      "ĠIS": 3620,
      "ij": 3621,
      "95": 3622,
      "Ġmen": 3623,
      "fo": 3624,
      "Ġissu": 3625,
      "Ġinstallation": 3626,
      "Ġactual": 3627,
      "igurations": 3628,
      "ground": 3629,
      "Ġforce": 3630,
      "Ġports": 3631,
      "Ġdrive": 3632,
      "oth": 3633,
      "essage": 3634,
      "Ġproviders": 3635,
      "Ġviol": 3636,
      "ĠPer": 3637,
      "05": 3638,
      "oms": 3639,
      "Ġcore": 3640,
      "Ġlower": 3641,
      "Ġconfidential": 3642,
      "Ġsignal": 3643,
      "Ġadapt": 3644,
      "define": 3645,
      "Ġprinci": 3646,
      "¡ãĤ¤": 3647,
      "DB": 3648,
      "Ġsupported": 3649,
      "Ġresol": 3650,
      "Ġappears": 3651,
      "used": 3652,
      "ĠIPv": 3653,
      "Ġsample": 3654,
      "Ġfirm": 3655,
      "îĢ": 3656,
      "ĠPr": 3657,
      "RI": 3658,
      "da": 3659,
      "Ġpattern": 3660,
      "Ġpatch": 3661,
      "ND": 3662,
      "Ġrecip": 3663,
      "65": 3664,
      "plate": 3665,
      "Ġtaking": 3666,
      "Ġretrie": 3667,
      "Ġgenerally": 3668,
      "Ġimportance": 3669,
      "chain": 3670,
      "ĠEnd": 3671,
      "oy": 3672,
      "DF": 3673,
      "Ġvariable": 3674,
      "Ġautomated": 3675,
      "Ġidentification": 3676,
      "Ġselected": 3677,
      "Ġelement": 3678,
      "Ġever": 3679,
      "Ġge": 3680,
      "Ġseg": 3681,
      "ters": 3682,
      "03": 3683,
      "Ġdisclos": 3684,
      "ĠSystems": 3685,
      "NR": 3686,
      "Ġidentifying": 3687,
      "Ġbal": 3688,
      "Ġadvantage": 3689,
      "ĠDep": 3690,
      "çĶ¨": 3691,
      "fil": 3692,
      "ends": 3693,
      "Ġexploits": 3694,
      "Ġpair": 3695,
      "Ġpiec": 3696,
      "Ġsequence": 3697,
      "ĠAnt": 3698,
      "faces": 3699,
      "poses": 3700,
      "Ġstates": 3701,
      "Ġremains": 3702,
      "ĠSpec": 3703,
      "FC": 3704,
      "ev": 3705,
      "Ġcountries": 3706,
      "oper": 3707,
      "Ġcalls": 3708,
      "Ġproperty": 3709,
      "Ġcategor": 3710,
      "47": 3711,
      "ĠĠĠĠĠĠ": 3712,
      "url": 3713,
      "ury": 3714,
      "Ġexploited": 3715,
      "ä¿": 3716,
      "Ġesc": 3717,
      "Ġbecomes": 3718,
      "ĠAdministr": 3719,
      "Ġreference": 3720,
      "Ġinstances": 3721,
      "ilities": 3722,
      "Ġdeployment": 3723,
      "ĠMay": 3724,
      "Ġmitigate": 3725,
      "Ġprec": 3726,
      "Ġstatic": 3727,
      "Ġsteal": 3728,
      "Ġ__": 3729,
      "Ġfollows": 3730,
      "Ġcolum": 3731,
      "Ġfixed": 3732,
      "Ġfive": 3733,
      "Ġschool": 3734,
      "Ġwriting": 3735,
      "uard": 3736,
      "html": 3737,
      "uit": 3738,
      "Ġsomeone": 3739,
      "aa": 3740,
      "Ġunit": 3741,
      "Ġelectronic": 3742,
      "Ġreach": 3743,
      "While": 3744,
      "Ġspecify": 3745,
      "Ġaudit": 3746,
      "ĠDes": 3747,
      "Ġfactors": 3748,
      "spec": 3749,
      "eter": 3750,
      "Ġgoal": 3751,
      "itation": 3752,
      "Ġdeb": 3753,
      "ĠSP": 3754,
      "Ġidea": 3755,
      "Ġrelationship": 3756,
      "Ġsimpl": 3757,
      "http": 3758,
      "Type": 3759,
      "ĠCor": 3760,
      "Ar": 3761,
      "Ġmoney": 3762,
      "Ġmaintaining": 3763,
      "Ġwindow": 3764,
      "Ġsat": 3765,
      "Ġoverall": 3766,
      "These": 3767,
      "Ġparts": 3768,
      "Ġcommonly": 3769,
      "Ġdoing": 3770,
      "see": 3771,
      "åł": 3772,
      "inct": 3773,
      "Ġunknown": 3774,
      "type": 3775,
      "igr": 3776,
      "Ġachieve": 3777,
      "########": 3778,
      "elines": 3779,
      "Ġleading": 3780,
      "Ġseparate": 3781,
      "Ġfood": 3782,
      "Ġpol": 3783,
      "Ġbytes": 3784,
      "online": 3785,
      "Ġdang": 3786,
      "éģ": 3787,
      "Ġsem": 3788,
      "ĠIoT": 3789,
      "edia": 3790,
      "ids": 3791,
      "ements": 3792,
      "ĠOther": 3793,
      "Ġbad": 3794,
      "97": 3795,
      "ĠThen": 3796,
      "hemat": 3797,
      "Ġforms": 3798,
      "}}": 3799,
      "ĠEngine": 3800,
      "Ġplatforms": 3801,
      "Ġjob": 3802,
      "ãĤ³": 3803,
      "LI": 3804,
      "wards": 3805,
      "Ġincidents": 3806,
      "Ġcapture": 3807,
      "Ġincreased": 3808,
      "Ġstrategies": 3809,
      "Ġdatas": 3810,
      "group": 3811,
      "Ġsuper": 3812,
      "Ġtrend": 3813,
      "ĠInter": 3814,
      "Ġantivirus": 3815,
      "metric": 3816,
      "arth": 3817,
      "Sh": 3818,
      "ĠAC": 3819,
      "Ġproperties": 3820,
      "GUID": 3821,
      "more": 3822,
      "system": 3823,
      "Ġsymb": 3824,
      "sec": 3825,
      "Ġexperim": 3826,
      "ĠOper": 3827,
      "88": 3828,
      "Ġfraud": 3829,
      "Ġpurposes": 3830,
      "Ġpersist": 3831,
      "server": 3832,
      "All": 3833,
      "icon": 3834,
      "Ġcraft": 3835,
      "Ġblack": 3836,
      "æľ": 3837,
      "ĠHere": 3838,
      "ĠStandard": 3839,
      "off": 3840,
      "ĠRep": 3841,
      "Ġ==": 3842,
      "ĠAdv": 3843,
      "Ġfields": 3844,
      "Ġexpected": 3845,
      "itle": 3846,
      "AG": 3847,
      "ky": 3848,
      "Ġearlier": 3849,
      "iers": 3850,
      "Ġbuffer": 3851,
      "related": 3852,
      "Ġinfection": 3853,
      "map": 3854,
      "equ": 3855,
      "Ġcook": 3856,
      "Ġfamily": 3857,
      "ĠEmail": 3858,
      "Ġbuilding": 3859,
      "anted": 3860,
      "oof": 3861,
      "Ġstre": 3862,
      "utes": 3863,
      "Ġenabling": 3864,
      "Ġaltern": 3865,
      "Ġbenefits": 3866,
      "ãĥĩ": 3867,
      "aged": 3868,
      "ĠOffice": 3869,
      "Ġabs": 3870,
      "asp": 3871,
      "ĠDirectory": 3872,
      "Ġvector": 3873,
      "apid": 3874,
      "ĠSince": 3875,
      "idth": 3876,
      "Ġparticip": 3877,
      "Ġimplementing": 3878,
      "Ġair": 3879,
      "îĢĢ": 3880,
      "Ġvalu": 3881,
      "Ġmanufact": 3882,
      "Ġsophisticated": 3883,
      "Ġalmost": 3884,
      "ENT": 3885,
      "Ġchallenge": 3886,
      "rial": 3887,
      "Ġsharing": 3888,
      "outh": 3889,
      "éĢ": 3890,
      "ãģį": 3891,
      "iance": 3892,
      "çĲ": 3893,
      "ĠLLM": 3894,
      "Ġnamed": 3895,
      "Conf": 3896,
      "Ġ24": 3897,
      "çĲĨ": 3898,
      "atus": 3899,
      "ĠFl": 3900,
      "bound": 3901,
      "ĠVir": 3902,
      "iff": 3903,
      "Key": 3904,
      "08": 3905,
      "apping": 3906,
      "Sp": 3907,
      "IG": 3908,
      "tion": 3909,
      "Ġmac": 3910,
      "Ġmatch": 3911,
      "ival": 3912,
      "Ġcorresponding": 3913,
      "Ġ2017": 3914,
      "Ġwr": 3915,
      "Ġtell": 3916,
      "Str": 3917,
      "Ġmodify": 3918,
      "åĬ": 3919,
      "cd": 3920,
      "Ġstack": 3921,
      "Ġpowerful": 3922,
      "Ġcryptography": 3923,
      "scape": 3924,
      "zz": 3925,
      "Ġhighlight": 3926,
      "ĠSM": 3927,
      "¤ľ": 3928,
      "Ġsupports": 3929,
      "ror": 3930,
      "Ġerrors": 3931,
      "ç¤": 3932,
      "Ġrev": 3933,
      "left": 3934,
      "Ġstarted": 3935,
      "Ġund": 3936,
      "Ġassigned": 3937,
      "reme": 3938,
      "Ġstop": 3939,
      "Ġtopic": 3940,
      "ä»": 3941,
      "site": 3942,
      "æ¤ľ": 3943,
      "anel": 3944,
      "Ġdifference": 3945,
      "uly": 3946,
      "Ġ2018": 3947,
      "Ġ25": 3948,
      "osed": 3949,
      "Ġenter": 3950,
      ")(": 3951,
      "Ġdescribe": 3952,
      "Ġdise": 3953,
      "inally": 3954,
      "Ġverification": 3955,
      "Ġpenetration": 3956,
      "Ġeasier": 3957,
      "Ġcollection": 3958,
      "Ġproof": 3959,
      "Ġeconom": 3960,
      "ender": 3961,
      "ensions": 3962,
      "omen": 3963,
      "OD": 3964,
      "ĠUnder": 3965,
      "ĠConsole": 3966,
      "ĠEncryption": 3967,
      "Ġ2016": 3968,
      "ãĤŃ": 3969,
      "'re": 3970,
      "43": 3971,
      "iency": 3972,
      "Ġposition": 3973,
      "amm": 3974,
      "Ġisol": 3975,
      "Ġfully": 3976,
      "è¦": 3977,
      "Ġrecently": 3978,
      "ategory": 3979,
      "Ġfeed": 3980,
      "tun": 3981,
      "Acc": 3982,
      "ãģĵ": 3983,
      "ĠDDoS": 3984,
      "Ġsignificantly": 3985,
      "Ġwhole": 3986,
      "Ġplain": 3987,
      "\\]**": 3988,
      "Ġvariables": 3989,
      "Ġchanged": 3990,
      "ynch": 3991,
      "umber": 3992,
      "Ġlibrary": 3993,
      "ditionally": 3994,
      "Ġhosts": 3995,
      "ĠJan": 3996,
      "Ġexpress": 3997,
      "ails": 3998,
      "Ġlegal": 3999,
      "Ġagencies": 4000,
      "Ġlocated": 4001,
      "ĠTrust": 4002,
      "Ġsupply": 4003,
      "lish": 4004,
      "Ġ2019": 4005,
      "Ġsets": 4006,
      "ĉĉ": 4007,
      "75": 4008,
      "Ġremed": 4009,
      "Ġobserved": 4010,
      "Ġexcept": 4011,
      "ĠAT": 4012,
      "Ġdynamic": 4013,
      "ĠĠĠĠĠĠĠĠĠĠĠĠĠĠĠĠĠĠĠĠĠĠĠĠĠĠĠĠĠĠĠĠ": 4014,
      "ĠSec": 4015,
      "Ġfigure": 4016,
      "De": 4017,
      "Ġones": 4018,
      "ĠPort": 4019,
      "Ġstay": 4020,
      "imately": 4021,
      "ĠActive": 4022,
      "Ġsched": 4023,
      "ĠSecure": 4024,
      "Ġsometimes": 4025,
      "ĠRuss": 4026,
      "igned": 4027,
      "ç¤º": 4028,
      "Ġhacking": 4029,
      "Ġintern": 4030,
      "fl": 4031,
      "isco": 4032,
      "Ġcombination": 4033,
      "ĠTLS": 4034,
      "strain": 4035,
      "46": 4036,
      "Ġtests": 4037,
      "idget": 4038,
      "Ġestablished": 4039,
      "Ġ**\\[": 4040,
      "PS": 4041,
      "ãĤĬ": 4042,
      "ĠComputer": 4043,
      "Ġmention": 4044,
      "example": 4045,
      "Ġproduction": 4046,
      "Ġ2021": 4047,
      "Ġparent": 4048,
      "ĠDeep": 4049,
      "acing": 4050,
      "Ġthing": 4051,
      "pack": 4052,
      "Ġgives": 4053,
      "Ġinteg": 4054,
      "ĠTherefore": 4055,
      "Ġattention": 4056,
      "ĠCheck": 4057,
      "âĢ¦": 4058,
      "Ġop": 4059,
      "Ġpreviously": 4060,
      "Ġnatural": 4061,
      "Ġresulting": 4062,
      "Ġbutton": 4063,
      "Ġrelease": 4064,
      "alle": 4065,
      "Ġlines": 4066,
      "ĠOver": 4067,
      "ĠAuthentication": 4068,
      "Ġslow": 4069,
      "Ġcontract": 4070,
      "imal": 4071,
      "Ġ_": 4072,
      "Ġincreasingly": 4073,
      "acc": 4074,
      "Ġtim": 4075,
      "ĠMan": 4076,
      "Ġanalyze": 4077,
      "anks": 4078,
      "Ġsamples": 4079,
      "Ġquality": 4080,
      "Ġsurve": 4081,
      "igital": 4082,
      "Ġlarger": 4083,
      "Ġpackage": 4084,
      "Ġseem": 4085,
      "Ġdecision": 4086,
      "iminal": 4087,
      "\"\"": 4088,
      "Ġnews": 4089,
      "Ġmind": 4090,
      "Ġscheme": 4091,
      "Ġoccurs": 4092,
      "ĠAb": 4093,
      "ĠCol": 4094,
      "Ġcountry": 4095,
      "hib": 4096,
      "ĠSelect": 4097,
      "Ġenhance": 4098,
      "ponse": 4099,
      "assword": 4100,
      "Ġpredict": 4101,
      "Ġra": 4102,
      "ĠYour": 4103,
      "Ġhacker": 4104,
      "Ġexperts": 4105,
      "Ġchapter": 4106,
      "::": 4107,
      "ĠAS": 4108,
      "ĠAmerican": 4109,
      "Ġdeg": 4110,
      "39": 4111,
      "After": 4112,
      "urrency": 4113,
      "Ġopportun": 4114,
      "Ġ---": 4115,
      "Ġweek": 4116,
      "Ġgreater": 4117,
      "\\\\": 4118,
      "Ġ2012": 4119,
      "Ġreveal": 4120,
      "Ġtrying": 4121,
      "Ġroles": 4122,
      "Ġextension": 4123,
      "png": 4124,
      "Ġlack": 4125,
      "ober": 4126,
      "PA": 4127,
      "apex": 4128,
      "En": 4129,
      "ynchron": 4130,
      "ĠVulnerability": 4131,
      "77": 4132,
      "escription": 4133,
      "Ġadopt": 4134,
      "Ġgeneration": 4135,
      "Ġcredit": 4136,
      "FF": 4137,
      "Ġve": 4138,
      "Ġensures": 4139,
      "Ġprotecting": 4140,
      "Ġdeep": 4141,
      "Ġsuccessfully": 4142,
      "ĠCons": 4143,
      "```": 4144,
      "NT": 4145,
      "ĠNote": 4146,
      "going": 4147,
      "Ġpositive": 4148,
      "However": 4149,
      "Ġparty": 4150,
      "Ġserious": 4151,
      "Ġillustr": 4152,
      "ĠSol": 4153,
      "Ġdou": 4154,
      "lear": 4155,
      "Ġsends": 4156,
      "Ġdestination": 4157,
      "Ġrecommended": 4158,
      "Ġdefinition": 4159,
      "met": 4160,
      "ĠFrom": 4161,
      "Ġscenario": 4162,
      "Here": 4163,
      "Ġfake": 4164,
      "Ġreput": 4165,
      "Ġbasis": 4166,
      "Ġexists": 4167,
      "pe": 4168,
      "06": 4169,
      "ĠWord": 4170,
      "ĠLet": 4171,
      "Ġlogging": 4172,
      "which": 4173,
      "ãĤ¹ãĥĪ": 4174,
      "Ġrouting": 4175,
      "Ġaverage": 4176,
      "âĢ¢âĢ¢": 4177,
      "ING": 4178,
      "ĠDiscovery": 4179,
      "Ġhandle": 4180,
      "Ġcommit": 4181,
      "Ġscore": 4182,
      "prot": 4183,
      "Ġmar": 4184,
      "ãĥĨãĤ£": 4185,
      "Ġvaluable": 4186,
      "Ġimmediately": 4187,
      "Ġproposed": 4188,
      "cast": 4189,
      "standing": 4190,
      "Ġweakness": 4191,
      "Ġblocks": 4192,
      "vation": 4193,
      "Ġnavig": 4194,
      "iring": 4195,
      "son": 4196,
      "ĠCrypt": 4197,
      "')": 4198,
      "ĠFirst": 4199,
      "HT": 4200,
      "Ġupload": 4201,
      "Ġ```": 4202,
      "Ġscient": 4203,
      "</": 4204,
      "ĠName": 4205,
      "Ġscale": 4206,
      "Ġcosts": 4207,
      "Ġtargeting": 4208,
      "agram": 4209,
      "Ġtransmission": 4210,
      "ĠSub": 4211,
      "ãģĭ": 4212,
      "ĠCPU": 4213,
      "ography": 4214,
      "pdate": 4215,
      "Ġlandscape": 4216,
      "Ġredirect": 4217,
      "Ġtro": 4218,
      "party": 4219,
      "ĠConn": 4220,
      "Ġfing": 4221,
      "Ġhim": 4222,
      "Ġprocedure": 4223,
      "Once": 4224,
      "ibly": 4225,
      "Web": 4226,
      "Ġexchange": 4227,
      "Ġmatter": 4228,
      "Ġviruses": 4229,
      "ĠBit": 4230,
      "Ġmonths": 4231,
      "lude": 4232,
      "Ġclean": 4233,
      "Ġcompared": 4234,
      "Ġdenial": 4235,
      "Ġrepe": 4236,
      "Ġcorporate": 4237,
      "ĠTechnology": 4238,
      "Ġfrequency": 4239,
      "ãĤĪ": 4240,
      "Ġswitch": 4241,
      "Ġforens": 4242,
      "Ġspecifically": 4243,
      "Ġvendors": 4244,
      "uck": 4245,
      "Ġfactor": 4246,
      "vest": 4247,
      "Ġisn": 4248,
      "ĠAuthor": 4249,
      "Ġtact": 4250,
      "ĠReport": 4251,
      "osp": 4252,
      "eries": 4253,
      "Ġwon": 4254,
      "Ġproduce": 4255,
      "Ġhours": 4256,
      "dd": 4257,
      "Ġcommunicate": 4258,
      "ECT": 4259,
      "42": 4260,
      "usc": 4261,
      "new": 4262,
      "Ġwidely": 4263,
      "Ġorganis": 4264,
      "Ġcompletely": 4265,
      "sed": 4266,
      "Ġoperational": 4267,
      "ĠâĢ¢": 4268,
      "ĠOct": 4269,
      "ĠPart": 4270,
      "emb": 4271,
      "Ġvendor": 4272,
      "Ġinject": 4273,
      "Ġdelete": 4274,
      "Ġbar": 4275,
      "Ġspe": 4276,
      "gen": 4277,
      "ĠMany": 4278,
      "Ġintroduced": 4279,
      "afe": 4280,
      "09": 4281,
      "ingu": 4282,
      "Ġinstit": 4283,
      "Ġcarry": 4284,
      "that": 4285,
      "ifies": 4286,
      "ĠSettings": 4287,
      "Ġaway": 4288,
      "iveness": 4289,
      "alid": 4290,
      "return": 4291,
      "Ġevaluation": 4292,
      "Ġprivilege": 4293,
      "ĠIns": 4294,
      "49": 4295,
      "Ġrapid": 4296,
      "Ġpractical": 4297,
      "](/": 4298,
      "ĠMost": 4299,
      "Table": 4300,
      "ĠDis": 4301,
      "date": 4302,
      "ĠCert": 4303,
      "Ġexpect": 4304,
      "ordin": 4305,
      "ãĥķãĤ¡ãĤ¤": 4306,
      "DS": 4307,
      "Ġskills": 4308,
      "Ġvalidation": 4309,
      "Ġtrigg": 4310,
      "But": 4311,
      "ĠAnalysis": 4312,
      "Ġsl": 4313,
      "ading": 4314,
      "Ġdrop": 4315,
      "ĠCenter": 4316,
      "Ġlists": 4317,
      "CH": 4318,
      "media": 4319,
      "Ġtalk": 4320,
      "Ġscripts": 4321,
      "ipment": 4322,
      "dis": 4323,
      "Ġintrusion": 4324,
      "Or": 4325,
      "Ġfolder": 4326,
      "ĠCI": 4327,
      "ĠAv": 4328,
      "Ġconsequ": 4329,
      "Ġface": 4330,
      "Ġauth": 4331,
      "ĊĠĠĠĠĠĠĠĠĠĠĠĠĠĠĠĠĠĠĠ": 4332,
      "ales": 4333,
      "Ġsender": 4334,
      "control": 4335,
      "ush": 4336,
      "yt": 4337,
      "Ġdeployed": 4338,
      "Ġcaused": 4339,
      "Now": 4340,
      "Ġconfigurations": 4341,
      "Ġlever": 4342,
      "Ġstreng": 4343,
      "Ġdev": 4344,
      "åĪ": 4345,
      "path": 4346,
      "Ġreading": 4347,
      "ĠDr": 4348,
      "Ġrecovery": 4349,
      "attacks": 4350,
      "ĠSee": 4351,
      "ĠÂ": 4352,
      "Ġassist": 4353,
      "ĠOur": 4354,
      "ĠCommun": 4355,
      "eria": 4356,
      "Ġtele": 4357,
      "Ġbehavi": 4358,
      "Ġgateway": 4359,
      "Ġquite": 4360,
      "At": 4361,
      "Log": 4362,
      "ifier": 4363,
      "âĢĿ.": 4364,
      "View": 4365,
      "31": 4366,
      "Def": 4367,
      "vents": 4368,
      "arios": 4369,
      "Ġcarri": 4370,
      "sub": 4371,
      "Ġacqu": 4372,
      "mentation": 4373,
      "Ġcompar": 4374,
      "ĠResearch": 4375,
      "Ġindex": 4376,
      "ĠGerm": 4377,
      "Ġcomplexity": 4378,
      "fficiency": 4379,
      "ĠIAM": 4380,
      "omal": 4381,
      "ĠAlso": 4382,
      "abs": 4383,
      "Ġtransport": 4384,
      "Ġcompet": 4385,
      "leg": 4386,
      "Ġmaximum": 4387,
      "ktop": 4388,
      "Ġsense": 4389,
      "Ġscope": 4390,
      "ĠApr": 4391,
      "chang": 4392,
      "WE": 4393,
      "Ġinvestigation": 4394,
      "Ġindicates": 4395,
      "my": 4396,
      "ĠList": 4397,
      "Ġ//": 4398,
      "ĠVM": 4399,
      "olen": 4400,
      "Ġpatches": 4401,
      "ĠUsers": 4402,
      "Ġadmin": 4403,
      "Ġtheory": 4404,
      "Ġexecutable": 4405,
      "Ġreasons": 4406,
      "eas": 4407,
      "oice": 4408,
      "etrics": 4409,
      "itud": 4410,
      "Micro": 4411,
      "Ġadding": 4412,
      "List": 4413,
      "Ġdescription": 4414,
      "Ġgetting": 4415,
      "ros": 4416,
      "Ġpresented": 4417,
      "erprint": 4418,
      "Ġir": 4419,
      "Ġage": 4420,
      "Ġcreates": 4421,
      "yware": 4422,
      "ãĤµãĥ¼": 4423,
      "defined": 4424,
      "ĠCo": 4425,
      "Ġchanging": 4426,
      "UR": 4427,
      "ĠNet": 4428,
      "Fi": 4429,
      "Ġexplicit": 4430,
      "Ġfailure": 4431,
      "ĠOrgan": 4432,
      "ĠInf": 4433,
      "Ġattributes": 4434,
      "rs": 4435,
      "è¡¨": 4436,
      "Ġgl": 4437,
      "CC": 4438,
      "Ġsignatures": 4439,
      "Ġconver": 4440,
      "Ġcareful": 4441,
      "Ġphot": 4442,
      "source": 4443,
      "Ġconclusion": 4444,
      "ening": 4445,
      "Ġadj": 4446,
      "zure": 4447,
      "Ġ2022": 4448,
      "Ġestim": 4449,
      "Ġprobably": 4450,
      "Ġruns": 4451,
      "Ġexpert": 4452,
      "07": 4453,
      "Ġcult": 4454,
      "Ġrely": 4455,
      "Ġdepending": 4456,
      "Ġexc": 4457,
      "Ġfast": 4458,
      "Ġauthorization": 4459,
      "Mod": 4460,
      "Ġindicate": 4461,
      "Ġcodes": 4462,
      "ĠAug": 4463,
      "Ġphase": 4464,
      "ĠSmart": 4465,
      "exp": 4466,
      "ollow": 4467,
      "itors": 4468,
      "ĠPower": 4469,
      "LAN": 4470,
      "Ġdeli": 4471,
      "ĠProcess": 4472,
      "Ġhidden": 4473,
      "Ġthroughout": 4474,
      "au": 4475,
      "Ġdistinct": 4476,
      "Pl": 4477,
      "ĠProgram": 4478,
      "Ġadversary": 4479,
      "Ġu": 4480,
      "pth": 4481,
      "eli": 4482,
      "Ġcontents": 4483,
      "Ġflaw": 4484,
      "Ġaccessible": 4485,
      "00000000": 4486,
      "Ġprevention": 4487,
      "ĠRemote": 4488,
      "Ġcybercriminals": 4489,
      "Ġprogramming": 4490,
      "Ġ50": 4491,
      "->": 4492,
      "ĠHTTPS": 4493,
      "53": 4494,
      "Ġsynt": 4495,
      "Ġparties": 4496,
      "Ġalloc": 4497,
      "Ġfiltering": 4498,
      "Ġtransactions": 4499,
      "Ġvectors": 4500,
      "Cy": 4501,
      "ĠOut": 4502,
      "ĠMonitor": 4503,
      "grade": 4504,
      "ecuring": 4505,
      "uzz": 4506,
      "Ġincom": 4507,
      "Ġofficial": 4508,
      "Ġcou": 4509,
      "yond": 4510,
      "Ġprep": 4511,
      "Ġentity": 4512,
      "ãĤ¯ãĥª": 4513,
      "Windows": 4514,
      "Ġfollowed": 4515,
      "nswer": 4516,
      "Ġgame": 4517,
      "Ag": 4518,
      "Att": 4519,
      "Ġauthorized": 4520,
      "ĠNow": 4521,
      "Ġboot": 4522,
      "Ġexposed": 4523,
      "Ġbeyond": 4524,
      "ĠSign": 4525,
      "fix": 4526,
      "wide": 4527,
      "Ġflag": 4528,
      "ait": 4529,
      "Ġextreme": 4530,
      "IR": 4531,
      "writ": 4532,
      "Ġfirewalls": 4533,
      "mark": 4534,
      "ye": 4535,
      "Ġefforts": 4536,
      "Ġapproaches": 4537,
      "Ġexploitation": 4538,
      "Ġrecon": 4539,
      "ii": 4540,
      "Ġinflu": 4541,
      "Ġ2013": 4542,
      "Ġcop": 4543,
      "efore": 4544,
      "Ġeffort": 4545,
      "ĠHTML": 4546,
      "Ġstage": 4547,
      "reshold": 4548,
      "rm": 4549,
      "Ġdraw": 4550,
      "Ġflex": 4551,
      "ĠBecause": 4552,
      "ĠLear": 4553,
      "Set": 4554,
      "ĠMalware": 4555,
      "Ġrepresents": 4556,
      "ãĥĸ": 4557,
      "Ġrefers": 4558,
      "68": 4559,
      "Ġnational": 4560,
      "Ġtheft": 4561,
      "Ġotherwise": 4562,
      "Ġtun": 4563,
      "Ġinteresting": 4564,
      "Ġtre": 4565,
      "Ġpoly": 4566,
      "Ġprofile": 4567,
      "Ġwhose": 4568,
      "astic": 4569,
      "Ġ22": 4570,
      "Ġactor": 4571,
      "Ġsound": 4572,
      ")$": 4573,
      "Ġalerts": 4574,
      "Ġpermission": 4575,
      "eguard": 4576,
      "****": 4577,
      "Ġvolume": 4578,
      "acle": 4579,
      "such": 4580,
      "Ġhalf": 4581,
      "Ġeffects": 4582,
      "Ġmodified": 4583,
      "ĠMat": 4584,
      "oken": 4585,
      "urance": 4586,
      "ĠSym": 4587,
      "ades": 4588,
      "Ġaspects": 4589,
      "ĠApple": 4590,
      "Ġlayers": 4591,
      "Ġavailability": 4592,
      "Ġattribute": 4593,
      "ĠAlthough": 4594,
      "Ġanonym": 4595,
      "Ġissued": 4596,
      "Act": 4597,
      "plays": 4598,
      "Ġstolen": 4599,
      "Ġspoof": 4600,
      "Ġposture": 4601,
      "Ġded": 4602,
      "urs": 4603,
      "ãĥ§": 4604,
      "test": 4605,
      "ĠExec": 4606,
      "Ġaccessed": 4607,
      "ĠVirtual": 4608,
      "urb": 4609,
      "ãģ§ãģį": 4610,
      "Ġmanual": 4611,
      "pat": 4612,
      "Ġthous": 4613,
      "Ġtemper": 4614,
      "ournal": 4615,
      "ĠDetection": 4616,
      "Ġequal": 4617,
      "ĠEndpoint": 4618,
      "SM": 4619,
      "Ġremoved": 4620,
      "raft": 4621,
      "ds": 4622,
      "ãĥķãĤ¡ãĤ¤ãĥ«": 4623,
      "OP": 4624,
      "ĠIC": 4625,
      "ĠBack": 4626,
      "process": 4627,
      "alt": 4628,
      "era": 4629,
      "width": 4630,
      "Ġscenarios": 4631,
      "Ġprofessionals": 4632,
      "ĠWorld": 4633,
      "ptions": 4634,
      "Ġprobability": 4635,
      "['": 4636,
      "ĠLi": 4637,
      "Ġunc": 4638,
      "hood": 4639,
      "Ġinfect": 4640,
      "Qu": 4641,
      "ãĥ¡": 4642,
      "Ġenforcement": 4643,
      "Ġbackdoor": 4644,
      "Ġidentifier": 4645,
      "Ġequipment": 4646,
      "Ġiniti": 4647,
      "ĠWi": 4648,
      "#####": 4649,
      "pite": 4650,
      "Ġsituation": 4651,
      "Trend": 4652,
      "Ġcollabor": 4653,
      "Ġtransaction": 4654,
      "ĠStud": 4655,
      "Ġanything": 4656,
      "Ġconsists": 4657,
      "ha": 4658,
      "ãĤ§ãĥ³ãĥĪ": 4659,
      "ĠBr": 4660,
      "ĠAc": 4661,
      "ĠEC": 4662,
      "Ġintegration": 4663,
      "Ġembedded": 4664,
      "ĠMAC": 4665,
      "order": 4666,
      "look": 4667,
      "ĠType": 4668,
      "Ġindependent": 4669,
      "ĠInstit": 4670,
      "install": 4671,
      "phone": 4672,
      "File": 4673,
      "ãĥ¼ãĤ¸ãĤ§ãĥ³ãĥĪ": 4674,
      "Ġband": 4675,
      "Ġcounter": 4676,
      "ãĤ¨ãĥ¼ãĤ¸ãĤ§ãĥ³ãĥĪ": 4677,
      "Ġtempor": 4678,
      "ls": 4679,
      "Ġentities": 4680,
      "ãĥ§ãĥ³": 4681,
      "Ġgrowing": 4682,
      "Ġscans": 4683,
      "Ġguarant": 4684,
      "ĠLoc": 4685,
      "58": 4686,
      "Ġexerc": 4687,
      "Ġcenter": 4688,
      "Ġground": 4689,
      "Ġtrigger": 4690,
      "Ġcapability": 4691,
      "Is": 4692,
      "Ġsix": 4693,
      "brid": 4694,
      "åĲĪ": 4695,
      "Sec": 4696,
      "Ġcontainer": 4697,
      "db": 4698,
      "Ġsoon": 4699,
      "41": 4700,
      "Ġobtained": 4701,
      "ĠThus": 4702,
      "Ġbotnet": 4703,
      "Ġtree": 4704,
      "gener": 4705,
      "Ġanyone": 4706,
      "Ġsort": 4707,
      "osystem": 4708,
      "value": 4709,
      "ians": 4710,
      "Rec": 4711,
      "èª": 4712,
      "ercial": 4713,
      "dr": 4714,
      "Ġbo": 4715,
      "Ġ2015": 4716,
      "ĠProv": 4717,
      "Ġled": 4718,
      "Ġsqu": 4719,
      "66": 4720,
      "uary": 4721,
      "Ġ2023": 4722,
      "ilitary": 4723,
      "Ġcrafted": 4724,
      "ĠFeb": 4725,
      "Ġcards": 4726,
      "umer": 4727,
      "ĠFire": 4728,
      "Ġexactly": 4729,
      "manag": 4730,
      "ided": 4731,
      "Step": 4732,
      "è¡¨ç¤º": 4733,
      "ĠMy": 4734,
      "Ġaccessing": 4735,
      "Ġcauses": 4736,
      "Ġevaluate": 4737,
      "Ġworm": 4738,
      "'ll": 4739,
      "ĠSection": 4740,
      "Ġapprox": 4741,
      "Ġoverflow": 4742,
      "call": 4743,
      "ien": 4744,
      "Ġauthenticated": 4745,
      "Ġfeel": 4746,
      "Ġbug": 4747,
      "Over": 4748,
      "å¤": 4749,
      "hest": 4750,
      "Ġsw": 4751,
      "Ġmatrix": 4752,
      "Ġalthough": 4753,
      "ĠPar": 4754,
      "NET": 4755,
      "Ġseems": 4756,
      "Ġfundam": 4757,
      "no": 4758,
      "Ġtransl": 4759,
      "bin": 4760,
      "oad": 4761,
      "Ġconfirm": 4762,
      "ĊĠĠĠĠĠ": 4763,
      "ãĤ¯ãĥªãĥĥãĤ¯": 4764,
      "Ġusername": 4765,
      "adata": 4766,
      "And": 4767,
      "Ġemployee": 4768,
      "Ġintercept": 4769,
      "Ġarray": 4770,
      "Ġcolumn": 4771,
      "Ġbecame": 4772,
      "ĠAny": 4773,
      "User": 4774,
      "Ġpip": 4775,
      "Ġtrick": 4776,
      "ailable": 4777,
      "Ġspecies": 4778,
      "Ġdeliver": 4779,
      "Ġbelieve": 4780,
      "ĠNe": 4781,
      "Ġauthentic": 4782,
      "reed": 4783,
      "NA": 4784,
      "vere": 4785,
      "HE": 4786,
      "ypes": 4787,
      "001": 4788,
      "Ġpayment": 4789,
      "Ġsetup": 4790,
      "ĠAdditionally": 4791,
      "Ġpurch": 4792,
      "Ġimm": 4793,
      "Ġdisease": 4794,
      "Ġcells": 4795,
      "ĠRE": 4796,
      "usted": 4797,
      "Ġstarting": 4798,
      "Ġlive": 4799,
      "Ġmus": 4800,
      "ĠExplo": 4801,
      "Ġ2010": 4802,
      "Ġdiscovery": 4803,
      "Ġtag": 4804,
      "ĠVer": 4805,
      "Ġ21": 4806,
      "Ġcreation": 4807,
      "ãĤī": 4808,
      "ruption": 4809,
      "specific": 4810,
      "ĠAccount": 4811,
      "ĠMar": 4812,
      "Ġvisual": 4813,
      "Ġqueries": 4814,
      "Ġguide": 4815,
      "Ġpict": 4816,
      "rror": 4817,
      "Ġ2025": 4818,
      "Ġlett": 4819,
      "Ġdeveloping": 4820,
      "Ġtransform": 4821,
      "Ġsufficient": 4822,
      "Some": 4823,
      "Ġ2008": 4824,
      "Ġelimin": 4825,
      "Ġcorrectly": 4826,
      "Ġexpand": 4827,
      "Ġreturns": 4828,
      "Ġpresence": 4829,
      "ivil": 4830,
      "Ġcache": 4831,
      "Ġeverything": 4832,
      "Ġawareness": 4833,
      "Ġitems": 4834,
      "Ġinteract": 4835,
      "version": 4836,
      "Ġreferred": 4837,
      "Ġmap": 4838,
      "ocket": 4839,
      "Ġcharacteristics": 4840,
      "Ġwarning": 4841,
      "Ġlabel": 4842,
      "Ġinsert": 4843,
      "Ġnotification": 4844,
      "Ġinn": 4845,
      "Ġfindings": 4846,
      "fect": 4847,
      "ambda": 4848,
      "Ġtroub": 4849,
      "iding": 4850,
      "Ġsubsc": 4851,
      "Ġ32": 4852,
      "},": 4853,
      "Ġinterfaces": 4854,
      "patch": 4855,
      "Ġlocations": 4856,
      "nced": 4857,
      "Ġlooks": 4858,
      "atal": 4859,
      "ãģı": 4860,
      "Ġdescribes": 4861,
      "Ġstaff": 4862,
      "Ġsave": 4863,
      "Ġoperate": 4864,
      "atives": 4865,
      "ĠKe": 4866,
      "Ġvisibility": 4867,
      "Ġ2014": 4868,
      "ux": 4869,
      "ä½¿": 4870,
      "Ġgoes": 4871,
      "Ġlogic": 4872,
      "aily": 4873,
      "Ġtokens": 4874,
      "EX": 4875,
      "Ġdiv": 4876,
      "Ġ2011": 4877,
      "ulations": 4878,
      "Ġoperators": 4879,
      "Ġago": 4880,
      "Ġdisplayed": 4881,
      "Ġefficiency": 4882,
      "error": 4883,
      "ĠPH": 4884,
      "ho": 4885,
      "BM": 4886,
      "Ġcontrolled": 4887,
      "page": 4888,
      "mat": 4889,
      "det": 4890,
      "Ġquantum": 4891,
      "Ġfrequently": 4892,
      "Ġintegrated": 4893,
      "ĠWar": 4894,
      "Ġutility": 4895,
      "']": 4896,
      "æĸ": 4897,
      "Ġanalyst": 4898,
      "Ġregularly": 4899,
      "ĠNone": 4900,
      "Not": 4901,
      "Ġgets": 4902,
      "Ġargument": 4903,
      "ATION": 4904,
      "168": 4905,
      "Ġdocumentation": 4906,
      "94": 4907,
      "Ġconcepts": 4908,
      "ãĥĵ": 4909,
      "ishing": 4910,
      "Ġstatement": 4911,
      "greg": 4912,
      "ĠAND": 4913,
      "CVE": 4914,
      "Ġreporting": 4915,
      "ä¿¡": 4916,
      "ĠTop": 4917,
      "ãģķãĤĮãģ¾ãģĻ": 4918,
      "IL": 4919,
      "ĠCS": 4920,
      "Ġsafeguard": 4921,
      "ä½¿çĶ¨": 4922,
      "åĩ": 4923,
      "æĬ": 4924,
      "Ġaffects": 4925,
      "Add": 4926,
      "aming": 4927,
      "å¯": 4928,
      "ĠInternational": 4929,
      "Ġransom": 4930,
      "OL": 4931,
      "istry": 4932,
      "ãĥ³ãĥī": 4933,
      "Ġplease": 4934,
      "Ġscience": 4935,
      "Ġcontinuous": 4936,
      "Ġfacilit": 4937,
      "2019": 4938,
      "ĠAzure": 4939,
      "ults": 4940,
      "ancing": 4941,
      "ĠObject": 4942,
      "ãĤĪãģ": 4943,
      "ç®": 4944,
      "ĠAR": 4945,
      "Ġcluster": 4946,
      "Ġmanner": 4947,
      "ĠMarch": 4948,
      "coin": 4949,
      "Ġ27": 4950,
      "Ġgrowth": 4951,
      "bb": 4952,
      "Ġlaunch": 4953,
      "Ġthought": 4954,
      "Ġmanually": 4955,
      "åħ": 4956,
      "Let": 4957,
      "¿½": 4958,
      "ãĤ¤ãĥ³": 4959,
      "Comm": 4960,
      "Ġmentioned": 4961,
      "ĠRisk": 4962,
      "hic": 4963,
      "can": 4964,
      "ossible": 4965,
      "Ġrouters": 4966,
      "Scan": 4967,
      "Another": 4968,
      "Ġpolit": 4969,
      "ĠTable": 4970,
      "ung": 4971,
      "Ġdebug": 4972,
      "sy": 4973,
      "Ġregarding": 4974,
      "ĠST": 4975,
      "unk": 4976,
      "ĠMS": 4977,
      "rer": 4978,
      "67": 4979,
      "SQL": 4980,
      "Ġminutes": 4981,
      "ĠCisco": 4982,
      "Ġaccom": 4983,
      "ĠDepartment": 4984,
      "Ġcategories": 4985,
      "come": 4986,
      "jected": 4987,
      "Ġblood": 4988,
      "Ġdiscover": 4989,
      "Ġreflect": 4990,
      "Ġinvolve": 4991,
      "unt": 4992,
      "kit": 4993,
      "oles": 4994,
      "Chapter": 4995,
      "Ġfingerprint": 4996,
      "éĸ": 4997,
      "Ġreverse": 4998,
      "ĠCybersecurity": 4999,
      "Ġconcerns": 5000,
      "achine": 5001,
      "ĠGe": 5002,
      "ĠStr": 5003,
      "gy": 5004,
      "ĠEven": 5005,
      "ĠMulti": 5006,
      "mon": 5007,
      "Ġpassed": 5008,
      "Ġmathemat": 5009,
      "Ġfinding": 5010,
      "Ġpiece": 5011,
      "ĠFurther": 5012,
      "ĠEl": 5013,
      "Ġminimum": 5014,
      "Ġround": 5015,
      "Ġsmaller": 5016,
      "Ġcompil": 5017,
      "ĠState": 5018,
      "Ġequation": 5019,
      "stract": 5020,
      "ĠExploit": 5021,
      "mp": 5022,
      "Ġrelatively": 5023,
      "Ġdeal": 5024,
      "ĠMin": 5025,
      "Ġcategory": 5026,
      "using": 5027,
      "Ġmodules": 5028,
      "imension": 5029,
      "ĠEnglish": 5030,
      "Ġsubsequ": 5031,
      "Ġvary": 5032,
      "æ³": 5033,
      "ĠChina": 5034,
      "Ġtw": 5035,
      "fusc": 5036,
      "Ġsigned": 5037,
      "ĠAddress": 5038,
      "FS": 5039,
      "itable": 5040,
      "Ab": 5041,
      "write": 5042,
      "Ġmix": 5043,
      "________________": 5044,
      "ying": 5045,
      "ĠURLs": 5046,
      "ĠAD": 5047,
      "Ġlisted": 5048,
      "ĠSu": 5049,
      "Microsoft": 5050,
      "Ġdatabases": 5051,
      "Ġextra": 5052,
      "Ġid": 5053,
      "Ġcapable": 5054,
      "Ġq": 5055,
      "arial": 5056,
      "Ġstudies": 5057,
      "ĠRead": 5058,
      "Ġconstrain": 5059,
      "ç®¡": 5060,
      "eta": 5061,
      "ĠFramework": 5062,
      "veloper": 5063,
      "Ġcame": 5064,
      "Ġblocked": 5065,
      "Ġpreser": 5066,
      "ula": 5067,
      "alls": 5068,
      "Ġauthors": 5069,
      "Ġinteraction": 5070,
      "acity": 5071,
      "Ġchoice": 5072,
      "ç®¡çĲĨ": 5073,
      "Ġroute": 5074,
      "Ġreputation": 5075,
      "PE": 5076,
      "ĠClass": 5077,
      "ashboard": 5078,
      "ĠInstitute": 5079,
      "alue": 5080,
      "Ġinstruction": 5081,
      "MA": 5082,
      "only": 5083,
      "Ġwild": 5084,
      "cer": 5085,
      "Ġeducation": 5086,
      "ĠCO": 5087,
      "BS": 5088,
      "Ġdecryption": 5089,
      "Ġrepos": 5090,
      "ĠJune": 5091,
      "Ġdemand": 5092,
      "sum": 5093,
      "ometric": 5094,
      "Ġdownloaded": 5095,
      "92": 5096,
      "dom": 5097,
      "Field": 5098,
      "isf": 5099,
      "Ġdangerous": 5100,
      "Ġnetworking": 5101,
      "According": 5102,
      "Ġaccuracy": 5103,
      "BC": 5104,
      "emic": 5105,
      "Ġowner": 5106,
      "Ġmanufacture": 5107,
      "85": 5108,
      "rome": 5109,
      "Ġnegative": 5110,
      "pective": 5111,
      "clus": 5112,
      "Ġdisrupt": 5113,
      "Ġmag": 5114,
      "pliance": 5115,
      "'ve": 5116,
      "vis": 5117,
      "ownload": 5118,
      "ptember": 5119,
      "ãģĹãģŁ": 5120,
      "wers": 5121,
      "Xiv": 5122,
      "Ġpain": 5123,
      "illed": 5124,
      "ĠFace": 5125,
      "ocument": 5126,
      "Ġbelong": 5127,
      "oin": 5128,
      "åł´": 5129,
      "itude": 5130,
      "md": 5131,
      "ĠNorth": 5132,
      "ographic": 5133,
      "tenance": 5134,
      "Open": 5135,
      "ERT": 5136,
      "Ġinternational": 5137,
      "Ġhandling": 5138,
      "domain": 5139,
      "pi": 5140,
      "Ġwhite": 5141,
      "Ġbring": 5142,
      "Ġbanking": 5143,
      "No": 5144,
      "93": 5145,
      "Ġcryptoc": 5146,
      "Ġinteger": 5147,
      "See": 5148,
      "ãĤŃãĥ¥": 5149,
      "Ġbeginning": 5150,
      "Ġhar": 5151,
      "ãĥł": 5152,
      "ithub": 5153,
      "unc": 5154,
      "Ġtook": 5155,
      "Ġign": 5156,
      "Ġdistance": 5157,
      "rt": 5158,
      "ica": 5159,
      "Ġmember": 5160,
      "Ġanomal": 5161,
      "Ġadversaries": 5162,
      "xx": 5163,
      "Ġlost": 5164,
      "Ġbecoming": 5165,
      "Ġdiscussed": 5166,
      "Ġdial": 5167,
      "Ġincreases": 5168,
      "Ġtheore": 5169,
      "From": 5170,
      "Ġcontained": 5171,
      "Ġ2024": 5172,
      "Ġclicking": 5173,
      "nets": 5174,
      "Ġdecisions": 5175,
      "Ġtypical": 5176,
      "ĠEdge": 5177,
      "valu": 5178,
      "ĠApril": 5179,
      "Ġsignals": 5180,
      "Ġord": 5181,
      "Ġwrong": 5182,
      "stream": 5183,
      "ĠJuly": 5184,
      "ĠSSH": 5185,
      "ife": 5186,
      "Ġrot": 5187,
      "éģ¸": 5188,
      "':": 5189,
      "Ġreducing": 5190,
      "ĠBu": 5191,
      "ards": 5192,
      "priv": 5193,
      "ĠIntegr": 5194,
      "Ġframe": 5195,
      "ĠAust": 5196,
      "antic": 5197,
      "ĠFirewall": 5198,
      "52": 5199,
      "ses": 5200,
      "Ġfront": 5201,
      "ĠIN": 5202,
      "Ph": 5203,
      "æĬŀ": 5204,
      "éģ¸æĬŀ": 5205,
      "ĠPost": 5206,
      "ĨĴ": 5207,
      "target": 5208,
      "Ġgather": 5209,
      "ĠCA": 5210,
      "Ġlinear": 5211,
      "éĻ": 5212,
      "ĠBusiness": 5213,
      "undred": 5214,
      "Ġpreventing": 5215,
      "Network": 5216,
      "Ġpriorit": 5217,
      "Ġhappens": 5218,
      "me": 5219,
      "ãĤ³ãĥ³": 5220,
      "ferent": 5221,
      "EEE": 5222,
      "lim": 5223,
      "Ġ23": 5224,
      "atab": 5225,
      "Ġresponses": 5226,
      "ĠCLI": 5227,
      "Ġexposure": 5228,
      "Ġcoordin": 5229,
      "LP": 5230,
      "Ġperforming": 5231,
      "Ġtemplate": 5232,
      "ĠScience": 5233,
      "ocker": 5234,
      "uled": 5235,
      "Ġunderlying": 5236,
      "break": 5237,
      "DE": 5238,
      "ĠJanuary": 5239,
      "Ġregistry": 5240,
      "ali": 5241,
      "Ġgot": 5242,
      "Ġdecre": 5243,
      "access": 5244,
      "ĠPython": 5245,
      "Ġlinked": 5246,
      "Ġfine": 5247,
      "Ġ*/": 5248,
      "Ġequival": 5249,
      "ĠPo": 5250,
      "ĠResponse": 5251,
      "apan": 5252,
      "ĠJoh": 5253,
      "ĠAccording": 5254,
      "Ġdepends": 5255,
      "Ġfaster": 5256,
      "CT": 5257,
      "ĠDevelop": 5258,
      "Ġadministrative": 5259,
      "Ġcollected": 5260,
      "Ġmilitary": 5261,
      "ĠVersion": 5262,
      "Ġproduced": 5263,
      "Ġexplore": 5264,
      "Ġletters": 5265,
      "Ġpartners": 5266,
      "Ġcriminal": 5267,
      "fortun": 5268,
      "ĠSHA": 5269,
      "Ġflo": 5270,
      "lib": 5271,
      "Ġentries": 5272,
      "IX": 5273,
      "haps": 5274,
      "ĠChapter": 5275,
      "Ġtransmit": 5276,
      "Enc": 5277,
      "ae": 5278,
      "anguages": 5279,
      "cloud": 5280,
      "bash": 5281,
      "Ġfederal": 5282,
      "RF": 5283,
      "Ġprop": 5284,
      "Ġbegan": 5285,
      "âĢĿ,": 5286,
      "cp": 5287,
      "ĠSD": 5288,
      "Ġcommercial": 5289,
      "Ġtrave": 5290,
      "ãĥ¼ãĤ¿": 5291,
      "anal": 5292,
      "Ġcut": 5293,
      "Ġcriteria": 5294,
      "ãĥªãĥĨãĤ£": 5295,
      "style": 5296,
      "Ġstand": 5297,
      "istory": 5298,
      "AF": 5299,
      "57": 5300,
      ":\\": 5301,
      "Ġbenefit": 5302,
      "Ġpopulation": 5303,
      "Ġdetermined": 5304,
      "Ġnet": 5305,
      "Ġdefenses": 5306,
      "elling": 5307,
      "Ġassume": 5308,
      "emory": 5309,
      "ĠLAN": 5310,
      "trendmicro": 5311,
      "care": 5312,
      "Ġdecl": 5313,
      "Ġpersonnel": 5314,
      "ãĤ¸": 5315,
      "Ġliter": 5316,
      "Ġdisable": 5317,
      "Ġrecipient": 5318,
      "åī": 5319,
      "ĠModel": 5320,
      "Ġremov": 5321,
      "ociety": 5322,
      "ãĤ»ãĤŃãĥ¥": 5323,
      "Ġchannels": 5324,
      "Ġsolve": 5325,
      "ĠLayer": 5326,
      "Ġ2009": 5327,
      "link": 5328,
      "dro": 5329,
      "ĠAdvanced": 5330,
      "Pre": 5331,
      "Ġdataset": 5332,
      "ritical": 5333,
      "Ġlaws": 5334,
      "Ġbackground": 5335,
      "Ġheart": 5336,
      "Ġowners": 5337,
      "Ġthread": 5338,
      "Ġthreshold": 5339,
      "Ġindustrial": 5340,
      "mber": 5341,
      "ĠAre": 5342,
      "ĠSC": 5343,
      "Ġinsp": 5344,
      "asc": 5345,
      "ĠPassword": 5346,
      "ãĤª": 5347,
      "Inst": 5348,
      "Ġmill": 5349,
      "Ġdelivery": 5350,
      "ãĤ»ãĤŃãĥ¥ãĥªãĥĨãĤ£": 5351,
      "$.": 5352,
      "(\\": 5353,
      "ĠBas": 5354,
      "Ġescal": 5355,
      "oo": 5356,
      "Ġcam": 5357,
      "config": 5358,
      "Ġreceiving": 5359,
      "Citation": 5360,
      "fs": 5361,
      "osen": 5362,
      "Ġannou": 5363,
      "Ġreturned": 5364,
      "Ġdisplays": 5365,
      "luding": 5366,
      "world": 5367,
      "Ġdark": 5368,
      "Ġcompr": 5369,
      "Ġclasses": 5370,
      "Ġeffectiveness": 5371,
      "sq": 5372,
      "Ġcampaigns": 5373,
      "ãĥ¦": 5374,
      "Ġguess": 5375,
      "ĠOctober": 5376,
      "ĠBlack": 5377,
      "Answer": 5378,
      "rete": 5379,
      "Server": 5380,
      "Ġreliable": 5381,
      "Ġthousands": 5382,
      "ĠLicense": 5383,
      "init": 5384,
      "andbox": 5385,
      "Ġmedical": 5386,
      "orage": 5387,
      "Ġsector": 5388,
      "Ġdisclosure": 5389,
      "Ġworth": 5390,
      "Ġmenu": 5391,
      "aching": 5392,
      "ĠPract": 5393,
      "ĠRSA": 5394,
      "Ġgrad": 5395,
      "Ġscal": 5396,
      "ĠCr": 5397,
      "ĠCustom": 5398,
      "Ġtransmitted": 5399,
      "Ġremotely": 5400,
      "ĠBlock": 5401,
      "ĠPat": 5402,
      "ãĥ¼ãĤ¶": 5403,
      "Ġapplic": 5404,
      "Ġ40": 5405,
      "ĠPrivacy": 5406,
      "Ġconsistent": 5407,
      "ãĥ¦ãĥ¼ãĤ¶": 5408,
      "ãģ®æ": 5409,
      "String": 5410,
      "Ġadvert": 5411,
      "ional": 5412,
      "Ġeth": 5413,
      "iverse": 5414,
      "ony": 5415,
      "Ġdetecting": 5416,
      "++": 5417,
      "ĠAutom": 5418,
      "Ġalternative": 5419,
      "Ġplant": 5420,
      "ĠArch": 5421,
      "agent": 5422,
      "KE": 5423,
      "Ġweight": 5424,
      "More": 5425,
      "../": 5426,
      "SSL": 5427,
      "Ġcriminals": 5428,
      "Ġresist": 5429,
      "ributions": 5430,
      "Det": 5431,
      "ãģ¤": 5432,
      "Ġinsights": 5433,
      "Ġmitigation": 5434,
      "web": 5435,
      "ĠRet": 5436,
      "ĠBrit": 5437,
      "ĠNove": 5438,
      "Ġheav": 5439,
      "lement": 5440,
      "Intern": 5441,
      "Ġcorrel": 5442,
      "87": 5443,
      "Ġ64": 5444,
      "dec": 5445,
      "hel": 5446,
      "Ġloop": 5447,
      "Ġstarts": 5448,
      "ormal": 5449,
      "Net": 5450,
      "ĠDigital": 5451,
      "Ġnull": 5452,
      "ĠPublic": 5453,
      "ĠInstead": 5454,
      "ĠDH": 5455,
      "Ġbrute": 5456,
      "Ġult": 5457,
      "iability": 5458,
      "Ġregions": 5459,
      "Ġhundred": 5460,
      "comp": 5461,
      "ĠAPIs": 5462,
      "Ġflaws": 5463,
      "Ġtreatment": 5464,
      "Ġfri": 5465,
      "Ġprimarily": 5466,
      "ancy": 5467,
      "ãģ¾ãģŁ": 5468,
      "Ġsav": 5469,
      "Ġprogress": 5470,
      "ãĥŃãĤ°": 5471,
      "lesh": 5472,
      "Ġwidget": 5473,
      "ĠScript": 5474,
      "Ġanalyzing": 5475,
      "Ġ26": 5476,
      "uge": 5477,
      "free": 5478,
      "Ġchecking": 5479,
      "older": 5480,
      "GP": 5481,
      "ĠHealth": 5482,
      "ĠSupport": 5483,
      "ĊĠĠĠĠĠĠĠĠĠĠĠĠĠĠĠĠĠĠĠĠĠĠĠĠ": 5484,
      "Ġrecover": 5485,
      "Reg": 5486,
      "Ġletter": 5487,
      "pace": 5488,
      "Ġguidance": 5489,
      "ĠAugust": 5490,
      "Ġedge": 5491,
      "size": 5492,
      "Ġonto": 5493,
      "Ġ2000": 5494,
      "ĠConfiguration": 5495,
      "Par": 5496,
      "olicies": 5497,
      "place": 5498,
      "Ġ00": 5499,
      "Ġchem": 5500,
      "Ġ$$\\": 5501,
      "ĠFacebook": 5502,
      "ulating": 5503,
      "factor": 5504,
      "erprises": 5505,
      "Ġvariant": 5506,
      "Ġserve": 5507,
      "ĠImplement": 5508,
      "ĠDomain": 5509,
      "Ġcontinues": 5510,
      "Use": 5511,
      "ãģł": 5512,
      "Ġweaknesses": 5513,
      "ĠIntelligence": 5514,
      "Ġcircum": 5515,
      "Ġbul": 5516,
      "]]": 5517,
      "Ġur": 5518,
      "ypot": 5519,
      "ley": 5520,
      "ressed": 5521,
      "pret": 5522,
      "rypted": 5523,
      "alicious": 5524,
      "Ġang": 5525,
      "Rem": 5526,
      "roduction": 5527,
      "Ġencour": 5528,
      "Ġexplain": 5529,
      "89": 5530,
      "Ġ->": 5531,
      "ĠNT": 5532,
      "Ġconducted": 5533,
      "len": 5534,
      "rote": 5535,
      "Ġbrain": 5536,
      "Ġstri": 5537,
      "Ġdivid": 5538,
      "Ġmom": 5539,
      "Ġexpression": 5540,
      "åł´åĲĪ": 5541,
      "Ġsatisf": 5542,
      "abet": 5543,
      "Ġnumerous": 5544,
      "EP": 5545,
      "System": 5546,
      "Ġdifferences": 5547,
      "ĠSuch": 5548,
      "iliar": 5549,
      "Ġvital": 5550,
      "Ġdaily": 5551,
      "oke": 5552,
      "state": 5553,
      "icks": 5554,
      "ãģĤ": 5555,
      "Ġregulations": 5556,
      "ĠSeptember": 5557,
      "Ġsecuring": 5558,
      "Ġsynchron": 5559,
      "trans": 5560,
      "Ġalign": 5561,
      "umb": 5562,
      "ĠAttacks": 5563,
      "ĠAud": 5564,
      "ĠJapan": 5565,
      "Ġtactics": 5566,
      "ĠHost": 5567,
      "resources": 5568,
      "();": 5569,
      "arge": 5570,
      "Ġnotice": 5571,
      "ĠEuropean": 5572,
      "fortunately": 5573,
      "aaS": 5574,
      "cket": 5575,
      "rc": 5576,
      "Ġcompare": 5577,
      "OST": 5578,
      "Manag": 5579,
      "acket": 5580,
      "Ġprefer": 5581,
      "ĠTool": 5582,
      "Form": 5583,
      "arrow": 5584,
      "Ġdefend": 5585,
      "ĠDecember": 5586,
      "uff": 5587,
      "ister": 5588,
      "Ġbur": 5589,
      "ruary": 5590,
      "Ġnotifications": 5591,
      "bon": 5592,
      "Ġstrings": 5593,
      "Ġoperator": 5594,
      "Ġ80": 5595,
      "Ġregister": 5596,
      "network": 5597,
      "Ġstructures": 5598,
      "ãĤĮ": 5599,
      "Ġtrade": 5600,
      "ãĥĥãĥĪ": 5601,
      "Ġleads": 5602,
      "ĠCal": 5603,
      "Ġdegree": 5604,
      "Ġtowards": 5605,
      "ersky": 5606,
      "ĠTor": 5607,
      "ĠRel": 5608,
      "resent": 5609,
      "=\\": 5610,
      "Am": 5611,
      "search": 5612,
      "option": 5613,
      "cell": 5614,
      "ç´¢": 5615,
      "Ġlanguages": 5616,
      "Ġvisit": 5617,
      "WA": 5618,
      "Ġleave": 5619,
      "ĠUSB": 5620,
      "Ġmaterials": 5621,
      "è¦ģ": 5622,
      "leshoot": 5623,
      "ĠPe": 5624,
      "Ġdirection": 5625,
      "Ġbrowsers": 5626,
      "ificate": 5627,
      "æ¤ľç´¢": 5628,
      "Ġplanning": 5629,
      "inese": 5630,
      "Test": 5631,
      "ires": 5632,
      "aspersky": 5633,
      "ooth": 5634,
      "ured": 5635,
      "Ġvert": 5636,
      "Ġoutl": 5637,
      "ĠGateway": 5638,
      "Ġdefines": 5639,
      "Ġplaced": 5640,
      "Ġmoving": 5641,
      "TLS": 5642,
      "76": 5643,
      "ĠCar": 5644,
      "Ġdro": 5645,
      "Ġblockchain": 5646,
      "Ġextremely": 5647,
      "ran": 5648,
      "Ġdesired": 5649,
      "256": 5650,
      "Ġdouble": 5651,
      "words": 5652,
      "ĠQuest": 5653,
      "59": 5654,
      "Ġconsequences": 5655,
      "72": 5656,
      "æĦ": 5657,
      "First": 5658,
      "Ġplans": 5659,
      "Ġcombined": 5660,
      "Ġmigr": 5661,
      "Ġcrypto": 5662,
      "ĠAPT": 5663,
      "Ġbott": 5664,
      "ĠCommand": 5665,
      "ãģķ": 5666,
      "api": 5667,
      "IF": 5668,
      "Ġkeeping": 5669,
      "ĠElect": 5670,
      "ĠAES": 5671,
      "Ġnoted": 5672,
      "Ġmovement": 5673,
      "Our": 5674,
      "inding": 5675,
      "ĠXSS": 5676,
      "ptoms": 5677,
      "Ġ]": 5678,
      "Ġexception": 5679,
      "Ġmo": 5680,
      "Ġfundamental": 5681,
      "è¡Į": 5682,
      "filtr": 5683,
      "Ġhij": 5684,
      "Ġbyte": 5685,
      "ĠStep": 5686,
      "Ġcausing": 5687,
      "ĠMark": 5688,
      "info": 5689,
      "ĠMed": 5690,
      "Ġlogical": 5691,
      "Ġvehic": 5692,
      "ĠRun": 5693,
      "Ġcontrast": 5694,
      "Ġpp": 5695,
      "Cloud": 5696,
      "ĠGeneral": 5697,
      "check": 5698,
      "Ġhom": 5699,
      "Ġnothing": 5700,
      "Ġdedicated": 5701,
      "ãģ¾ãģŁãģ¯": 5702,
      "Ġencount": 5703,
      "string": 5704,
      "lot": 5705,
      "Ã©": 5706,
      "Ġmanager": 5707,
      "ĠZh": 5708,
      "New": 5709,
      "ĠSch": 5710,
      "ĠDist": 5711,
      "âĦ": 5712,
      "Ġconfiguring": 5713,
      "sm": 5714,
      "Ġproactive": 5715,
      "ĠSY": 5716,
      "erved": 5717,
      "Ġinputs": 5718,
      "84": 5719,
      "rist": 5720,
      "mitre": 5721,
      "Ġconfidentiality": 5722,
      "Using": 5723,
      "Shell": 5724,
      "ĠNetworks": 5725,
      "ãĥĳ": 5726,
      "Ġprinciple": 5727,
      "Ġhistor": 5728,
      "query": 5729,
      "Ġcovered": 5730,
      "Ġfunctional": 5731,
      "scan": 5732,
      "ackers": 5733,
      "ĠOf": 5734,
      "Ġbandwidth": 5735,
      "Ġheld": 5736,
      "ĠUpdate": 5737,
      "BI": 5738,
      "Ob": 5739,
      "Ġtested": 5740,
      "ĠZero": 5741,
      "DAP": 5742,
      "Ġfailed": 5743,
      "CA": 5744,
      "Ġcarried": 5745,
      "ĠIdentity": 5746,
      "core": 5747,
      "ene": 5748,
      "Ġfilters": 5749,
      "github": 5750,
      "ĠEns": 5751,
      "Ġongoing": 5752,
      "ãĥĻ": 5753,
      "augh": 5754,
      "Ġiter": 5755,
      "Ġseek": 5756,
      "uk": 5757,
      "bf": 5758,
      "allel": 5759,
      "Ġtracking": 5760,
      "Ġstores": 5761,
      "ribe": 5762,
      "script": 5763,
      "Ġauthority": 5764,
      "arr": 5765,
      "Ġnoise": 5766,
      "Ġnearly": 5767,
      "Ġwat": 5768,
      "Ind": 5769,
      "Ġwrote": 5770,
      "Ġicon": 5771,
      "etary": 5772,
      "atabase": 5773,
      "PR": 5774,
      "Ġ2007": 5775,
      "Ġleverage": 5776,
      "Ġstory": 5777,
      "ml": 5778,
      "Ġlicense": 5779,
      "Ġpossibly": 5780,
      "apped": 5781,
      "Ġcoming": 5782,
      "ifferent": 5783,
      "Ġorg": 5784,
      "rief": 5785,
      "abel": 5786,
      "Ġexploiting": 5787,
      "Ġpublicly": 5788,
      "etc": 5789,
      "Id": 5790,
      "Ġtables": 5791,
      "Ġtunnel": 5792,
      "raries": 5793,
      "Ġrepresentation": 5794,
      "Prot": 5795,
      "Ġhor": 5796,
      "ĠTime": 5797,
      "Since": 5798,
      "}$$": 5799,
      "Ġmajority": 5800,
      "nowledge": 5801,
      "essions": 5802,
      "utation": 5803,
      "Ġlate": 5804,
      "Ġunless": 5805,
      "Ġhyper": 5806,
      "techn": 5807,
      "Ġwomen": 5808,
      "ĠCommon": 5809,
      "ĠStart": 5810,
      "Ġ:=": 5811,
      "(),": 5812,
      "ĠCreate": 5813,
      "Ġstudent": 5814,
      "Ġassert": 5815,
      "Ġplugin": 5816,
      "ĠView": 5817,
      "Ġguidelines": 5818,
      "Ġitem": 5819,
      "anges": 5820,
      "Ġfocused": 5821,
      "ĠDen": 5822,
      "54": 5823,
      "ĠFore": 5824,
      "ãĥ¼ãĥī": 5825,
      "åĭ": 5826,
      "Ġcompat": 5827,
      "Ass": 5828,
      "51": 5829,
      "anch": 5830,
      "ĠEarth": 5831,
      "å¯¾": 5832,
      "ĠCross": 5833,
      "è©": 5834,
      "SI": 5835,
      "Ġremember": 5836,
      "Ġheaders": 5837,
      "istration": 5838,
      "oday": 5839,
      "Ġencoding": 5840,
      "Ġscripting": 5841,
      "Ġprojects": 5842,
      "63": 5843,
      "().": 5844,
      "Ġprivileged": 5845,
      "ĠII": 5846,
      "ada": 5847,
      "Access": 5848,
      "Ġcapacity": 5849,
      "itory": 5850,
      "Ġsil": 5851,
      "âĦ¢": 5852,
      "Ġaggreg": 5853,
      "ilter": 5854,
      "ĠâĨĴ": 5855,
      "root": 5856,
      "pg": 5857,
      "Ġstyle": 5858,
      "ĠVirus": 5859,
      "Ġbrok": 5860,
      "Agent": 5861,
      "ytics": 5862,
      "egin": 5863,
      "ĠHigh": 5864,
      "Ġplaintext": 5865,
      "angle": 5866,
      "ĠGuide": 5867,
      "ube": 5868,
      "duc": 5869,
      "ÂłÂł": 5870,
      "Ġinnov": 5871,
      "Ġblocking": 5872,
      "Ġcolor": 5873,
      "Press": 5874,
      "ened": 5875,
      "That": 5876,
      "var": 5877,
      "position": 5878,
      "Ġimpossible": 5879,
      "ĠNovember": 5880,
      "ĠLink": 5881,
      "Ġunits": 5882,
      "Ġincoming": 5883,
      "pir": 5884,
      "Ġrates": 5885,
      "Ġattachments": 5886,
      "Check": 5887,
      "Ġdiagn": 5888,
      "Ġgrant": 5889,
      "Ġintroduce": 5890,
      "Ġrise": 5891,
      "otal": 5892,
      "onal": 5893,
      "asion": 5894,
      "ĠAmerica": 5895,
      "Ġsevere": 5896,
      "Ġpoor": 5897,
      "HTTP": 5898,
      "Ġradio": 5899,
      "Ġlargest": 5900,
      "pper": 5901,
      "ĊĊĠ": 5902,
      "loy": 5903,
      "ĠGovern": 5904,
      "ĠMo": 5905,
      "Ġarticles": 5906,
      "Do": 5907,
      "ĠĠĠĠĠ": 5908,
      "lit": 5909,
      "ĠTeam": 5910,
      "Ġcivil": 5911,
      "Ġtend": 5912,
      "ãģķãĤĮãģŁ": 5913,
      "ĠExt": 5914,
      "omial": 5915,
      "Ġtemperature": 5916,
      "ĠMD": 5917,
      "ĠExchange": 5918,
      "Get": 5919,
      "Ġpressure": 5920,
      "RC": 5921,
      "Ġadvis": 5922,
      "term": 5923,
      "Ġstrict": 5924,
      "Ġdemonstrate": 5925,
      "ĠDuring": 5926,
      "rep": 5927,
      "Ġvariants": 5928,
      "Ġdiagram": 5929,
      "leep": 5930,
      "Ġgiving": 5931,
      "malware": 5932,
      "Ġdistingu": 5933,
      "ĠEurope": 5934,
      "Go": 5935,
      "Ġformal": 5936,
      "Ġolder": 5937,
      "ãĥĿãĥ¼ãĥĪ": 5938,
      "Ġsquare": 5939,
      "ĠRequest": 5940,
      "Ġschemes": 5941,
      "ĠChinese": 5942,
      "region": 5943,
      "atter": 5944,
      "Ġdriver": 5945,
      "Ġdrives": 5946,
      "ãĤµãĥ¼ãĥĲ": 5947,
      "Ġ?": 5948,
      "Ġ;": 5949,
      "exec": 5950,
      "names": 5951,
      "Ġclassification": 5952,
      "Ġattached": 5953,
      "ãĥ©ãĤ¤": 5954,
      "lers": 5955,
      "rive": 5956,
      "Ġmetadata": 5957,
      "Read": 5958,
      "Ġdeveloper": 5959,
      "Ġoverview": 5960,
      "ĠAP": 5961,
      "Ġapplies": 5962,
      "iences": 5963,
      "uman": 5964,
      "Ġregistered": 5965,
      "Ġ2003": 5966,
      "Ġprinciples": 5967,
      "Ġmaintenance": 5968,
      "ponent": 5969,
      "Dis": 5970,
      "Ġexport": 5971,
      "Ġaccurate": 5972,
      "Ġalone": 5973,
      "ĠMobile": 5974,
      "2020": 5975,
      "Ġfit": 5976,
      "ĠFebruary": 5977,
      "91": 5978,
      "LO": 5979,
      "Ġhot": 5980,
      "ĠIEEE": 5981,
      "hav": 5982,
      "otes": 5983,
      "ĠUN": 5984,
      "Ġhighest": 5985,
      "ibilities": 5986,
      "Ġ800": 5987,
      "Ġoffice": 5988,
      "ney": 5989,
      "Ġauthenticate": 5990,
      "Ġrequiring": 5991,
      "illing": 5992,
      "Ġecosystem": 5993,
      "Ġtel": 5994,
      "east": 5995,
      "Ġep": 5996,
      "Ġcircuit": 5997,
      "ãĤ«": 5998,
      "ULL": 5999,
      "ief": 6000,
      "Ġlik": 6001,
      "Ġchosen": 6002,
      "acts": 6003,
      "Ġlimitations": 6004,
      "Ġyield": 6005,
      "rest": 6006,
      "ivered": 6007,
      "Ġequivalent": 6008,
      "pa": 6009,
      "Ġobvious": 6010,
      "Ġ28": 6011,
      "ãĥį": 6012,
      "$,": 6013,
      "witter": 6014,
      "Ġcentury": 6015,
      "ĠMonitoring": 6016,
      "ĠPrevention": 6017,
      "Ġinvent": 6018,
      "Ġ![": 6019,
      "reens": 6020,
      "ĠProject": 6021,
      "Ġnormally": 6022,
      "hand": 6023,
      "Ġprove": 6024,
      "Ġprofessional": 6025,
      "ĠExample": 6026,
      "formance": 6027,
      "ĠSouth": 6028,
      "Ġtopics": 6029,
      "Ġlic": 6030,
      "================": 6031,
      "rets": 6032,
      "ĠXML": 6033,
      "disc": 6034,
      "Ġer": 6035,
      "Ġmedium": 6036,
      "Ġpersistent": 6037,
      "ãĥĥãĥĹ": 6038,
      "Crypt": 6039,
      "Ġfair": 6040,
      "mar": 6041,
      "ĠãĤĴãĤ¯ãĥªãĥĥãĤ¯": 6042,
      "ius": 6043,
      "ĠExplorer": 6044,
      "UL": 6045,
      "ĠAustral": 6046,
      "Time": 6047,
      "Ms": 6048,
      "Ġfoot": 6049,
      "Ġgas": 6050,
      "ĠLearning": 6051,
      "Ġmoment": 6052,
      "ĠHel": 6053,
      "ĠApache": 6054,
      "Ġperfect": 6055,
      "idge": 6056,
      "Ġmount": 6057,
      "Ġreceives": 6058,
      "Ġeveryone": 6059,
      "cs": 6060,
      "phas": 6061,
      "Ġminimize": 6062,
      "Ġspect": 6063,
      "Ġpublication": 6064,
      "itiz": 6065,
      "omb": 6066,
      "Ġoccurred": 6067,
      "Ġplaces": 6068,
      "lose": 6069,
      "iphers": 6070,
      "note": 6071,
      "UN": 6072,
      "Ġmissing": 6073,
      "bor": 6074,
      "2021": 6075,
      "åŃ": 6076,
      "ront": 6077,
      "ertain": 6078,
      "Ġidentifies": 6079,
      "aight": 6080,
      "Ġautomation": 6081,
      "Ġupp": 6082,
      "iant": 6083,
      "Ġtail": 6084,
      "lied": 6085,
      "ĠOF": 6086,
      "Ġspyware": 6087,
      "Ġexecuting": 6088,
      "txt": 6089,
      "ĠMc": 6090,
      "prov": 6091,
      "ĠNIST": 6092,
      "Ġdisabled": 6093,
      "Ġorganizational": 6094,
      "Ġclosed": 6095,
      "Ġprocessor": 6096,
      "local": 6097,
      "display": 6098,
      "ierarch": 6099,
      "Ġpolitical": 6100,
      "Ġsuggests": 6101,
      "plates": 6102,
      "URL": 6103,
      "ĠIts": 6104,
      "run": 6105,
      "69": 6106,
      "Ġfirmware": 6107,
      "celer": 6108,
      "æ³¨": 6109,
      "function": 6110,
      "Ġserves": 6111,
      "Ġgoals": 6112,
      "ĠAnalyz": 6113,
      "NIST": 6114,
      "Request": 6115,
      "Ġcryptocurrency": 6116,
      "Ġspot": 6117,
      "Ġautomatic": 6118,
      "ãģķãģĦ": 6119,
      "resh": 6120,
      "Version": 6121,
      "Ġachieved": 6122,
      "Ġeconomic": 6123,
      "col": 6124,
      "Ġselection": 6125,
      "mer": 6126,
      "iet": 6127,
      "olute": 6128,
      "Ġten": 6129,
      "Ġemployed": 6130,
      "space": 6131,
      "Ġshut": 6132,
      "Ġhit": 6133,
      "ĠFree": 6134,
      "content": 6135,
      "Be": 6136,
      "Ġstrength": 6137,
      "Ġyourself": 6138,
      "Ġperspective": 6139,
      "oph": 6140,
      "Ġincorrect": 6141,
      "UI": 6142,
      "ãģ«ãģ¯": 6143,
      "usters": 6144,
      "AI": 6145,
      "ĠRussian": 6146,
      "ishes": 6147,
      "ATE": 6148,
      "ĠWh": 6149,
      "ãģĦãģ¦": 6150,
      "block": 6151,
      "Ġdesktop": 6152,
      "83": 6153,
      "ãģıãģł": 6154,
      "Ġdiscussion": 6155,
      "Ġevolving": 6156,
      "ãģıãģłãģķãģĦ": 6157,
      "ITY": 6158,
      "ĠPen": 6159,
      "puter": 6160,
      "about": 6161,
      "ingly": 6162,
      "Ġresponsibility": 6163,
      "Cyber": 6164,
      "Ġlaunched": 6165,
      "Ġaddressed": 6166,
      "Ġenterprises": 6167,
      "Ġinstitutions": 6168,
      "ãģĬ": 6169,
      "doc": 6170,
      "entral": 6171,
      "Ġappe": 6172,
      "gn": 6173,
      "Ġrelative": 6174,
      "policy": 6175,
      "Ġobfusc": 6176,
      "Ġrequirement": 6177,
      "æĦı": 6178,
      "ensity": 6179,
      "Ġrat": 6180,
      "ĠEnterprise": 6181,
      "this": 6182,
      "ashing": 6183,
      "Ġplants": 6184,
      "Ġpaths": 6185,
      "ĠSource": 6186,
      "Ġboard": 6187,
      "ipal": 6188,
      "Ġmask": 6189,
      "netic": 6190,
      "itives": 6191,
      "ĠSn": 6192,
      "DC": 6193,
      "bra": 6194,
      "sys": 6195,
      "Ġproceed": 6196,
      "Ġimproved": 6197,
      "ĠPHP": 6198,
      "ebug": 6199,
      "henticated": 6200,
      "Ġintent": 6201,
      "ename": 6202,
      "ĠAfr": 6203,
      "Ġstraight": 6204,
      "ĠString": 6205,
      "XX": 6206,
      "Ġadministration": 6207,
      "Ċĉĉ": 6208,
      "Ġasked": 6209,
      "Ġcycle": 6210,
      "Ġrare": 6211,
      "apsh": 6212,
      "Ġextensions": 6213,
      "ĠGet": 6214,
      "Ġsan": 6215,
      "Ġregulatory": 6216,
      "Ġrequested": 6217,
      "email": 6218,
      "Ġreduced": 6219,
      "Ġanim": 6220,
      "Ġaddressing": 6221,
      "ayload": 6222,
      "Ġnation": 6223,
      "Ident": 6224,
      "ĠMIT": 6225,
      "Ġkinds": 6226,
      "Ġcharge": 6227,
      "Ġremediation": 6228,
      "Ġrevealed": 6229,
      "61": 6230,
      "Ġinformed": 6231,
      "Ġcomparison": 6232,
      "Ġforensic": 6233,
      "Ġyoung": 6234,
      "Ġmist": 6235,
      "Ġsto": 6236,
      "--------------------------------": 6237,
      "Le": 6238,
      "ĠVis": 6239,
      "TC": 6240,
      "Ġ60": 6241,
      "Ġraw": 6242,
      "antec": 6243,
      "Ġprocessed": 6244,
      "Ġcomment": 6245,
      "Ġagre": 6246,
      "ĠFound": 6247,
      "Ġdescript": 6248,
      "Ġwave": 6249,
      "open": 6250,
      "admin": 6251,
      "Ġpanel": 6252,
      "avers": 6253,
      "Ġaws": 6254,
      "Ġopening": 6255,
      "central": 6256,
      "Ġinstalling": 6257,
      "Gener": 6258,
      "war": 6259,
      "herent": 6260,
      ".|": 6261,
      "Service": 6262,
      "Sub": 6263,
      "Ġsuff": 6264,
      "Ġmatching": 6265,
      "ensor": 6266,
      "Ġvs": 6267,
      "Ġcookies": 6268,
      "Ġpicture": 6269,
      "ĠJust": 6270,
      "ĠNOT": 6271,
      "Ġadds": 6272,
      "Ġfav": 6273,
      "Ġpriority": 6274,
      "Although": 6275,
      "cy": 6276,
      "ĠAM": 6277,
      "Ġdelivered": 6278,
      "Ġpropag": 6279,
      "Ġinterpret": 6280,
      "rojans": 6281,
      "Ġexercise": 6282,
      "ĊĠĠĠĠĠĠĠĠĠĠĠĠĠĠĠĠĠĠĠĠĠĠĠ": 6283,
      "Ġmetrics": 6284,
      "virus": 6285,
      "password": 6286,
      "ĠOnly": 6287,
      "Ġclassified": 6288,
      "Ġperforms": 6289,
      "Ġil": 6290,
      "ĠDescription": 6291,
      "Content": 6292,
      "])": 6293,
      "ĠSI": 6294,
      "ils": 6295,
      "Ġsituations": 6296,
      "åĭķ": 6297,
      "Ġlibraries": 6298,
      "ãģ§ãģįãģ¾ãģĻ": 6299,
      "Pr": 6300,
      "ĠJohn": 6301,
      "Ġseconds": 6302,
      "su": 6303,
      "ĠES": 6304,
      "74": 6305,
      "Ġmiddle": 6306,
      "fe": 6307,
      "Ġsymptoms": 6308,
      "che": 6309,
      "ĠCount": 6310,
      "Ġelectron": 6311,
      "ĠHy": 6312,
      "Ġseed": 6313,
      "ĠISO": 6314,
      "73": 6315,
      "Ġseverity": 6316,
      "Ġpresents": 6317,
      "Ġanalyzed": 6318,
      "Ġruntime": 6319,
      "Ġtax": 6320,
      "iques": 6321,
      "Ġdeleted": 6322,
      "Ġsubstant": 6323,
      "ysical": 6324,
      "RA": 6325,
      "pc": 6326,
      "ĠSur": 6327,
      "ĠInjection": 6328,
      "ini": 6329,
      "ĠMethod": 6330,
      "Ġshift": 6331,
      "Conn": 6332,
      "Ġreduces": 6333,
      "osing": 6334,
      "Ġbalance": 6335,
      "ĠAgents": 6336,
      "Ġinfections": 6337,
      "Ġinstant": 6338,
      "ĠAnti": 6339,
      "Ġalter": 6340,
      "Ġtrace": 6341,
      "pty": 6342,
      "Ġharmful": 6343,
      "Malware": 6344,
      "Ġfault": 6345,
      "ĠEngineering": 6346,
      "vironment": 6347,
      "ĠNext": 6348,
      "Ġextended": 6349,
      "Ġconvers": 6350,
      "Ġlogged": 6351,
      "Ġemerging": 6352,
      "Ġconsult": 6353,
      "udget": 6354,
      "Ġsymbol": 6355,
      "Ġrapidly": 6356,
      "Many": 6357,
      "ĠSN": 6358,
      "body": 6359,
      "ann": 6360,
      "Ġlimits": 6361,
      "Ġmotiv": 6362,
      "'m": 6363,
      "oder": 6364,
      "Ġclaims": 6365,
      "Ġconflic": 6366,
      "roy": 6367,
      "aste": 6368,
      "ĠOracle": 6369,
      "bot": 6370,
      "ï¼": 6371,
      "Ġnotes": 6372,
      "redential": 6373,
      "Ġ+=": 6374,
      "Ġadjust": 6375,
      "Ġsegment": 6376,
      "ultane": 6377,
      "Ġvalidate": 6378,
      "ster": 6379,
      "ama": 6380,
      "ĠMet": 6381,
      "Ġconstantly": 6382,
      "Ġoffering": 6383,
      "EV": 6384,
      "lete": 6385,
      "Ġevolution": 6386,
      "ĠIBM": 6387,
      "base": 6388,
      "Ġtransp": 6389,
      "lice": 6390,
      "Error": 6391,
      "Ġkept": 6392,
      "Ġhealthcare": 6393,
      "Ġfails": 6394,
      "Ġexamine": 6395,
      "Ġresearcher": 6396,
      "ecting": 6397,
      "ĠFiles": 6398,
      "Ġcand": 6399,
      "ĠĊ": 6400,
      "Ġfamiliar": 6401,
      "ĠUs": 6402,
      "Ġreplace": 6403,
      "AWS": 6404,
      "Ġconfir": 6405,
      "TA": 6406,
      "issions": 6407,
      "Ġopportunity": 6408,
      "Ġadversarial": 6409,
      "den": 6410,
      "Most": 6411,
      "ulnerabilities": 6412,
      "Ġ#####": 6413,
      "ĠWin": 6414,
      "Ġdeath": 6415,
      "Ġthinking": 6416,
      "Ġrespectively": 6417,
      "ĠDevice": 6418,
      "Ġarguments": 6419,
      "Ġciphertext": 6420,
      "Ġderived": 6421,
      "82": 6422,
      "Ġunus": 6423,
      "erce": 6424,
      "ãĥªãĤ·": 6425,
      "Ġrepresented": 6426,
      "Ġhands": 6427,
      "ĠSOC": 6428,
      "ĠKaspersky": 6429,
      "ĠAssess": 6430,
      "entr": 6431,
      "Ġincorpor": 6432,
      "ĠOR": 6433,
      "ãĥĿãĥªãĤ·": 6434,
      "ĠPDF": 6435,
      "AME": 6436,
      "He": 6437,
      "Ġpackages": 6438,
      "inations": 6439,
      "Ġapplying": 6440,
      "Ġhuge": 6441,
      "Ġimplementations": 6442,
      "Ġworkflow": 6443,
      "Ġexceed": 6444,
      "ĠBoth": 6445,
      "Ġexplained": 6446,
      "ĠCE": 6447,
      "fox": 6448,
      "Ġdelay": 6449,
      "DI": 6450,
      "cel": 6451,
      "ĠAssoci": 6452,
      "Ġconsumer": 6453,
      "Ġshowing": 6454,
      "Ġslight": 6455,
      "Ġmapping": 6456,
      "Ġsys": 6457,
      "Ġcrime": 6458,
      "ĠSocial": 6459,
      "Ġsymmetric": 6460,
      "Ġsurvey": 6461,
      "acement": 6462,
      "Ġrestricted": 6463,
      "ampl": 6464,
      "grad": 6465,
      "Ġexfiltr": 6466,
      "Ġprice": 6467,
      "imeter": 6468,
      "ameter": 6469,
      "ĠLab": 6470,
      "SE": 6471,
      "Ġgranted": 6472,
      "chers": 6473,
      "Ġcrack": 6474,
      "Ġobjective": 6475,
      "ĠRest": 6476,
      "ãģĭãĤī": 6477,
      "Ġworked": 6478,
      "Ġconnecting": 6479,
      "ionage": 6480,
      "Ġilleg": 6481,
      "Ġloaded": 6482,
      "ĠPoint": 6483,
      "Sim": 6484,
      "ĠTesting": 6485,
      "CR": 6486,
      "iform": 6487,
      "62": 6488,
      "uel": 6489,
      "Ġconvention": 6490,
      "Ġapplicable": 6491,
      "Why": 6492,
      "Ġagency": 6493,
      "Control": 6494,
      "Ġsummary": 6495,
      "ĠRansomware": 6496,
      "ĠInstall": 6497,
      "iated": 6498,
      "Ġcarefully": 6499,
      "Bu": 6500,
      "ios": 6501,
      "%)": 6502,
      "illa": 6503,
      "direct": 6504,
      "table": 6505,
      "Point": 6506,
      "ificial": 6507,
      "Ġconnectivity": 6508,
      "Ġ[[": 6509,
      "INT": 6510,
      "æĮ": 6511,
      "DA": 6512,
      "fered": 6513,
      "Ġprevents": 6514,
      "Ġtrends": 6515,
      "ĠFTP": 6516,
      "Ġemphas": 6517,
      "length": 6518,
      "################": 6519,
      "Ġarr": 6520,
      "Ġnor": 6521,
      "Ġmaster": 6522,
      "erber": 6523,
      "Ġ()": 6524,
      "scale": 6525,
      "Ġacts": 6526,
      "Script": 6527,
      "Ġvoice": 6528,
      "under": 6529,
      "Ġdidn": 6530,
      "Ċĉĉĉ": 6531,
      "ĠFin": 6532,
      "oose": 6533,
      "istent": 6534,
      "Ġcentralized": 6535,
      "Ġleveraging": 6536,
      "sign": 6537,
      "Ġmining": 6538,
      "ĠHome": 6539,
      "Ġ!=": 6540,
      "Ġsections": 6541,
      "ãģĹãģ¦ãģıãģłãģķãģĦ": 6542,
      "IA": 6543,
      "ref": 6544,
      "ĠFort": 6545,
      "ĠSy": 6546,
      "oted": 6547,
      "Ġrow": 6548,
      "Ġremoval": 6549,
      "ein": 6550,
      "nomial": 6551,
      "Ġaccompl": 6552,
      "IPS": 6553,
      "Ap": 6554,
      "Ġalph": 6555,
      "istical": 6556,
      "ĠYork": 6557,
      "ilies": 6558,
      "Ġaren": 6559,
      "Ġinterested": 6560,
      "ĠFinally": 6561,
      "ĠContent": 6562,
      "Ġattachment": 6563,
      "ums": 6564,
      "Ġbroadcast": 6565,
      "etic": 6566,
      "igma": 6567,
      "ĠUnderstanding": 6568,
      "Ġasset": 6569,
      "79": 6570,
      "ĠWordPress": 6571,
      "but": 6572,
      "tty": 6573,
      "pector": 6574,
      "amin": 6575,
      "ĠFederal": 6576,
      "Ġretrieve": 6577,
      "Ġcompleted": 6578,
      "Ġspecification": 6579,
      "Ġchance": 6580,
      "ĠSMS": 6581,
      "\");": 6582,
      "Ġclearly": 6583,
      "ĠBest": 6584,
      "Ġenfor": 6585,
      "Ġfire": 6586,
      "irth": 6587,
      "apy": 6588,
      "lation": 6589,
      "boot": 6590,
      "Ġdiss": 6591,
      "Ġopened": 6592,
      "rew": 6593,
      "Ġ192": 6594,
      "ĠIndia": 6595,
      "seud": 6596,
      "Ġcoverage": 6597,
      "allow": 6598,
      "Ġteac": 6599,
      "Ġgenerates": 6600,
      "Ġsecurely": 6601,
      "Ġstated": 6602,
      "step": 6603,
      "ĠEvery": 6604,
      "gebra": 6605,
      "ĠUDP": 6606,
      "71": 6607,
      "HO": 6608,
      "Based": 6609,
      "Ġcopies": 6610,
      "Ġworkload": 6611,
      "Ġconstraints": 6612,
      "Ġprime": 6613,
      "idate": 6614,
      "ĠMachine": 6615,
      "anging": 6616,
      "bs": 6617,
      "å¿": 6618,
      "ĠRFC": 6619,
      "Ġparallel": 6620,
      "ĠCopy": 6621,
      "rought": 6622,
      "ĠFalse": 6623,
      "Ġhide": 6624,
      "Ġroutine": 6625,
      "Ġbillion": 6626,
      "Ġhouse": 6627,
      "Ġdigit": 6628,
      "ĠSearch": 6629,
      "Ġnavigate": 6630,
      "æĽ": 6631,
      "ĠProduct": 6632,
      "ĠFurthermore": 6633,
      "ĠUK": 6634,
      "Ġreasoning": 6635,
      "Ġcontroller": 6636,
      "BA": 6637,
      "apers": 6638,
      "what": 6639,
      "Ġprecise": 6640,
      "Loc": 6641,
      "ĠAnother": 6642,
      "UM": 6643,
      "Ġexplicitly": 6644,
      "Ġtroubleshoot": 6645,
      "Ġgate": 6646,
      "---": 6647,
      "Ġwindows": 6648,
      "Ġ2005": 6649,
      "Ġ2006": 6650,
      "Ġqual": 6651,
      "cles": 6652,
      "ĠChrist": 6653,
      "Ġhosted": 6654,
      "Ĥç": 6655,
      "field": 6656,
      "SON": 6657,
      "Ġbus": 6658,
      "available": 6659,
      "char": 6660,
      "quire": 6661,
      "è©³": 6662,
      "ĠClient": 6663,
      "Ġ802": 6664,
      "ãĤ¹ãĤ¿": 6665,
      "Ġnative": 6666,
      "Ġsigns": 6667,
      "ĠDHCP": 6668,
      "ĠTwo": 6669,
      "ĠRegular": 6670,
      "ãģ¦ãģĦ": 6671,
      "oman": 6672,
      "Ġthereby": 6673,
      "Ġsubsequent": 6674,
      "aker": 6675,
      "Ġrelationships": 6676,
      "Ġtags": 6677,
      "Ġresolve": 6678,
      "bar": 6679,
      "Ġobjectives": 6680,
      "embly": 6681,
      "vision": 6682,
      "Ġcompos": 6683,
      "ĠKore": 6684,
      "uth": 6685,
      "ĠShe": 6686,
      "Ġpointer": 6687,
      "ãĥŀ": 6688,
      "Ġconven": 6689,
      "Date": 6690,
      "ĠDefense": 6691,
      "Ġweeks": 6692,
      "Ġabuse": 6693,
      "Ġmatches": 6694,
      "âĪ": 6695,
      "Ġcrash": 6696,
      "Ġreceiver": 6697,
      "Ġfrag": 6698,
      "ĠMessage": 6699,
      "Ġencoded": 6700,
      "omet": 6701,
      "End": 6702,
      "Ġsessions": 6703,
      "Ġresil": 6704,
      "Ġbehaviors": 6705,
      "ĠWhy": 6706,
      "Ġefficiently": 6707,
      "Ġterminal": 6708,
      "FT": 6709,
      "Ġregardless": 6710,
      "Ġbaseline": 6711,
      "adow": 6712,
      "Ġprox": 6713,
      "Ġrecognize": 6714,
      "ĠCompliance": 6715,
      "âĢ¢âĢ¢âĢ¢âĢ¢": 6716,
      "Ġrepeated": 6717,
      "dev": 6718,
      "address": 6719,
      "Ġcomplic": 6720,
      "Ġcyberattacks": 6721,
      "Ġcity": 6722,
      "iced": 6723,
      "ellow": 6724,
      "ĠLDAP": 6725,
      "ĠLevel": 6726,
      "ĠBritish": 6727,
      "Ġciphers": 6728,
      "Ġrecognition": 6729,
      "ĠTrue": 6730,
      "Ġvisible": 6731,
      "rok": 6732,
      "Ġutilize": 6733,
      "PP": 6734,
      "ROM": 6735,
      "ĠRF": 6736,
      "Ġcomputation": 6737,
      "connected": 6738,
      "Ġrestart": 6739,
      "ĠCT": 6740,
      "åĲį": 6741,
      "81": 6742,
      "stitution": 6743,
      "Ġdup": 6744,
      "ĠTarget": 6745,
      "ç´°": 6746,
      "Ġelectric": 6747,
      "Ġche": 6748,
      "ãĤ¨ãĥ³ãĥī": 6749,
      "Back": 6750,
      "tered": 6751,
      "arter": 6752,
      "Ġmut": 6753,
      "uber": 6754,
      "trusted": 6755,
      "Trans": 6756,
      "sqrt": 6757,
      "Ed": 6758,
      "ao": 6759,
      "Ġorganisations": 6760,
      "Ġvoid": 6761,
      "ĠFe": 6762,
      "plete": 6763,
      "DN": 6764,
      "Ġpoison": 6765,
      "Ġobserv": 6766,
      "ãģĵãģ¨": 6767,
      "Other": 6768,
      "Ġdownloading": 6769,
      "Ġserial": 6770,
      "Ġscr": 6771,
      "$\\": 6772,
      "ĠGerman": 6773,
      "ese": 6774,
      "Ġrestore": 6775,
      "Under": 6776,
      "py": 6777,
      "rusion": 6778,
      "Ġmainly": 6779,
      "ãĥĿãĥªãĤ·ãĥ¼": 6780,
      "Ġpossibility": 6781,
      "Ġmultipl": 6782,
      "Ġmeant": 6783,
      "Ġsandbox": 6784,
      "Ġexhib": 6785,
      "ĠEvent": 6786,
      "ditional": 6787,
      "elihood": 6788,
      "Ġscanner": 6789,
      "Ġanalysts": 6790,
      "Ġoffered": 6791,
      "ĠEv": 6792,
      "including": 6793,
      "è©³ç´°": 6794,
      "Ġupgrade": 6795,
      "Ġbrief": 6796,
      "ĠChrome": 6797,
      "èĥ": 6798,
      "ĠÂł": 6799,
      "Ġthor": 6800,
      "Ġnuc": 6801,
      "eader": 6802,
      "Ġrestrictions": 6803,
      "CK": 6804,
      "Ġrepro": 6805,
      "emplate": 6806,
      "Ġleaders": 6807,
      "ĠNAT": 6808,
      "Ġheat": 6809,
      "icating": 6810,
      "Ġsimultane": 6811,
      "post": 6812,
      "atalog": 6813,
      "Author": 6814,
      "Ġimplications": 6815,
      "Ġmission": 6816,
      "cal": 6817,
      "ãģ«ãģ¤": 6818,
      "Ġupper": 6819,
      "Ġahead": 6820,
      "Ġ\"\"\"": 6821,
      "Ġrecommendations": 6822,
      "Ġchemical": 6823,
      "ipped": 6824,
      "que": 6825,
      "Ġmand": 6826,
      "ĠarXiv": 6827,
      "Ġgap": 6828,
      "Ġpeer": 6829,
      "Ġmanipulation": 6830,
      "Ġexplan": 6831,
      "ĠPlan": 6832,
      "Ġupdating": 6833,
      "ĠConference": 6834,
      "inder": 6835,
      "Ġlearned": 6836,
      "Ġque": 6837,
      "vestig": 6838,
      "rase": 6839,
      "ĠMain": 6840,
      "ãģ®ç": 6841,
      "ĠNumber": 6842,
      "Ġselecting": 6843,
      "Create": 6844,
      "Ġadvantages": 6845,
      "Ġready": 6846,
      "æĥ": 6847,
      "Ġmillions": 6848,
      "application": 6849,
      "Ġbugs": 6850,
      "Ġflu": 6851,
      "iber": 6852,
      "Ġinvolving": 6853,
      "orph": 6854,
      "output": 6855,
      "ĠProf": 6856,
      "Ġfeedback": 6857,
      "ãģ«ãģ¤ãģĦãģ¦": 6858,
      "Ent": 6859,
      "iny": 6860,
      "ollowing": 6861,
      "ĠEqu": 6862,
      "Ġinfluence": 6863,
      "Ġhierarch": 6864,
      "CM": 6865,
      "ĠConsider": 6866,
      "500": 6867,
      "input": 6868,
      "CI": 6869,
      "LA": 6870,
      "ĠReview": 6871,
      "weight": 6872,
      "Ġreferences": 6873,
      "èĥ½": 6874,
      "Ġwatch": 6875,
      "Ġsuitable": 6876,
      "pact": 6877,
      "ffective": 6878,
      "ailed": 6879,
      "Ġworldwide": 6880,
      "Sign": 6881,
      "255": 6882,
      "Per": 6883,
      "ĠWest": 6884,
      "Ġpick": 6885,
      "Ġaccident": 6886,
      "CO": 6887,
      "ĠSO": 6888,
      "Ġgenerating": 6889,
      "ĠLocal": 6890,
      "Ġmol": 6891,
      "Ġcal": 6892,
      "Ġsearc": 6893,
      "lay": 6894,
      "Ġexchang": 6895,
      "isation": 6896,
      "ĠSimilar": 6897,
      "Ġperhaps": 6898,
      "Ac": 6899,
      "Ġrelies": 6900,
      "Ġwants": 6901,
      "Ġsigning": 6902,
      "Click": 6903,
      "Ġsold": 6904,
      "aper": 6905,
      "ħ§": 6906,
      "}^{": 6907,
      "Ġunw": 6908,
      "Ġbegins": 6909,
      "Ġbottom": 6910,
      "ķ°": 6911,
      "?**": 6912,
      "Ġzone": 6913,
      "gorithm": 6914,
      "Ġinstru": 6915,
      "urning": 6916,
      "Ġconstruction": 6917,
      "ĠDesign": 6918,
      "Ġhundreds": 6919,
      "VM": 6920,
      "Ġabsolute": 6921,
      "max": 6922,
      "Ġforeign": 6923,
      "Ġadvance": 6924,
      "Ġcompute": 6925,
      "ĠiOS": 6926,
      "ĠGlobal": 6927,
      "ymmetric": 6928,
      "utor": 6929,
      "Ġmostly": 6930,
      "Ġinvalid": 6931,
      "Ġdialog": 6932,
      "ĠInfrastructure": 6933,
      "Ġpayloads": 6934,
      "ĠVol": 6935,
      "gue": 6936,
      "expected": 6937,
      "ĠEnsure": 6938,
      "Mac": 6939,
      "Ġconv": 6940,
      "Ġeventually": 6941,
      "Ġcontinuously": 6942,
      "Ġrepository": 6943,
      "Ġfocuses": 6944,
      "groups": 6945,
      "ĠÃ": 6946,
      "hesis": 6947,
      "Ġaudio": 6948,
      "press": 6949,
      "Ġideas": 6950,
      "ĠCON": 6951,
      ")-": 6952,
      "Ġglob": 6953,
      "Ġrecorded": 6954,
      "Rel": 6955,
      "Value": 6956,
      "ĠSun": 6957,
      "Ġ('": 6958,
      "Ġnove": 6959,
      "Ġexperiment": 6960,
      "ĠProxy": 6961,
      "Ġ90": 6962,
      "lies": 6963,
      "while": 6964,
      "Ġportion": 6965,
      "default": 6966,
      "Spec": 6967,
      "ĠOnline": 6968,
      "ĠIntel": 6969,
      "Ġmathematical": 6970,
      "Ġtick": 6971,
      "lig": 6972,
      "Ġassessments": 6973,
      "written": 6974,
      "Ġconcentr": 6975,
      "Ġsubnet": 6976,
      "ĠPolicies": 6977,
      "ĠTwitter": 6978,
      "2017": 6979,
      "Ġscreens": 6980,
      "uper": 6981,
      "Ġapproved": 6982,
      "Ġunable": 6983,
      "Ġreset": 6984,
      "Ġexplains": 6985,
      "bal": 6986,
      "ictionary": 6987,
      "Ġcybercrime": 6988,
      "ĠMode": 6989,
      "Ġleaving": 6990,
      "Ġinvestigate": 6991,
      "ĠBrow": 6992,
      "Ġoutputs": 6993,
      "illance": 6994,
      "Ġindicating": 6995,
      "Ġstatements": 6996,
      "ĠTools": 6997,
      "Ġreplaced": 6998,
      "Ġdownloads": 6999,
      "isting": 7000,
      "Ġentirely": 7001,
      "Ġcancer": 7002,
      "Ġlapt": 7003,
      "ĠATT": 7004,
      "XSS": 7005,
      "Ġremaining": 7006,
      "ĠPlatform": 7007,
      "endix": 7008,
      "Ġpartition": 7009,
      "ancer": 7010,
      "ĠExecution": 7011,
      "Gr": 7012,
      "Dec": 7013,
      "ino": 7014,
      "tract": 7015,
      "ĠIntroduction": 7016,
      "Message": 7017,
      "Ġpow": 7018,
      "Each": 7019,
      "Ġscientists": 7020,
      "Ġidentical": 7021,
      "Ġparticipants": 7022,
      "ĠSecond": 7023,
      "Multi": 7024,
      "enior": 7025,
      "Ġacceler": 7026,
      "gery": 7027,
      "Ġformula": 7028,
      "Ġunlike": 7029,
      "Ġsecured": 7030,
      "Ġculture": 7031,
      "Ġfamilies": 7032,
      "displaystyle": 7033,
      "Ġidentifiers": 7034,
      "ĠRout": 7035,
      "Site": 7036,
      "Ġremoving": 7037,
      "ĠBitcoin": 7038,
      "Ġstress": 7039,
      "index": 7040,
      "Ġviews": 7041,
      "inite": 7042,
      "Ġindustries": 7043,
      "ãĥĢ": 7044,
      "forward": 7045,
      "Ġapproximately": 7046,
      "Ġtrojan": 7047,
      "Event": 7048,
      "Ġconfidence": 7049,
      "Ġflexibility": 7050,
      "å®Ł": 7051,
      "Ġcovers": 7052,
      "Ġthorough": 7053,
      "Auth": 7054,
      "pread": 7055,
      "ĠSaf": 7056,
      "ĠCV": 7057,
      "ĠGit": 7058,
      "hether": 7059,
      "amper": 7060,
      "Secure": 7061,
      "Ġgreen": 7062,
      "2018": 7063,
      "Next": 7064,
      "ynamic": 7065,
      "Ġdefinitions": 7066,
      "AAAA": 7067,
      "Ġtriggered": 7068,
      "Ġimperson": 7069,
      "Ġhumans": 7070,
      "ĠSte": 7071,
      "Ġdepartment": 7072,
      "Ġcomments": 7073,
      "ãĤ¤ãĥ³ãĥĪ": 7074,
      "Ġsurpr": 7075,
      "Ġedit": 7076,
      "Ġtoward": 7077,
      "begin": 7078,
      "ĠLib": 7079,
      "Ġformer": 7080,
      "Code": 7081,
      "åĩº": 7082,
      "ĠPub": 7083,
      "Ġstatistics": 7084,
      "Ġjoint": 7085,
      "attle": 7086,
      "Ġhosting": 7087,
      "å¾": 7088,
      "click": 7089,
      "Ġdashboard": 7090,
      "Ĥçħ§": 7091,
      "åıĤçħ§": 7092,
      "Ġbench": 7093,
      "Ġinterpre": 7094,
      "ĠOT": 7095,
      "ycle": 7096,
      "Ġdigits": 7097,
      "Host": 7098,
      "Ġchallenging": 7099,
      "Ġidentities": 7100,
      "æ³¨æĦı": 7101,
      "Ġhab": 7102,
      "ĠEast": 7103,
      "ĠExper": 7104,
      "ĠInit": 7105,
      "Ġwish": 7106,
      "Ġ29": 7107,
      "ders": 7108,
      "ze": 7109,
      "Des": 7110,
      "ĠImport": 7111,
      "ugg": 7112,
      "Ġjud": 7113,
      "Source": 7114,
      "itored": 7115,
      "Ġpatient": 7116,
      "ĠDLL": 7117,
      "Ġprotects": 7118,
      "Ġpatched": 7119,
      "Ġoverhead": 7120,
      "Ġcontinued": 7121,
      "Ġclimate": 7122,
      "ca": 7123,
      "Last": 7124,
      "ĠPres": 7125,
      "**.": 7126,
      "ĠStorage": 7127,
      "Ġideal": 7128,
      ")\\": 7129,
      "ĠBen": 7130,
      "start": 7131,
      "Ġindicators": 7132,
      "Ġsplit": 7133,
      "Ġleaves": 7134,
      "sych": 7135,
      "Ġsaved": 7136,
      "Ġamounts": 7137,
      "Ġextensive": 7138,
      "model": 7139,
      "eper": 7140,
      "havior": 7141,
      "ĠLanguage": 7142,
      "ipt": 7143,
      "olid": 7144,
      "Ġauditing": 7145,
      "rum": 7146,
      "ãĥĶ": 7147,
      "idespread": 7148,
      "Ġempty": 7149,
      "aware": 7150,
      "ka": 7151,
      "stances": 7152,
      "iders": 7153,
      "Ġmid": 7154,
      "Ġdirectories": 7155,
      "åĬ¹": 7156,
      "Ġsaw": 7157,
      "ĠStandards": 7158,
      "ulator": 7159,
      "Ġbots": 7160,
      "Ġrend": 7161,
      "Ġprovision": 7162,
      "Ġdemonstrated": 7163,
      "CD": 7164,
      "obe": 7165,
      "Ġcourt": 7166,
      "ĠFirefox": 7167,
      "ãĥĿãĤ¤ãĥ³ãĥĪ": 7168,
      "Ġspoofing": 7169,
      "ĠKing": 7170,
      "Ġneigh": 7171,
      "Ġminimal": 7172,
      "Ġopportunities": 7173,
      "Ġprepared": 7174,
      "Ġshowed": 7175,
      "ĠTheir": 7176,
      "request": 7177,
      "ĠMoreover": 7178,
      "threat": 7179,
      "Ġorganisation": 7180,
      "Policy": 7181,
      "Ġdivided": 7182,
      "ĠChar": 7183,
      "Ġimproving": 7184,
      "Ġpolynomial": 7185,
      "Ġms": 7186,
      "Ġaudits": 7187,
      "éĢģ": 7188,
      "Ġframeworks": 7189,
      "yes": 7190,
      "Ġroll": 7191,
      "Fig": 7192,
      "-+": 7193,
      "Ġcookie": 7194,
      "='": 7195,
      "uration": 7196,
      "Ġactively": 7197,
      "Ġhybrid": 7198,
      "Ġdetects": 7199,
      "tains": 7200,
      ".(": 7201,
      "Ġstages": 7202,
      "FI": 7203,
      "Ġhun": 7204,
      "ĠCalif": 7205,
      "she": 7206,
      "Ġ(\"": 7207,
      "ĠStat": 7208,
      "then": 7209,
      "ĠDi": 7210,
      "oting": 7211,
      "Ġmoved": 7212,
      "ĠâĪ": 7213,
      "ĠPlease": 7214,
      "ãĤ¨ãĥ³ãĥīãĥĿãĤ¤ãĥ³ãĥĪ": 7215,
      "Out": 7216,
      "UE": 7217,
      "ission": 7218,
      "Ġtransf": 7219,
      "Ġnut": 7220,
      "Ġlives": 7221,
      "acker": 7222,
      "Ġattract": 7223,
      "Ġhelpful": 7224,
      "Ġequations": 7225,
      "Ġinterrupt": 7226,
      "Ġentered": 7227,
      "Ġspecifies": 7228,
      "olean": 7229,
      "»é": 7230,
      "Ġadequ": 7231,
      "gin": 7232,
      "Ġsun": 7233,
      "osis": 7234,
      "ĠIDS": 7235,
      "jpg": 7236,
      "Ġencrypting": 7237,
      "Ġnecessarily": 7238,
      "Mon": 7239,
      "ĠĊĠ": 7240,
      "Ġholds": 7241,
      "ĠEther": 7242,
      "Ġcalling": 7243,
      "Ġenvironmental": 7244,
      "ĠFind": 7245,
      "Ġeye": 7246,
      "necess": 7247,
      "Ġbudget": 7248,
      "Ġturned": 7249,
      "Ġbin": 7250,
      "Ġprefix": 7251,
      "Inter": 7252,
      "ĠDev": 7253,
      "dll": 7254,
      "Ġtemporary": 7255,
      "Ġdisclosed": 7256,
      "ometimes": 7257,
      "Ġsurv": 7258,
      "Ġcarbon": 7259,
      "inf": 7260,
      "Ġhashes": 7261,
      "ĠAdministrator": 7262,
      "ĠSolar": 7263,
      "Ġpatients": 7264,
      "Ġreader": 7265,
      "struction": 7266,
      "ĠApplications": 7267,
      "ĠIncident": 7268,
      "Ġvast": 7269,
      "LC": 7270,
      "rench": 7271,
      "Ġforces": 7272,
      "prem": 7273,
      "Ġampl": 7274,
      "ĠReal": 7275,
      "Part": 7276,
      "Ġevaluated": 7277,
      "inition": 7278,
      "ãĥªãĤ¹ãĥĪ": 7279,
      "Ġsecrets": 7280,
      "Ġfacilitate": 7281,
      "last": 7282,
      "Ġconsumers": 7283,
      "Ġoriginally": 7284,
      "ĠSymantec": 7285,
      "Ġax": 7286,
      "zip": 7287,
      "how": 7288,
      "Ġresolution": 7289,
      "API": 7290,
      "lege": 7291,
      "Ġinsecure": 7292,
      "ependent": 7293,
      "kr": 7294,
      "rical": 7295,
      "worth": 7296,
      "Ġcoding": 7297,
      "Ġ31": 7298,
      "ĠÎ": 7299,
      "event": 7300,
      "ornia": 7301,
      "Ġwidespread": 7302,
      "ropy": 7303,
      "Ġattempting": 7304,
      "Ġnovel": 7305,
      "Ġoperates": 7306,
      "Ġpairs": 7307,
      "Ġmaintained": 7308,
      "ects": 7309,
      "\">": 7310,
      "driv": 7311,
      "tical": 7312,
      "ĠGovernment": 7313,
      "ĠMake": 7314,
      "cher": 7315,
      "alph": 7316,
      "Ġtransition": 7317,
      "Ġsensor": 7318,
      "Ġlikelihood": 7319,
      "Ġshares": 7320,
      "ias": 7321,
      "authenticated": 7322,
      "Ġaims": 7323,
      "aught": 7324,
      "MAC": 7325,
      "åł±": 7326,
      "Ġeight": 7327,
      "ĠPlay": 7328,
      "ql": 7329,
      "Ġannounced": 7330,
      "Ġintention": 7331,
      "etch": 7332,
      "Ġcontainers": 7333,
      "ana": 7334,
      "Ġdepth": 7335,
      "TS": 7336,
      "Ġboundary": 7337,
      "yl": 7338,
      "Ġanimals": 7339,
      "sk": 7340,
      "Ġconst": 7341,
      "ĠDirector": 7342,
      "Ġanswers": 7343,
      "ienced": 7344,
      "rompt": 7345,
      "ĠOrganizations": 7346,
      "Ġ................................": 7347,
      "ĠScripting": 7348,
      "eck": 7349,
      "ĠPrivile": 7350,
      "Ġdoct": 7351,
      "Ġmassive": 7352,
      "ĠIndust": 7353,
      "iter": 7354,
      "Ġreliability": 7355,
      "Ġanonymous": 7356,
      "itecture": 7357,
      "Ġmusic": 7358,
      "Ġgovernments": 7359,
      "æĪ": 7360,
      "Ġclosely": 7361,
      "Ġtold": 7362,
      "ĠMFA": 7363,
      "ĠVLAN": 7364,
      "ride": 7365,
      "æ¬": 7366,
      "Ġstation": 7367,
      "à¦": 7368,
      "}{\\": 7369,
      "Ġstoring": 7370,
      "Ġevolve": 7371,
      "Te": 7372,
      "Ġliving": 7373,
      "ensitive": 7374,
      "Path": 7375,
      "Ġverified": 7376,
      "cons": 7377,
      "ãĤ¢ãĥĥãĥĹ": 7378,
      "ĠFlash": 7379,
      "count": 7380,
      "emon": 7381,
      "Ġanc": 7382,
      "Ġcitiz": 7383,
      "earchers": 7384,
      "ĠPowerShell": 7385,
      "Hub": 7386,
      "Ġnewly": 7387,
      "olar": 7388,
      "Ġdatasets": 7389,
      "Ġsyntax": 7390,
      "\\|": 7391,
      "Ġunivers": 7392,
      "Ġwa": 7393,
      "Ġexpertise": 7394,
      "ĠDav": 7395,
      "IDS": 7396,
      "ãģ®è": 7397,
      "encrypted": 7398,
      "/*": 7399,
      "normal": 7400,
      "ĠVision": 7401,
      "ccessful": 7402,
      "ĠCertificate": 7403,
      "Ġshall": 7404,
      "Ġharder": 7405,
      "vol": 7406,
      "Priv": 7407,
      "Ġextent": 7408,
      "ĠSMTP": 7409,
      "rees": 7410,
      "Ġpieces": 7411,
      "valid": 7412,
      "Ġcollaboration": 7413,
      "Ġdecide": 7414,
      "VID": 7415,
      "information": 7416,
      "Ġimag": 7417,
      "Ġessentially": 7418,
      "åĬł": 7419,
      "Ġhop": 7420,
      "Ġpoll": 7421,
      "Ġdiverse": 7422,
      "Ġshape": 7423,
      "Ġinitially": 7424,
      "layer": 7425,
      "Ġintroduction": 7426,
      "My": 7427,
      "itf": 7428,
      "Ops": 7429,
      "ĠDatabase": 7430,
      "omic": 7431,
      "Ġexclus": 7432,
      "ypically": 7433,
      "ĠãĤĴãĤ¯ãĥªãĥĥãĤ¯ãģĹãģ¾ãģĻ": 7434,
      "umm": 7435,
      "ĠRussia": 7436,
      "ħåł±": 7437,
      "ĠDate": 7438,
      "Work": 7439,
      "Ġpretty": 7440,
      "oration": 7441,
      "Ġsubset": 7442,
      "Before": 7443,
      "ĠJournal": 7444,
      "Ġknows": 7445,
      "Ġrank": 7446,
      "Ġbooks": 7447,
      "AV": 7448,
      "Ġregistration": 7449,
      "Â·": 7450,
      "Ġhypot": 7451,
      "Ġbiometric": 7452,
      "actor": 7453,
      "Ġip": 7454,
      "éĢļ": 7455,
      "éĻ¤": 7456,
      "Ġtitle": 7457,
      "ups": 7458,
      "Ġ2004": 7459,
      "Ġbroken": 7460,
      "orp": 7461,
      "Ġbirth": 7462,
      "umes": 7463,
      "Ġtrained": 7464,
      "Ġaccepted": 7465,
      "ãĤĬãģ¾ãģĻ": 7466,
      "Ġbanks": 7467,
      "luded": 7468,
      "Ġfailures": 7469,
      "Ġwhereas": 7470,
      "Ġdecom": 7471,
      "Ġsupporting": 7472,
      "Run": 7473,
      "Ġbrought": 7474,
      "Ġdetermining": 7475,
      "Ġwent": 7476,
      "public": 7477,
      "client": 7478,
      "Ġexpensive": 7479,
      "Ġarchitectures": 7480,
      "Ġguarantee": 7481,
      "Ġmanipulate": 7482,
      "Users": 7483,
      "Ġprofiles": 7484,
      "ãĤĴä½¿çĶ¨": 7485,
      "Ġinfo": 7486,
      "è¡¨ç¤ºãģķãĤĮãģ¾ãģĻ": 7487,
      "holders": 7488,
      "Ġunusual": 7489,
      "Ġhope": 7490,
      "ĠWill": 7491,
      "Ġbuy": 7492,
      "Ġproven": 7493,
      "ĠCM": 7494,
      "year": 7495,
      "Ġforensics": 7496,
      "des": 7497,
      "ĠPerm": 7498,
      "Ġoptimal": 7499,
      "imensional": 7500,
      "ãĥ¯": 7501,
      "ĠâĢ¦": 7502,
      "Of": 7503,
      "Ġformats": 7504,
      "åı¯": 7505,
      "ĠWhich": 7506,
      "Ġtries": 7507,
      "Ġsizes": 7508,
      "ermark": 7509,
      "ĠSchool": 7510,
      "Win": 7511,
      "Ġexistence": 7512,
      "ĠLaw": 7513,
      "ACK": 7514,
      "ļĦ": 7515,
      "road": 7516,
      "iam": 7517,
      "Ġreality": 7518,
      "Ġdetermines": 7519,
      "Exception": 7520,
      "ELECT": 7521,
      "èªį": 7522,
      "lands": 7523,
      "Ġpose": 7524,
      "users": 7525,
      "Ġcurve": 7526,
      "dist": 7527,
      "ä¸į": 7528,
      "Ġproduces": 7529,
      "Ġexperiments": 7530,
      "json": 7531,
      "æĺ": 7532,
      "Ġsociety": 7533,
      "pionage": 7534,
      "ĠCanada": 7535,
      "ĠAnalyzer": 7536,
      "800": 7537,
      "Ġmer": 7538,
      "Os": 7539,
      "Ġperimeter": 7540,
      "Ġadopted": 7541,
      "ãĤ½": 7542,
      "ĠCalifornia": 7543,
      "Ġfight": 7544,
      "Ġimpacts": 7545,
      "perties": 7546,
      "Ġmodification": 7547,
      "OW": 7548,
      "Ġnumer": 7549,
      "Ġseven": 7550,
      "Ġinherent": 7551,
      "band": 7552,
      "101": 7553,
      "Ġchart": 7554,
      "df": 7555,
      "Ġmonitored": 7556,
      "ĠPractices": 7557,
      "zap": 7558,
      "Ġhelping": 7559,
      "Ġopens": 7560,
      "ĠMess": 7561,
      "Ġcalculate": 7562,
      "reating": 7563,
      "ĠDevelopment": 7564,
      "Ġdiffer": 7565,
      "Ġtried": 7566,
      "Ġutilized": 7567,
      "ĠRef": 7568,
      "endor": 7569,
      "ĠHard": 7570,
      "Ġswitches": 7571,
      "Ġutilizing": 7572,
      "Ġinteractions": 7573,
      "ĠGiven": 7574,
      "organ": 7575,
      "Bl": 7576,
      "ĠISP": 7577,
      "Ġslightly": 7578,
      "Ġwait": 7579,
      "ĠPrivate": 7580,
      "Ġpseud": 7581,
      "Ġgames": 7582,
      "Ġconfirmed": 7583,
      "Ġappliance": 7584,
      "Ġsummar": 7585,
      "called": 7586,
      "Select": 7587,
      "Ġstructured": 7588,
      "ãģ¿": 7589,
      "æ¬¡": 7590,
      "Ġpipeline": 7591,
      "ĠSw": 7592,
      "APT": 7593,
      "Because": 7594,
      "åıĤçħ§ãģĹãģ¦ãģıãģłãģķãģĦ": 7595,
      "cat": 7596,
      "Ġinference": 7597,
      "unctions": 7598,
      "Ġleakage": 7599,
      "ulent": 7600,
      "å®Łè¡Į": 7601,
      "Parent": 7602,
      "include": 7603,
      "ĠAdministration": 7604,
      "RM": 7605,
      "Ġmessaging": 7606,
      "Ġdestruct": 7607,
      "Ġ500": 7608,
      "Ġsuc": 7609,
      "Ġreached": 7610,
      "Ġ2026": 7611,
      "Ġforest": 7612,
      "Group": 7613,
      "arg": 7614,
      "Ġadoption": 7615,
      "ĠNULL": 7616,
      "Ġchecked": 7617,
      "plex": 7618,
      "urch": 7619,
      "çļĦ": 7620,
      "They": 7621,
      "ername": 7622,
      "ĠBased": 7623,
      "Ġsurround": 7624,
      "Ġdoor": 7625,
      "DNS": 7626,
      "Ġblue": 7627,
      "Ġconcerned": 7628,
      "elt": 7629,
      "Ġinspection": 7630,
      "Ġdece": 7631,
      "ĠSk": 7632,
      "Watch": 7633,
      "ffff": 7634,
      "Ġspaces": 7635,
      "Ġanalog": 7636,
      "ĠBob": 7637,
      "Ġtemplates": 7638,
      "Ġdealing": 7639,
      "ĠMath": 7640,
      "ports": 7641,
      "Ġbenign": 7642,
      "ĠBase": 7643,
      "Cons": 7644,
      "Ġauthorities": 7645,
      "Ġsymbols": 7646,
      "wn": 7647,
      "ĠConfigure": 7648,
      "igen": 7649,
      "ĠUnix": 7650,
      "Ġdeploying": 7651,
      "Ġisolated": 7652,
      "echo": 7653,
      "Ġbucket": 7654,
      "Ġestimated": 7655,
      "Ġillegal": 7656,
      "Ġfacilities": 7657,
      "iki": 7658,
      "essor": 7659,
      "ifically": 7660,
      "Apex": 7661,
      "._": 7662,
      "Ġstake": 7663,
      "Ġhighlights": 7664,
      "ĠCD": 7665,
      "Sm": 7666,
      "ĠSNMP": 7667,
      "Ġsubmit": 7668,
      "Ġlatency": 7669,
      "ĠBal": 7670,
      "Ġfinally": 7671,
      "äº": 7672,
      "ãĤĪãģ³": 7673,
      "ãģĬãĤĪãģ³": 7674,
      "Ġperman": 7675,
      "Ġdead": 7676,
      "ĠAgency": 7677,
      "Ġbackups": 7678,
      "Ġformed": 7679,
      "Ġbehaviour": 7680,
      "æĮĩ": 7681,
      "po": 7682,
      "eat": 7683,
      "Ġgrid": 7684,
      "Ġperm": 7685,
      "usp": 7686,
      "ĠDownload": 7687,
      "Ġdrug": 7688,
      "Ġescalation": 7689,
      "hered": 7690,
      "Ġraise": 7691,
      "102": 7692,
      "main": 7693,
      "Post": 7694,
      "ĠBre": 7695,
      "Ġroom": 7696,
      "2023": 7697,
      "rd": 7698,
      "ĠRule": 7699,
      "depth": 7700,
      "Ġwalk": 7701,
      "utral": 7702,
      "Ġguard": 7703,
      "ĠEX": 7704,
      "uits": 7705,
      "Views": 7706,
      "akers": 7707,
      "hash": 7708,
      "necessary": 7709,
      "Ġcatch": 7710,
      "house": 7711,
      "Ġcompression": 7712,
      "Ġsole": 7713,
      "Ġwhenever": 7714,
      "Search": 7715,
      "ften": 7716,
      "ESS": 7717,
      "also": 7718,
      "'.": 7719,
      "erring": 7720,
      "ĠCour": 7721,
      "Ġdestroy": 7722,
      "itative": 7723,
      "plain": 7724,
      "Ġtrain": 7725,
      "Ġorganized": 7726,
      "Ġlatter": 7727,
      "Ġtelephone": 7728,
      "Ġsust": 7729,
      "æ¤ľåĩº": 7730,
      "RS": 7731,
      "igu": 7732,
      "mathrm": 7733,
      "ĠUp": 7734,
      "Finally": 7735,
      "Ġsensors": 7736,
      "ĠKnowledge": 7737,
      ")=": 7738,
      "netes": 7739,
      "erberos": 7740,
      "Exploit": 7741,
      "Ġflows": 7742,
      "Ġunexpected": 7743,
      "Ġpool": 7744,
      "affic": 7745,
      "ubernetes": 7746,
      "Ġarriv": 7747,
      "ĠColl": 7748,
      "ĠArt": 7749,
      "Ġpurchase": 7750,
      "Ġcomplicated": 7751,
      "rier": 7752,
      "ãĤĴç": 7753,
      "ĠLat": 7754,
      "Ġphones": 7755,
      "Ġ128": 7756,
      "Ġratio": 7757,
      "Ġmath": 7758,
      "ersonal": 7759,
      "Ġcopyright": 7760,
      "mathbb": 7761,
      "Ġbelieved": 7762,
      "ĠGermany": 7763,
      "analysis": 7764,
      "Any": 7765,
      "PM": 7766,
      ">>": 7767,
      "KI": 7768,
      "ãģ«ãģ¤ãģĦãģ¦ãģ¯": 7769,
      "lean": 7770,
      "Object": 7771,
      "Comp": 7772,
      "Ġmolec": 7773,
      "-+-+": 7774,
      "ï¿½": 7775,
      "sim": 7776,
      "Ġoptional": 7777,
      "Ġmisconf": 7778,
      "Ġsuscept": 7779,
      "Ġsurveillance": 7780,
      "][": 7781,
      "Ġexecutes": 7782,
      "References": 7783,
      "ĠSupp": 7784,
      "ĠEthernet": 7785,
      "Ġmeasured": 7786,
      "ĠWang": 7787,
      "Ġdecided": 7788,
      "æľī": 7789,
      "Ġpatching": 7790,
      "Ġsimultaneously": 7791,
      "Information": 7792,
      "Ġchat": 7793,
      "ĠYes": 7794,
      "Ġscientific": 7795,
      "ĠExamples": 7796,
      "ĠVPC": 7797,
      "ĠURI": 7798,
      "Ġcertainly": 7799,
      "Ġemb": 7800,
      "Ġstatistical": 7801,
      "Ġaffecting": 7802,
      "ĠConnect": 7803,
      "Ġlen": 7804,
      "Ġtopology": 7805,
      "ecomm": 7806,
      "NN": 7807,
      "Ġgaps": 7808,
      "Ġgeneric": 7809,
      "Ġconj": 7810,
      "Ġentering": 7811,
      "Ġnil": 7812,
      "Ġchip": 7813,
      "Ġscams": 7814,
      "ulf": 7815,
      "inds": 7816,
      "CON": 7817,
      "Ġoutlined": 7818,
      "igures": 7819,
      "Ġportal": 7820,
      "ellect": 7821,
      "2016": 7822,
      "proxy": 7823,
      "ĠLim": 7824,
      "Internet": 7825,
      "Ġprogramm": 7826,
      "Ġderiv": 7827,
      "times": 7828,
      "Ġanalytics": 7829,
      "Ġcapital": 7830,
      "avigate": 7831,
      "Ġsucceed": 7832,
      "Ġfinite": 7833,
      "Ġskin": 7834,
      "ipp": 7835,
      "object": 7836,
      "ament": 7837,
      "Threat": 7838,
      "Ġoptimization": 7839,
      "Ġappeared": 7840,
      "ãģ§ãģ¯": 7841,
      "èĢ": 7842,
      "mented": 7843,
      "Ġflexible": 7844,
      "ael": 7845,
      "easures": 7846,
      "lin": 7847,
      "atever": 7848,
      "issance": 7849,
      "Ret": 7850,
      "å½": 7851,
      "Ġfoundation": 7852,
      "Ġspecialized": 7853,
      "æĮĩå®ļ": 7854,
      "Ġexperienced": 7855,
      "TR": 7856,
      "ĠCore": 7857,
      "ĠTask": 7858,
      "ĠQuestions": 7859,
      "Ġsemantic": 7860,
      "Ġeliminate": 7861,
      "ĠNon": 7862,
      "response": 7863,
      "Ġexcess": 7864,
      "Ġwww": 7865,
      "Ġscheduled": 7866,
      "ĠCWE": 7867,
      "there": 7868,
      "cap": 7869,
      "enu": 7870,
      "ĠHistory": 7871,
      "Ġtrees": 7872,
      "Ġcorrupt": 7873,
      "Ġack": 7874,
      "ĠmacOS": 7875,
      "Ġsleep": 7876,
      "Ġsoil": 7877,
      "Ġstealing": 7878,
      "ĠRules": 7879,
      "Ġquarant": 7880,
      "ĠSMB": 7881,
      "Ġflood": 7882,
      "ĠFunction": 7883,
      "Ġconsidering": 7884,
      "Ġcorrelation": 7885,
      "Ġdespite": 7886,
      "ãĤ¯ãĥĪ": 7887,
      "Ġexpose": 7888,
      "zilla": 7889,
      "Ġspear": 7890,
      "Application": 7891,
      "Ġrecipients": 7892,
      "Ġattacked": 7893,
      "ãĤ¸ãĤ§": 7894,
      "Ġoil": 7895,
      "********": 7896,
      "Ġpaid": 7897,
      "æŃ": 7898,
      "Ġbill": 7899,
      "fc": 7900,
      "Ġcatalog": 7901,
      "Ġsolid": 7902,
      "\";": 7903,
      "Ġweap": 7904,
      "Ġparam": 7905,
      "Ġuntrusted": 7906,
      "ĠPhishing": 7907,
      "Ġsuite": 7908,
      "ĠTHE": 7909,
      "ĠTel": 7910,
      "Ġacad": 7911,
      "Ġpad": 7912,
      "Ġelev": 7913,
      "Ġroad": 7914,
      "estamp": 7915,
      "Ġtransformation": 7916,
      "bytes": 7917,
      "Ġthrow": 7918,
      "roll": 7919,
      "Ġalarm": 7920,
      "Ġapparent": 7921,
      "utorial": 7922,
      "æĪĲ": 7923,
      "Ġprepare": 7924,
      "Ġstable": 7925,
      "ĠConstant": 7926,
      "KS": 7927,
      "TY": 7928,
      "ĠChange": 7929,
      "Ġsnapsh": 7930,
      "Ġce": 7931,
      "Ġdoub": 7932,
      "éł": 7933,
      "TL": 7934,
      "Ġclusters": 7935,
      "antum": 7936,
      "ĠInvestig": 7937,
      "case": 7938,
      "Ġshif": 7939,
      "Ġrelation": 7940,
      "NG": 7941,
      "})": 7942,
      "Ġther": 7943,
      "ä¿Ŀ": 7944,
      "Ġbroader": 7945,
      "çŁ": 7946,
      "Ġmagn": 7947,
      "Ġconstit": 7948,
      "Ġultimately": 7949,
      "Ġschedule": 7950,
      "odies": 7951,
      "iment": 7952,
      "Ġrecognized": 7953,
      "ĠEduc": 7954,
      "ĠLike": 7955,
      "ãĥĹãĥŃ": 7956,
      "image": 7957,
      "ĠAV": 7958,
      "Ġprem": 7959,
      "river": 7960,
      "crypt": 7961,
      "xml": 7962,
      "Ġlargely": 7963,
      "\"\\": 7964,
      "cert": 7965,
      "Ġsex": 7966,
      "ĠFoundation": 7967,
      "Ġfavor": 7968,
      "1234": 7969,
      "Ġextend": 7970,
      "la": 7971,
      "Ġoffline": 7972,
      "Ġpreval": 7973,
      "Your": 7974,
      "Ġsequences": 7975,
      "ï¬": 7976,
      "ilo": 7977,
      "Ġhence": 7978,
      "Ġconsumption": 7979,
      "Red": 7980,
      "ecycle": 7981,
      "Ġlabor": 7982,
      "During": 7983,
      "Rep": 7984,
      "cor": 7985,
      "ulates": 7986,
      "blank": 7987,
      "Ġengines": 7988,
      "Ġconnects": 7989,
      "Ġreduction": 7990,
      "ãĥ¼ãĤ·": 7991,
      "Ġhistorical": 7992,
      "Ġcolumns": 7993,
      "management": 7994,
      "ĠDoS": 7995,
      "ĠThrough": 7996,
      "inet": 7997,
      "room": 7998,
      "itivity": 7999,
      "ĠAlert": 8000,
      "Ġmodes": 8001,
      "ERS": 8002,
      ",\\": 8003,
      ".__": 8004,
      "SD": 8005,
      "pers": 8006,
      "Ġdomin": 8007,
      "Ġworkst": 8008,
      "Ġpersistence": 8009,
      "ĠFilter": 8010,
      "ĠInspector": 8011,
      "formed": 8012,
      "urrently": 8013,
      "ĠPay": 8014,
      "ĠBo": 8015,
      "ĠStatus": 8016,
      "Ġknowing": 8017,
      "driven": 8018,
      "Ġsell": 8019,
      "Ġtreated": 8020,
      "ĠMe": 8021,
      "¿½åĬł": 8022,
      "ĠFrench": 8023,
      "ĠKeep": 8024,
      "ĠPack": 8025,
      "ãģĻãģ": 8026,
      "Class": 8027,
      "dated": 8028,
      "[*": 8029,
      "ocr": 8030,
      "Ġmethodology": 8031,
      "ĠAir": 8032,
      "ĠMail": 8033,
      "ford": 8034,
      "SO": 8035,
      "ĠDark": 8036,
      "auth": 8037,
      "Ġcomputational": 8038,
      "ĠDon": 8039,
      "Ġlocally": 8040,
      "Ġfriend": 8041,
      "Ġtravers": 8042,
      "ãĤ¤ãĥ«": 8043,
      "orry": 8044,
      "Ġpropose": 8045,
      "epending": 8046,
      "igin": 8047,
      "ĠBank": 8048,
      "Ġmere": 8049,
      "Ġ\\\\": 8050,
      "Ġwanted": 8051,
      "Ġcaptured": 8052,
      "Ġauto": 8053,
      "ĠSIEM": 8054,
      "Ġjo": 8055,
      "Ġmodifying": 8056,
      "RP": 8057,
      "Ġintegrate": 8058,
      "wd": 8059,
      "Free": 8060,
      "Ġgaining": 8061,
      "Ġca": 8062,
      "ĠGroups": 8063,
      "Ġartif": 8064,
      "''": 8065,
      "Ġdefining": 8066,
      "Ġobserve": 8067,
      "ĠLogs": 8068,
      "Ġbacter": 8069,
      "Ġinterval": 8070,
      "stood": 8071,
      "cean": 8072,
      "product": 8073,
      "Ġunre": 8074,
      "Ġfolders": 8075,
      "Ġanalys": 8076,
      "åĨ": 8077,
      "Ġenhanced": 8078,
      "ĠLLMs": 8079,
      "ellectual": 8080,
      "top": 8081,
      "£½": 8082,
      "Ġãģ®": 8083,
      "ĠJun": 8084,
      "omin": 8085,
      "Ġautomate": 8086,
      "Ġengineers": 8087,
      "ĠLoad": 8088,
      "Ġgovernance": 8089,
      "Ġworms": 8090,
      "Ġmanufacturing": 8091,
      "win": 8092,
      "otic": 8093,
      "ĠAuto": 8094,
      "Cross": 8095,
      "Ġãģ«": 8096,
      "æĥħåł±": 8097,
      "ãĥ¥ãĥ¼": 8098,
      "ĠMedia": 8099,
      "Ġestablishing": 8100,
      "Ġhealthy": 8101,
      "ĠCommunications": 8102,
      "files": 8103,
      "Ġsecondary": 8104,
      "IME": 8105,
      "Ġprompts": 8106,
      "ĠLook": 8107,
      "services": 8108,
      "Ġtriggers": 8109,
      "context": 8110,
      "del": 8111,
      "Ġintroduces": 8112,
      "lor": 8113,
      "ä¾": 8114,
      "arn": 8115,
      "ĠPers": 8116,
      "Update": 8117,
      "iltr": 8118,
      "ĠWireless": 8119,
      "ĠEnvironment": 8120,
      "Google": 8121,
      "Ġgained": 8122,
      "ĠKali": 8123,
      "ought": 8124,
      "eless": 8125,
      "Ġpartner": 8126,
      "ĠCorp": 8127,
      "2022": 8128,
      "éĢģä¿¡": 8129,
      "æķ°": 8130,
      "isp": 8131,
      "ãĥ¼ãĤ·ãĥ§ãĥ³": 8132,
      "ufficient": 8133,
      "Ġpositives": 8134,
      "ĠUpd": 8135,
      "risk": 8136,
      "agon": 8137,
      "åĵ": 8138,
      "Ġspecially": 8139,
      "ãĥ¬ãĤ¹": 8140,
      "hot": 8141,
      "Ġmarked": 8142,
      "Ġmacro": 8143,
      "ãĤ»ãĤŃãĥ¥ãĥªãĥĨãĤ£ãĤ¨ãĥ¼ãĤ¸ãĤ§ãĥ³ãĥĪ": 8144,
      "ĠAssessment": 8145,
      "Ġhappened": 8146,
      "bo": 8147,
      "Ġenumer": 8148,
      "Ġprepar": 8149,
      "NAME": 8150,
      "}_{": 8151,
      "Ġisolation": 8152,
      "card": 8153,
      "format": 8154,
      "Ġearth": 8155,
      "sl": 8156,
      "ãĤ¢ãĥī": 8157,
      "ĠInterface": 8158,
      "Ġhav": 8159,
      "ceedings": 8160,
      "ester": 8161,
      "itfalls": 8162,
      "ĠHand": 8163,
      "ĠJSON": 8164,
      "Ġexit": 8165,
      "ĠBasic": 8166,
      "ĠEnable": 8167,
      "Ġbird": 8168,
      "location": 8169,
      "ican": 8170,
      "ĠCa": 8171,
      "ĠUnfortunately": 8172,
      "aby": 8173,
      "Also": 8174,
      "Ġespionage": 8175,
      "Ġrefl": 8176,
      "iented": 8177,
      "Ġunwanted": 8178,
      "Ġdepart": 8179,
      "ores": 8180,
      "Ġrelay": 8181,
      "çŁ¥": 8182,
      "ĠDenial": 8183,
      "Ġprioritize": 8184,
      "Ġconventional": 8185,
      "Ġinfiltr": 8186,
      "ibr": 8187,
      "plan": 8188,
      "Ġautonom": 8189,
      "ãĥ¡ãĥ¼ãĥ«": 8190,
      "Ġcouple": 8191,
      "MI": 8192,
      "Ġpartial": 8193,
      "everal": 8194,
      "Ġcommunities": 8195,
      "ORM": 8196,
      "Ġbranch": 8197,
      "DD": 8198,
      "ĠVulnerabilities": 8199,
      "Ġdrivers": 8200,
      "ecommun": 8201,
      "edge": 8202,
      "comes": 8203,
      "AND": 8204,
      "ãģĽ": 8205,
      "Ġlocate": 8206,
      "Ġduplic": 8207,
      "Ġban": 8208,
      "Ġinsight": 8209,
      "Ġbotnets": 8210,
      "Lear": 8211,
      "ĠAppro": 8212,
      "entralized": 8213,
      "icates": 8214,
      "Ġsuggested": 8215,
      "ãĥķãĤ£": 8216,
      "Ġsectors": 8217,
      "Ġgenerator": 8218,
      "Ġasking": 8219,
      "Ġimprovement": 8220,
      "Port": 8221,
      "Ġcalculated": 8222,
      "ĠDay": 8223,
      "Ġsupposed": 8224,
      "Po": 8225,
      "Ġfacility": 8226,
      "Ġpassing": 8227,
      "ĠEst": 8228,
      "icity": 8229,
      "urally": 8230,
      "ott": 8231,
      "/)": 8232,
      "Ġresolved": 8233,
      "nowled": 8234,
      "EA": 8235,
      "Ġdeeper": 8236,
      "Ġlegis": 8237,
      "Disc": 8238,
      "Ġworkers": 8239,
      "ĠZe": 8240,
      "ĠComputing": 8241,
      "doi": 8242,
      "method": 8243,
      "Ġsubs": 8244,
      "Ġtravel": 8245,
      "Ġ2001": 8246,
      "ham": 8247,
      "Ġarchive": 8248,
      "ĠAssociation": 8249,
      "Domain": 8250,
      "ãĤ¢ãĤ¯": 8251,
      "ĠAustralia": 8252,
      "ĠChen": 8253,
      "ĠPRO": 8254,
      "ĠBefore": 8255,
      "Ġminor": 8256,
      "ICE": 8257,
      "IPAA": 8258,
      "Ġsocket": 8259,
      "Ġpin": 8260,
      "Ġadvisory": 8261,
      "Ġhandled": 8262,
      "Ġunavailable": 8263,
      "through": 8264,
      "ĠUnion": 8265,
      "Example": 8266,
      "æĺİ": 8267,
      "Ġ{\\": 8268,
      "Ġincl": 8269,
      "Ġstrategic": 8270,
      "ĠAvoid": 8271,
      "IV": 8272,
      "Ġwarm": 8273,
      "missions": 8274,
      "Ġtamper": 8275,
      "pdf": 8276,
      "Ġjournal": 8277,
      "Ġfreed": 8278,
      "Ġbrowsing": 8279,
      "Ġcontrolling": 8280,
      "console": 8281,
      "Man": 8282,
      "phishing": 8283,
      "itories": 8284,
      "ãĤ±": 8285,
      "ĠCall": 8286,
      "ests": 8287,
      "ĠTrojans": 8288,
      "ĠLine": 8289,
      "ĠAllow": 8290,
      "ĠTM": 8291,
      "serv": 8292,
      "Ġbrand": 8293,
      "ãĤģ": 8294,
      "ĠIntrusion": 8295,
      "åĵģ": 8296,
      "Ġuniform": 8297,
      "Ġ2002": 8298,
      "prietary": 8299,
      "Ġwin": 8300,
      "secure": 8301,
      "first": 8302,
      "ensus": 8303,
      "apes": 8304,
      "èĢħ": 8305,
      "ĠIss": 8306,
      "Ġcenters": 8307,
      "ookie": 8308,
      "Ġhacked": 8309,
      "Ġclock": 8310,
      "vey": 8311,
      "ĠLast": 8312,
      "ãĥĻãĥ³ãĥĪ": 8313,
      "Model": 8314,
      "ä¸Ģ": 8315,
      "Ġing": 8316,
      "Ġproport": 8317,
      "Ġcertification": 8318,
      "Ġmaps": 8319,
      "arms": 8320,
      "ponents": 8321,
      "efficient": 8322,
      "Ġtroubleshooting": 8323,
      "ãģĪ": 8324,
      "ounds": 8325,
      "ãģķãĤĮãģ¦ãģĦ": 8326,
      "ĠTransport": 8327,
      "Ġagreement": 8328,
      "ĠResource": 8329,
      "ãģĵãģ®": 8330,
      "Ġsampl": 8331,
      "Ġviolations": 8332,
      "ĠUnlike": 8333,
      "Ġsal": 8334,
      "ulus": 8335,
      "ĠWorkload": 8336,
      "ĠZhang": 8337,
      "pring": 8338,
      "Ġeditor": 8339,
      "ĠãĤĴåıĤçħ§ãģĹãģ¦ãģıãģłãģķãģĦ": 8340,
      "\"]": 8341,
      "Ver": 8342,
      "Start": 8343,
      "ĠPortal": 8344,
      "2025": 8345,
      "ĠIM": 8346,
      "gov": 8347,
      "Ġmodeling": 8348,
      "ributing": 8349,
      "Ġredund": 8350,
      "VPN": 8351,
      "ipl": 8352,
      "TM": 8353,
      "¹ãģ¦": 8354,
      "Ġhour": 8355,
      "ĠWithout": 8356,
      "Ġnight": 8357,
      "Ġlies": 8358,
      "Ġtransferred": 8359,
      "ĠCou": 8360,
      "Ġexpressions": 8361,
      "TE": 8362,
      "ipping": 8363,
      "airs": 8364,
      "connect": 8365,
      "Ġmonitors": 8366,
      "poration": 8367,
      "FL": 8368,
      "uce": 8369,
      "UP": 8370,
      "Ġkeyboard": 8371,
      "doors": 8372,
      "Ġsearches": 8373,
      "ãģĻãģ¹ãģ¦": 8374,
      "Ġsolar": 8375,
      "Target": 8376,
      "non": 8377,
      "ameters": 8378,
      "Ġdocumented": 8379,
      "ĠPress": 8380,
      "Ġimple": 8381,
      "Ġfraudulent": 8382,
      "Ġdirected": 8383,
      "ĠAttackers": 8384,
      "Ġexcell": 8385,
      "Ġpert": 8386,
      "Ġmetric": 8387,
      "Ġbiggest": 8388,
      "Download": 8389,
      "mode": 8390,
      "Text": 8391,
      "ĠAlice": 8392,
      "valuation": 8393,
      "å¿ħ": 8394,
      "£½åĵģ": 8395,
      "Ġconvert": 8396,
      "Ġpure": 8397,
      "Ġstands": 8398,
      "1111": 8399,
      "Ġparents": 8400,
      "ĠIran": 8401,
      "status": 8402,
      "Ġtips": 8403,
      "ĠForm": 8404,
      "Ġcorruption": 8405,
      "ãĤ¤ãĥĻãĥ³ãĥĪ": 8406,
      "Ġcooper": 8407,
      "Ġresistance": 8408,
      "true": 8409,
      "gence": 8410,
      "usr": 8411,
      "2024": 8412,
      "Ġinjected": 8413,
      "Ġanywhere": 8414,
      "ĠEU": 8415,
      "Ġdependent": 8416,
      "ensing": 8417,
      "Ġkeyword": 8418,
      "2015": 8419,
      "Ġvehicle": 8420,
      "Program": 8421,
      "nergy": 8422,
      "Ġskill": 8423,
      "Ġpreced": 8424,
      "aur": 8425,
      "zero": 8426,
      "())": 8427,
      "Ġunnecessary": 8428,
      "Ġextracted": 8429,
      "ABLE": 8430,
      "Ġbehavioral": 8431,
      "ĠCard": 8432,
      "protected": 8433,
      "ĠXP": 8434,
      "Ġmanagers": 8435,
      "ĠAdobe": 8436,
      "ãĤ¢ãĥīãĥ¬ãĤ¹": 8437,
      "ĠICS": 8438,
      "Us": 8439,
      "ris": 8440,
      "Ŀ¢": 8441,
      "Ġcat": 8442,
      "ĠGod": 8443,
      "ãģ§ãģĻ": 8444,
      "Em": 8445,
      "Ġcircumstances": 8446,
      "ãģĮè¡¨ç¤ºãģķãĤĮãģ¾ãģĻ": 8447,
      "Ġalle": 8448,
      "after": 8449,
      "power": 8450,
      "Ġ365": 8451,
      "blem": 8452,
      "uro": 8453,
      "ĠDNA": 8454,
      "ĠMich": 8455,
      "Ġpul": 8456,
      "Ġalgebra": 8457,
      "Ġjava": 8458,
      "Ġlegacy": 8459,
      "ĠDM": 8460,
      "ĠValid": 8461,
      "phones": 8462,
      "alpha": 8463,
      "Ġconducting": 8464,
      "Ġdemonstrates": 8465,
      "joy": 8466,
      "æī": 8467,
      "cos": 8468,
      "Av": 8469,
      "ĠThreats": 8470,
      "Ġmeeting": 8471,
      "Ġopin": 8472,
      "isher": 8473,
      "Ġhon": 8474,
      "ĠOK": 8475,
      "Ġscores": 8476,
      "ico": 8477,
      "Ġpresentation": 8478,
      "Ġmanufacturers": 8479,
      "ĠRegistry": 8480,
      "Ġpercentage": 8481,
      "000000": 8482,
      "redict": 8483,
      "tee": 8484,
      "Ġunauthenticated": 8485,
      "Ġscam": 8486,
      "Ġliterature": 8487,
      "mathbf": 8488,
      "Ġfun": 8489,
      "Ġemergency": 8490,
      "ĠHar": 8491,
      "krain": 8492,
      "Ġestimate": 8493,
      "naissance": 8494,
      "onic": 8495,
      "Ġintegral": 8496,
      "Ġpush": 8497,
      "Ġinj": 8498,
      "ĠKubernetes": 8499,
      "Ġmor": 8500,
      "å¤ī": 8501,
      "State": 8502,
      "æĸ°": 8503,
      "PH": 8504,
      "Ġpsych": 8505,
      "Ġgran": 8506,
      "ĠShare": 8507,
      "Ġmotion": 8508,
      "ĠIPS": 8509,
      "Ġdump": 8510,
      "Ġhashing": 8511,
      "Ġresponsibilities": 8512,
      "Ġmodifications": 8513,
      "Ġmeasurement": 8514,
      "Ġcitizens": 8515,
      "Ġovers": 8516,
      "Ġlimiting": 8517,
      "ãģķãĤĮãĤĭ": 8518,
      "ĠPeople": 8519,
      "Password": 8520,
      "CL": 8521,
      "æľŁ": 8522,
      "ora": 8523,
      "ĠSite": 8524,
      "atas": 8525,
      "Ġadvice": 8526,
      "ĠEnter": 8527,
      "ĠUSA": 8528,
      "Ġviolation": 8529,
      "Ġfarm": 8530,
      "icial": 8531,
      "ãĥĩãĥ¼ãĤ¿": 8532,
      "Ġoverl": 8533,
      "aid": 8534,
      "Ġdistinguish": 8535,
      "lines": 8536,
      "untu": 8537,
      "Ġproxies": 8538,
      "Ġ||": 8539,
      "ĠAction": 8540,
      "Ġdecrypted": 8541,
      "emy": 8542,
      "Ġcamera": 8543,
      "Ġ70": 8544,
      "ãĤ·ãĥ§ãĥ³": 8545,
      "ĠCH": 8546,
      "ĠGraph": 8547,
      "Ġsearching": 8548,
      "Ġoppos": 8549,
      "Ġfocusing": 8550,
      "æĽ´": 8551,
      "Ġconsideration": 8552,
      "ĠBi": 8553,
      "ĠGitHub": 8554,
      "Ġfuzz": 8555,
      "ĠPath": 8556,
      "Ġoffset": 8557,
      "ĠTitle": 8558,
      "128": 8559,
      "ĠMathemat": 8560,
      "Ġsimulation": 8561,
      "Ġ~": 8562,
      "ifiers": 8563,
      "ä½ľ": 8564,
      "Ġexplanation": 8565,
      "appro": 8566,
      "ummary": 8567,
      "ãĥ«ãĥ¼ãĥ«": 8568,
      "Ġheight": 8569,
      "gricult": 8570,
      "Ġplays": 8571,
      "Ġhydro": 8572,
      "ĠOpt": 8573,
      "ĠPCI": 8574,
      "Load": 8575,
      "Ġevade": 8576,
      "Client": 8577,
      "Ġaimed": 8578,
      "Further": 8579,
      "EG": 8580,
      "Ġinspect": 8581,
      "Ġreaction": 8582,
      "True": 8583,
      "irms": 8584,
      "iling": 8585,
      "Linux": 8586,
      "document": 8587,
      "amless": 8588,
      "ench": 8589,
      "Ġsmooth": 8590,
      "Ġexpressed": 8591,
      "Ġvacc": 8592,
      "pons": 8593,
      "Ġintrud": 8594,
      "lt": 8595,
      "ensed": 8596,
      "Ġusual": 8597,
      "Ġnavigation": 8598,
      "ĠHat": 8599,
      "ãģĮãģĤ": 8600,
      "Ġwire": 8601,
      "Ġagree": 8602,
      "Ġseason": 8603,
      "SY": 8604,
      "Ġstronger": 8605,
      "points": 8606,
      "ugin": 8607,
      "oked": 8608,
      "ĠToday": 8609,
      "ãĥĩãĥ¼ãĥĪ": 8610,
      "Bot": 8611,
      "Ġdistributions": 8612,
      "KEY": 8613,
      "å¿ħè¦ģ": 8614,
      "hetic": 8615,
      "ikip": 8616,
      "Ġclar": 8617,
      "ĠPol": 8618,
      "Ġencrypts": 8619,
      "Computer": 8620,
      "çĶ»é": 8621,
      "Ġdoll": 8622,
      "}(": 8623,
      "isition": 8624,
      "çĶ»éĿ¢": 8625,
      "docs": 8626,
      "Ġindependently": 8627,
      "ĠIndian": 8628,
      "erra": 8629,
      "ĠTele": 8630,
      "Ġdifferential": 8631,
      "Vulnerability": 8632,
      "ĠPal": 8633,
      "servation": 8634,
      "Ġoccurre": 8635,
      "Ġpasses": 8636,
      "ĠNews": 8637,
      "FO": 8638,
      "Implement": 8639,
      "ãĥĵãĤ¹": 8640,
      "Ġclaimed": 8641,
      "metry": 8642,
      "Ġinvestment": 8643,
      "Ġreveals": 8644,
      "dem": 8645,
      "Ġnone": 8646,
      "orem": 8647,
      "ãĥ³ãĤ¹": 8648,
      "Ġrealm": 8649,
      "Platform": 8650,
      "ĠICMP": 8651,
      "ashington": 8652,
      "ĠLeg": 8653,
      "ĠCIS": 8654,
      "Ġunint": 8655,
      "ãĤµãĥ¼ãĥĵãĤ¹": 8656,
      "ãĥ©ãĤ¤ãĤ¢": 8657,
      "Ġassumption": 8658,
      "Ġviewed": 8659,
      "Ġarise": 8660,
      "Ġ256": 8661,
      "cf": 8662,
      "ĠMemory": 8663,
      "Ġartificial": 8664,
      "sin": 8665,
      "Â®": 8666,
      "ĻĤ": 8667,
      "Ġdifficulty": 8668,
      "middle": 8669,
      "ĊĊĠĠ": 8670,
      "Ġperp": 8671,
      "Block": 8672,
      "module": 8673,
      "/.": 8674,
      "Ġconsent": 8675,
      "ikipedia": 8676,
      "Ġvision": 8677,
      "ĠIDs": 8678,
      "empor": 8679,
      "ostic": 8680,
      "Ġcloser": 8681,
      "ĊĠĠĠĠĠĠ": 8682,
      "pm": 8683,
      "Ġrenew": 8684,
      "ĠBar": 8685,
      "ĠPage": 8686,
      "Ġsanit": 8687,
      "Ġassistance": 8688,
      "array": 8689,
      "ĠDES": 8690,
      "Ġexpans": 8691,
      "ãĤ»ãĤ¹": 8692,
      "Ġsusceptible": 8693,
      "æĹ": 8694,
      "Ġsaying": 8695,
      "Ġinstitution": 8696,
      "AML": 8697,
      "Ġforwarding": 8698,
      "Ġcompatible": 8699,
      "Ġvig": 8700,
      "common": 8701,
      "ĠLock": 8702,
      "Ġreboot": 8703,
      "ĠDifferent": 8704,
      "Ġethical": 8705,
      "dir": 8706,
      "ĠWPA": 8707,
      "global": 8708,
      "è©³ç´°ãģ«ãģ¤ãģĦãģ¦ãģ¯": 8709,
      "Ġreaders": 8710,
      "ĠCong": 8711,
      "Ġinsurance": 8712,
      "Ġreasonable": 8713,
      "Ġdim": 8714,
      "Ġindicated": 8715,
      "Ġneural": 8716,
      "ĠPatch": 8717,
      "formity": 8718,
      ".]": 8719,
      "Ġposted": 8720,
      "ĠRAM": 8721,
      "BL": 8722,
      "ĠRad": 8723,
      "Ġphen": 8724,
      "002": 8725,
      "Ġkill": 8726,
      "PL": 8727,
      "`.": 8728,
      "Ġmultip": 8729,
      "Ġimproper": 8730,
      "shell": 8731,
      "Ġ35": 8732,
      "Ġrespective": 8733,
      "Ġqueue": 8734,
      "Ġdropped": 8735,
      "Description": 8736,
      "enty": 8737,
      "Ġtit": 8738,
      "Ġemot": 8739,
      "Ġsuspect": 8740,
      "ĠBuild": 8741,
      "Ġhosp": 8742,
      "Ġconference": 8743,
      "ticle": 8744,
      "Ġfeet": 8745,
      "Ġboundaries": 8746,
      "Ġposts": 8747,
      "éģ¸æĬŀãģĹãģ¾ãģĻ": 8748,
      "Ġtouch": 8749,
      "Ġacceptable": 8750,
      "Ġproprietary": 8751,
      "Ġpull": 8752,
      "ĠFROM": 8753,
      "xi": 8754,
      "Ġseeing": 8755,
      "lambda": 8756,
      "comput": 8757,
      "Ġcontribute": 8758,
      "ĠCISA": 8759,
      "ĠCopyright": 8760,
      "Ġunlock": 8761,
      "ĠSwit": 8762,
      "ideos": 8763,
      "ĠSan": 8764,
      "ĠDC": 8765,
      "ĠFull": 8766,
      "Ġabstract": 8767,
      "Ġends": 8768,
      "ĠSafe": 8769,
      "venue": 8770,
      "Ġfraction": 8771,
      "tage": 8772,
      "ĠImage": 8773,
      "2012": 8774,
      "________________________________": 8775,
      "ĠTO": 8776,
      "VD": 8777,
      "ĠAsia": 8778,
      "Ġintegers": 8779,
      "encing": 8780,
      "liances": 8781,
      "proper": 8782,
      "ĠTransfer": 8783,
      "debug": 8784,
      "ncil": 8785,
      "Ġcompiled": 8786,
      "cdot": 8787,
      "Ġlabels": 8788,
      "ART": 8789,
      "Ġgat": 8790,
      "Ġdistribute": 8791,
      "Ġbridge": 8792,
      "Ġrelying": 8793,
      "Ġacid": 8794,
      "ĊĊĠĠĠĠĠĠĠĠĠĠĠ": 8795,
      "ĠHuman": 8796,
      "Ġmanif": 8797,
      "çĽ": 8798,
      "Ġcable": 8799,
      "Ġtech": 8800,
      "Ġfem": 8801,
      "ploys": 8802,
      "Ġrepeat": 8803,
      "istrict": 8804,
      "Ġangle": 8805,
      "berg": 8806,
      "Ġstraightforward": 8807,
      "ĠReputation": 8808,
      "ãģĿ": 8809,
      "Can": 8810,
      "Ġunderstood": 8811,
      "Ġhex": 8812,
      "Ġeg": 8813,
      "ĠDel": 8814,
      "Ġcompromising": 8815,
      "login": 8816,
      "Ġindeed": 8817,
      "ĠDavid": 8818,
      "Process": 8819,
      "-\\": 8820,
      "Ġplane": 8821,
      "Section": 8822,
      "Ġgave": 8823,
      "anish": 8824,
      "Ġplus": 8825,
      "Hz": 8826,
      "Ġinsufficient": 8827,
      "ĠPass": 8828,
      "ĠStore": 8829,
      "Ġpassive": 8830,
      "outer": 8831,
      "Ġgateways": 8832,
      "project": 8833,
      "ĠFBI": 8834,
      "fully": 8835,
      "Ġring": 8836,
      "acent": 8837,
      "ATH": 8838,
      "Ġperiods": 8839,
      "Ġnuclear": 8840,
      "js": 8841,
      "theta": 8842,
      "[\"": 8843,
      "`,": 8844,
      "posed": 8845,
      "Ġrig": 8846,
      "ãģªãģĦ": 8847,
      "eras": 8848,
      "Ġbatter": 8849,
      "Response": 8850,
      "Ġprotections": 8851,
      "Fr": 8852,
      "ĠPIN": 8853,
      "Ġsubmitted": 8854,
      "Direct": 8855,
      "Ġtransparent": 8856,
      "åĩ¦": 8857,
      "Ġodd": 8858,
      "Ġmagnetic": 8859,
      "ĠRetrie": 8860,
      "Ġsenior": 8861,
      "](../": 8862,
      "Ġwhit": 8863,
      "Related": 8864,
      "ĠStrateg": 8865,
      "UST": 8866,
      "Oper": 8867,
      "ĠFig": 8868,
      "Ġflags": 8869,
      "Ġcommunicating": 8870,
      "Ġoccup": 8871,
      "Ġfunds": 8872,
      "Ġschools": 8873,
      "Ġda": 8874,
      "ĠDoes": 8875,
      "ĠAns": 8876,
      "å¼": 8877,
      "Ġdensity": 8878,
      "Ġdemands": 8879,
      "dict": 8880,
      "gers": 8881,
      "random": 8882,
      "ãĤĵ": 8883,
      "ĠUkrain": 8884,
      "Ġcandidate": 8885,
      "allet": 8886,
      "Ġserved": 8887,
      "Even": 8888,
      "Ġreads": 8889,
      "Ġresilience": 8890,
      "Then": 8891,
      "tainer": 8892,
      "ãĤ¢ãĥĥãĥĹãĥĩãĥ¼ãĥĪ": 8893,
      "Ġcool": 8894,
      "Ġsegments": 8895,
      "Ġterror": 8896,
      "Ġunf": 8897,
      "ĠMalicious": 8898,
      "Method": 8899,
      "etime": 8900,
      "Exec": 8901,
      "Ġassumed": 8902,
      "ï¬ģ": 8903,
      "cut": 8904,
      "Ġdependencies": 8905,
      "stat": 8906,
      "ĠCommission": 8907,
      "ĠAN": 8908,
      "Ġdigest": 8909,
      "ĠMITRE": 8910,
      "Ġseamless": 8911,
      "Ġintellectual": 8912,
      "Guard": 8913,
      "Ġfewer": 8914,
      "Ġwatermark": 8915,
      "ĠARP": 8916,
      "ĠNSA": 8917,
      "ĠPark": 8918,
      "ĠDLP": 8919,
      "Ġproductivity": 8920,
      "ĠBur": 8921,
      "ĠGen": 8922,
      "ĠChoose": 8923,
      "mt": 8924,
      "rout": 8925,
      "ĠDetails": 8926,
      "Ġparad": 8927,
      "Ġnegot": 8928,
      "Ġoutbound": 8929,
      "ĠLabs": 8930,
      "metic": 8931,
      "rip": 8932,
      "ĠItal": 8933,
      "Ġclassical": 8934,
      "Ġconflict": 8935,
      "ny": 8936,
      "Ġlets": 8937,
      "Ġlosses": 8938,
      "ĠSimilarly": 8939,
      "ĠHis": 8940,
      "Ġsubstantial": 8941,
      "Ġtiming": 8942,
      "Ġsea": 8943,
      "Ġturns": 8944,
      "uan": 8945,
      "ĠOperations": 8946,
      "Ġrock": 8947,
      "ĠKerberos": 8948,
      "Ġallocated": 8949,
      "Ġconce": 8950,
      "Ġinher": 8951,
      "Ġimprovements": 8952,
      "Box": 8953,
      "ĠWhere": 8954,
      "Ġworkloads": 8955,
      "ORT": 8956,
      "ĠRob": 8957,
      "well": 8958,
      "SL": 8959,
      "ãĥ¼ãĤ¯": 8960,
      "elligent": 8961,
      "account": 8962,
      "blog": 8963,
      "Ġwhatever": 8964,
      "ĠOrganization": 8965,
      "Ġease": 8966,
      "enabled": 8967,
      "mm": 8968,
      "chestr": 8969,
      "Ġprohib": 8970,
      "align": 8971,
      "ãĥįãĥĥãĥĪ": 8972,
      "ç¶": 8973,
      "ĠMax": 8974,
      "ometry": 8975,
      "Eng": 8976,
      "och": 8977,
      "Ġinvestigations": 8978,
      "ãĤ¤ãĥ«ãĤ¹": 8979,
      "]:": 8980,
      "aul": 8981,
      "ĠLambda": 8982,
      "Ġblind": 8983,
      "Ġimper": 8984,
      "Ġspecifications": 8985,
      "ãĤ¦ãĤ¤ãĥ«ãĤ¹": 8986,
      "Ġrating": 8987,
      "Ġspecifying": 8988,
      "ĠCompany": 8989,
      "payload": 8990,
      "Ġrecommends": 8991,
      "Ġrepresenting": 8992,
      "life": 8993,
      "ĠHelp": 8994,
      "agr": 8995,
      "ĠBook": 8996,
      "Ġpredefined": 8997,
      "Ġroutes": 8998,
      "Hel": 8999,
      "critical": 9000,
      "Ġcombinations": 9001,
      "ãĤ«ãĤ¦": 9002,
      "loss": 9003,
      "Ġfresh": 9004,
      "ĠLibrary": 9005,
      "izer": 9006,
      "sequently": 9007,
      "ĠGuard": 9008,
      "Ġanomalies": 9009,
      "Ġfairly": 9010,
      "Ġdictionary": 9011,
      "Ġgathering": 9012,
      "Ġscanned": 9013,
      "åĩ¦çĲĨ": 9014,
      "emp": 9015,
      "ĠForce": 9016,
      "Ġstrongly": 9017,
      "æľīåĬ¹": 9018,
      "imum": 9019,
      "Context": 9020,
      "ĠRFID": 9021,
      "ãĤ«ãĤ¦ãĥ³ãĥĪ": 9022,
      "Ke": 9023,
      "options": 9024,
      "ĠPrinc": 9025,
      "Ġstar": 9026,
      "onds": 9027,
      "Ġprincipal": 9028,
      "real": 9029,
      "escribe": 9030,
      "Anal": 9031,
      "ĠPM": 9032,
      "Ġ<=": 9033,
      "command": 9034,
      "adr": 9035,
      "osh": 9036,
      "support": 9037,
      "ĠSched": 9038,
      "ponential": 9039,
      "Ġfrequent": 9040,
      "Ġfear": 9041,
      "©Ł": 9042,
      "Ġads": 9043,
      "ĠPresident": 9044,
      "Link": 9045,
      "Ġspan": 9046,
      "aks": 9047,
      "umn": 9048,
      "Ġgreatly": 9049,
      "args": 9050,
      "instance": 9051,
      "param": 9052,
      "ĠFail": 9053,
      "long": 9054,
      "istor": 9055,
      "Ġconsistently": 9056,
      "Ġleaked": 9057,
      "Ġdisruption": 9058,
      "ĠMultiple": 9059,
      "Ġconsiderations": 9060,
      "Ġhandles": 9061,
      "Ġfixes": 9062,
      "è¿½åĬł": 9063,
      "Ġrelig": 9064,
      "ashes": 9065,
      "Ġdeployments": 9066,
      "AGE": 9067,
      "Ġheavily": 9068,
      "bur": 9069,
      "ync": 9070,
      "ailability": 9071,
      "Ġstrugg": 9072,
      "Ġrandomly": 9073,
      "orphic": 9074,
      "rad": 9075,
      "Ġsales": 9076,
      "high": 9077,
      "Ġinitiate": 9078,
      "ĠMal": 9079,
      "Ġinteractive": 9080,
      "None": 9081,
      "Ġharvest": 9082,
      "Ġreser": 9083,
      "Ġatm": 9084,
      "Ġspectrum": 9085,
      "Ġgranular": 9086,
      "SN": 9087,
      "ĠVisual": 9088,
      "Ġsides": 9089,
      "Ġsatell": 9090,
      "Ġdetections": 9091,
      "rey": 9092,
      "Ġfish": 9093,
      "stack": 9094,
      "util": 9095,
      "ĠAff": 9096,
      "dimensional": 9097,
      "Ġenjoy": 9098,
      "PRO": 9099,
      "Ġattempted": 9100,
      "Pass": 9101,
      "versaries": 9102,
      "ĠHash": 9103,
      "ĠCap": 9104,
      "Ġdisaster": 9105,
      "Ġframes": 9106,
      "IND": 9107,
      "Ġseparated": 9108,
      "GB": 9109,
      "Ġrobustness": 9110,
      "Ġtransit": 9111,
      "Ġstealth": 9112,
      "ĠText": 9113,
      "redentials": 9114,
      "ãĤ¦ãĤ§": 9115,
      "ãĥĵãĥ¥ãĥ¼": 9116,
      "ĠTraffic": 9117,
      "Ġexcellent": 9118,
      "Ġphysically": 9119,
      "Ġcorrespond": 9120,
      "ĠPenetration": 9121,
      "Ġcompressed": 9122,
      "Ġfinds": 9123,
      "ãģĻãĤĭãģ«ãģ¯": 9124,
      "Ġreserved": 9125,
      "Fl": 9126,
      "bi": 9127,
      "Ġranges": 9128,
      "SELECT": 9129,
      "Ġvirt": 9130,
      "ĠWashington": 9131,
      "Ġverifying": 9132,
      "Col": 9133,
      "ĠHence": 9134,
      "ki": 9135,
      "Ġpermit": 9136,
      "iquid": 9137,
      "Ext": 9138,
      "Ġdynamically": 9139,
      "Ġstock": 9140,
      "ĠWell": 9141,
      "Ġreviews": 9142,
      "utive": 9143,
      "rele": 9144,
      "Ġdesignated": 9145,
      "Ġcombat": 9146,
      "Software": 9147,
      "Ġrefere": 9148,
      "uxnet": 9149,
      "pecified": 9150,
      "OK": 9151,
      "Ġlooked": 9152,
      "Ġhappening": 9153,
      "ĠHu": 9154,
      "ãĥ¡ãĥĥ": 9155,
      "ĠIdentify": 9156,
      "ortion": 9157,
      "Ġnu": 9158,
      "Ġmathematics": 9159,
      "Custom": 9160,
      "Ġelectrical": 9161,
      "ĠSEC": 9162,
      "Ġcomply": 9163,
      "Ġcustomized": 9164,
      "Ġfat": 9165,
      "ĠHIPAA": 9166,
      "Ġstudied": 9167,
      "ãĥ¡ãĥĥãĤ»": 9168,
      "your": 9169,
      "Ġcoupl": 9170,
      "Ġhole": 9171,
      "Ġtells": 9172,
      "Ġpreferred": 9173,
      "Ġforced": 9174,
      "éĢļçŁ¥": 9175,
      "CV": 9176,
      "inking": 9177,
[...]
