{
  "version": "1.0",
  "truncation": null,
  "padding": null,
  "added_tokens": [
    {
      "id": 0,
      "content": "<|ghost_bos|>",
      "single_word": false,
      "lstrip": false,
      "rstrip": false,
      "normalized": false,
      "special": true
    },
    {
      "id": 1,
      "content": "<|ghost_eos|>",
      "single_word": false,
      "lstrip": false,
      "rstrip": false,
      "normalized": false,
      "special": true
    },
    {
      "id": 2,
      "content": "<|ghost_pad|>",
      "single_word": false,
      "lstrip": false,
      "rstrip": false,
      "normalized": false,
      "special": true
    },
    {
      "id": 3,
      "content": "<|ghost_unk|>",
      "single_word": false,
      "lstrip": false,
      "rstrip": false,
      "normalized": false,
      "special": true
    },
    {
      "id": 4,
      "content": "<|ghost_user|>",
      "single_word": false,
      "lstrip": false,
      "rstrip": false,
      "normalized": false,
      "special": true
    },
    {
      "id": 5,
      "content": "<|ghost_assistant|>",
      "single_word": false,
      "lstrip": false,
      "rstrip": false,
      "normalized": false,
      "special": true
    },
    {
      "id": 6,
      "content": "<|ghost_end|>",
      "single_word": false,
      "lstrip": false,
      "rstrip": false,
      "normalized": false,
      "special": true
    }
  ],
  "normalizer": null,
  "pre_tokenizer": {
    "type": "ByteLevel",
    "add_prefix_space": false,
    "trim_offsets": true,
    "use_regex": true
  },
  "post_processor": {
    "type": "ByteLevel",
    "add_prefix_space": true,
    "trim_offsets": false,
    "use_regex": true
  },
  "decoder": {
    "type": "ByteLevel",
    "add_prefix_space": true,
    "trim_offsets": true,
    "use_regex": true
  },
  "model": {
    "type": "BPE",
    "dropout": null,
    "unk_token": "<|ghost_unk|>",
    "continuing_subword_prefix": null,
    "end_of_word_suffix": null,
    "fuse_unk": false,
    "byte_fallback": false,
    "ignore_merges": false,
    "vocab": {
      "<|ghost_bos|>": 0,
      "<|ghost_eos|>": 1,
      "<|ghost_pad|>": 2,
      "<|ghost_unk|>": 3,
      "<|ghost_user|>": 4,
      "<|ghost_assistant|>": 5,
      "<|ghost_end|>": 6,
      "!": 7,
      "\"": 8,
      "#": 9,
      "$": 10,
      "%": 11,
      "&": 12,
      "'": 13,
      "(": 14,
      ")": 15,
      "*": 16,
      "+": 17,
      ",": 18,
      "-": 19,
      ".": 20,
      "/": 21,
      "0": 22,
      "1": 23,
      "2": 24,
      "3": 25,
      "4": 26,
      "5": 27,
      "6": 28,
      "7": 29,
      "8": 30,
      "9": 31,
      ":": 32,
      ";": 33,
      "<": 34,
      "=": 35,
      ">": 36,
      "?": 37,
      "@": 38,
      "A": 39,
      "B": 40,
      "C": 41,
      "D": 42,
      "E": 43,
      "F": 44,
      "G": 45,
      "H": 46,
      "I": 47,
      "J": 48,
      "K": 49,
      "L": 50,
      "M": 51,
      "N": 52,
      "O": 53,
      "P": 54,
      "Q": 55,
      "R": 56,
      "S": 57,
      "T": 58,
      "U": 59,
      "V": 60,
      "W": 61,
      "X": 62,
      "Y": 63,
      "Z": 64,
      "[": 65,
      "\\": 66,
      "]": 67,
      "^": 68,
      "_": 69,
      "`": 70,
      "a": 71,
      "b": 72,
      "c": 73,
      "d": 74,
      "e": 75,
      "f": 76,
      "g": 77,
      "h": 78,
      "i": 79,
      "j": 80,
      "k": 81,
      "l": 82,
      "m": 83,
      "n": 84,
      "o": 85,
      "p": 86,
      "q": 87,
      "r": 88,
      "s": 89,
      "t": 90,
      "u": 91,
      "v": 92,
      "w": 93,
      "x": 94,
      "y": 95,
      "z": 96,
      "{": 97,
      "|": 98,
      "}": 99,
      "~": 100,
      "¡": 101,
      "¢": 102,
      "£": 103,
      "¤": 104,
      "¥": 105,
      "¦": 106,
      "§": 107,
      "¨": 108,
      "©": 109,
      "ª": 110,
      "«": 111,
      "¬": 112,
      "®": 113,
      "¯": 114,
      "°": 115,
      "±": 116,
      "²": 117,
      "³": 118,
      "´": 119,
      "µ": 120,
      "¶": 121,
      "·": 122,
      "¸": 123,
      "¹": 124,
      "º": 125,
      "»": 126,
      "¼": 127,
      "½": 128,
      "¾": 129,
      "¿": 130,
      "À": 131,
      "Á": 132,
      "Â": 133,
      "Ã": 134,
      "Ä": 135,
      "Å": 136,
      "Æ": 137,
      "Ç": 138,
      "È": 139,
      "É": 140,
      "Ê": 141,
      "Ë": 142,
      "Ì": 143,
      "Í": 144,
      "Î": 145,
      "Ï": 146,
      "Ð": 147,
      "Ñ": 148,
      "Ò": 149,
      "Ó": 150,
      "Ô": 151,
      "Õ": 152,
      "Ö": 153,
      "×": 154,
      "Ø": 155,
      "Ù": 156,
      "Ú": 157,
      "Û": 158,
      "Ü": 159,
      "Ý": 160,
      "Þ": 161,
      "ß": 162,
      "à": 163,
      "á": 164,
      "â": 165,
      "ã": 166,
      "ä": 167,
      "å": 168,
      "æ": 169,
      "ç": 170,
      "è": 171,
      "é": 172,
      "ê": 173,
      "ë": 174,
      "ì": 175,
      "í": 176,
      "î": 177,
      "ï": 178,
      "ð": 179,
      "ñ": 180,
      "ò": 181,
      "ó": 182,
      "ô": 183,
      "õ": 184,
      "ö": 185,
      "÷": 186,
      "ø": 187,
      "ù": 188,
      "ú": 189,
      "û": 190,
      "ü": 191,
      "ý": 192,
      "þ": 193,
      "ÿ": 194,
      "Ā": 195,
      "ā": 196,
      "Ă": 197,
      "ă": 198,
      "Ą": 199,
      "ą": 200,
      "Ć": 201,
      "ć": 202,
      "Ĉ": 203,
      "ĉ": 204,
      "Ċ": 205,
      "ċ": 206,
      "Č": 207,
      "č": 208,
      "Ď": 209,
      "ď": 210,
      "Đ": 211,
      "đ": 212,
      "Ē": 213,
      "ē": 214,
      "Ĕ": 215,
      "ĕ": 216,
      "Ė": 217,
      "ė": 218,
      "Ę": 219,
      "ę": 220,
      "Ě": 221,
      "ě": 222,
      "Ĝ": 223,
      "ĝ": 224,
      "Ğ": 225,
      "ğ": 226,
      "Ġ": 227,
      "ġ": 228,
      "Ģ": 229,
      "ģ": 230,
      "Ĥ": 231,
      "ĥ": 232,
      "Ħ": 233,
      "ħ": 234,
      "Ĩ": 235,
      "ĩ": 236,
      "Ī": 237,
      "ī": 238,
      "Ĭ": 239,
      "ĭ": 240,
      "Į": 241,
      "į": 242,
      "İ": 243,
      "ı": 244,
      "Ĳ": 245,
      "ĳ": 246,
      "Ĵ": 247,
      "ĵ": 248,
      "Ķ": 249,
      "ķ": 250,
      "ĸ": 251,
      "Ĺ": 252,
      "ĺ": 253,
      "Ļ": 254,
      "ļ": 255,
      "Ľ": 256,
      "ľ": 257,
      "Ŀ": 258,
      "ŀ": 259,
      "Ł": 260,
      "ł": 261,
      "Ń": 262,
      "Ġa": 263,
      "in": 264,
      "er": 265,
      "Ġt": 266,
      "on": 267,
      "re": 268,
      "ti": 269,
      "he": 270,
      "en": 271,
      "or": 272,
      "te": 273,
      "Ġc": 274,
      "Ġs": 275,
      "is": 276,
      "Ġthe": 277,
      "es": 278,
      "it": 279,
      "al": 280,
      "tion": 281,
      "Ġin": 282,
      "Ġp": 283,
      "ing": 284,
      "nd": 285,
      "le": 286,
      "ro": 287,
      "Ġf": 288,
      "ta": 289,
      "Ġo": 290,
      "ra": 291,
      "Ġto": 292,
      "Ġd": 293,
      "Ġb": 294,
      "ed": 295,
      "Ġw": 296,
      "ec": 297,
      "lo": 298,
      "ic": 299,
      "Ġv": 300,
      "Ġre": 301,
      "Ġm": 302,
      "an": 303,
      "Ġand": 304,
      "us": 305,
      "ul": 306,
      "ar": 307,
      "00": 308,
      "Ġe": 309,
      "as": 310,
      "il": 311,
      "at": 312,
      "ent": 313,
      "Ġof": 314,
      "ation": 315,
      "ĠS": 316,
      "ck": 317,
      "et": 318,
      "ers": 319,
      "ab": 320,
      "Ġ(": 321,
      "Ġth": 322,
      "ri": 323,
      "om": 324,
      "ĠT": 325,
      "ity": 326,
      "ut": 327,
      "ted": 328,
      "ĠA": 329,
      "de": 330,
      "ĠC": 331,
      "Ġis": 332,
      "ly": 333,
      "un": 334,
      "Ġn": 335,
      "ce": 336,
      "ur": 337,
      "Ġal": 338,
      "Ġex": 339,
      "Ġat": 340,
      "ve": 341,
      "si": 342,
      "Ġ1": 343,
      "ff": 344,
      "Ġbe": 345,
      "low": 346,
      "tack": 347,
      "Ġh": 348,
      "ch": 349,
      "Ġcon": 350,
      "ct": 351,
      "ge": 352,
      "ad": 353,
      "ver": 354,
      "ner": 355,
      "abil": 356,
      "ĠI": 357,
      "st": 358,
      "Ġfor": 359,
      "ulner": 360,
      "ĠP": 361,
      "ith": 362,
      "Ġattack": 363,
      "im": 364,
      "Ġus": 365,
      "ig": 366,
      "id": 367,
      "ess": 368,
      "20": 369,
      "Ġpro": 370,
      "ability": 371,
      "ol": 372,
      "Ġan": 373,
      "Ġvulner": 374,
      "ode": 375,
      "ate": 376,
      "ore": 377,
      "ter": 378,
      "qu": 379,
      "ĠM": 380,
      "Ġon": 381,
      "ot": 382,
      "Ġl": 383,
      "Ġwith": 384,
      "ts": 385,
      "--": 386,
      "tic": 387,
      "ction": 388,
      "ss": 389,
      "am": 390,
      "Ġde": 391,
      "ĠR": 392,
      "pp": 393,
      "ile": 394,
      "Ġvulnerability": 395,
      "if": 396,
      "ĠD": 397,
      "Ġallow": 398,
      "ĠW": 399,
      "ure": 400,
      "se": 401,
      "Ġcom": 402,
      "Ġthat": 403,
      "ĠF": 404,
      "for": 405,
      "ow": 406,
      "ĠE": 407,
      "ĠL": 408,
      "cc": 409,
      "ys": 410,
      "ment": 411,
      "pt": 412,
      "Ġg": 413,
      "age": 414,
      "0000": 415,
      "ia": 416,
      "ion": 417,
      "Ġby": 418,
      "mo": 419,
      "ry": 420,
      "hen": 421,
      "el": 422,
      "Ġor": 423,
      "Ġwh": 424,
      "his": 425,
      "ue": 426,
      "rom": 427,
      "Ġ2": 428,
      "ay": 429,
      "ĠThe": 430,
      "per": 431,
      "and": 432,
      "form": 433,
      "Ġar": 434,
      "ata": 435,
      "Ġas": 436,
      "th": 437,
      "iz": 438,
      "ug": 439,
      "ir": 440,
      "od": 441,
      "==": 442,
      "ated": 443,
      "plo": 444,
      "ĠH": 445,
      "Ġallows": 446,
      "able": 447,
      "ĠB": 448,
      "und": 449,
      "end": 450,
      "Ġvia": 451,
      "Ġsu": 452,
      "Ġun": 453,
      "Ġad": 454,
      "ĠN": 455,
      "jec": 456,
      "Ġwe": 457,
      "li": 458,
      "mote": 459,
      "Ġthis": 460,
      "ĠO": 461,
      "tive": 462,
      "tem": 463,
      "ĠIn": 464,
      "um": 465,
      "fore": 466,
      "ist": 467,
      "Ġcan": 468,
      "ĠĠ": 469,
      "Ġ[": 470,
      "ĠG": 471,
      "ecu": 472,
      "ĠV": 473,
      "ram": 474,
      "ain": 475,
      "vic": 476,
      "up": 477,
      "ac": 478,
      "Ġle": 479,
      "os": 480,
      "ersion": 481,
      "ccess": 482,
      "ork": 483,
      "ire": 484,
      "Ġlo": 485,
      "Ġpri": 486,
      "lic": 487,
      "Ġremote": 488,
      "cri": 489,
      "Ġcomp": 490,
      "Ġfrom": 491,
      "Ġen": 492,
      "to": 493,
      "Ġres": 494,
      "ph": 495,
      "Ġbefore": 496,
      "10": 497,
      "em": 498,
      "ĠThis": 499,
      "Ġare": 500,
      "ĠU": 501,
      "ap": 502,
      "are": 503,
      "Ġit": 504,
      "Ġexecu": 505,
      "Ġ20": 506,
      "Ġco": 507,
      "pec": 508,
      "ystem": 509,
      "Ġpa": 510,
      "Ġ=": 511,
      "bit": 512,
      "ble": 513,
      "ere": 514,
      "Ġ0": 515,
      "ine": 516,
      "enti": 517,
      "ial": 518,
      "Ġattackers": 519,
      "Ġdata": 520,
      "Ġim": 521,
      "all": 522,
      "ffec": 523,
      "ich": 524,
      "of": 525,
      "rary": 526,
      "odel": 527,
      "Ġ3": 528,
      "Ġst": 529,
      "Ġser": 530,
      "Ġk": 531,
      "Ġversion": 532,
      "Ġ.": 533,
      "ud": 534,
      "ag": 535,
      "----": 536,
      "ak": 537,
      "res": 538,
      "ple": 539,
      "Ġnot": 540,
      "vice": 541,
      "est": 542,
      "ass": 543,
      ").": 544,
      "put": 545,
      "du": 546,
      "Ġapp": 547,
      "bitrary": 548,
      "ally": 549,
      "Ġwhich": 550,
      "Ġarbitrary": 551,
      "pro": 552,
      "Ġtra": 553,
      "io": 554,
      "ploit": 555,
      "ross": 556,
      "xt": 557,
      "tain": 558,
      "Ġuser": 559,
      "),": 560,
      "ory": 561,
      "uld": 562,
      "iti": 563,
      "Ġattacker": 564,
      "ew": 565,
      "cal": 566,
      "ns": 567,
      "ence": 568,
      "Ġdis": 569,
      "ugh": 570,
      "The": 571,
      "Ġ4": 572,
      "Ġcode": 573,
      "11": 574,
      "cript": 575,
      "ru": 576,
      "Ġhas": 577,
      "igh": 578,
      "Ġrequ": 579,
      "Ġaut": 580,
      "Ġper": 581,
      "Ġiss": 582,
      "pl": 583,
      "ord": 584,
      "unction": 585,
      "aus": 586,
      "hentic": 587,
      "ĠJ": 588,
      "ting": 589,
      "ign": 590,
      "Ġmodel": 591,
      "co": 592,
      ".,": 593,
      "ies": 594,
      "ard": 595,
      "vers": 596,
      "sion": 597,
      "ip": 598,
      "ations": 599,
      "Ġaccess": 600,
      "ame": 601,
      "cl": 602,
      "com": 603,
      "rough": 604,
      "ub": 605,
      "ack": 606,
      "Ġissue": 607,
      "tro": 608,
      "ang": 609,
      "ser": 610,
      "SS": 611,
      "Ġpriv": 612,
      "val": 613,
      "Ġch": 614,
      "Ġval": 615,
      "Ġaffec": 616,
      "ll": 617,
      "min": 618,
      "Ġfile": 619,
      "Ġsta": 620,
      "ecur": 621,
      "ite": 622,
      "ress": 623,
      "tions": 624,
      "Ġfunction": 625,
      "25": 626,
      "di": 627,
      "bas": 628,
      "ail": 629,
      "av": 630,
      "Ġthrough": 631,
      "int": 632,
      "ind": 633,
      "ffer": 634,
      "ust": 635,
      "In": 636,
      "Ġwas": 637,
      "VE": 638,
      "ecurity": 639,
      "====": 640,
      "Ġ5": 641,
      "ach": 642,
      "con": 643,
      "ĠX": 644,
      "ener": 645,
      "Ġover": 646,
      "ort": 647,
      "the": 648,
      "Ġ\"": 649,
      "Ġdo": 650,
      "ther": 651,
      "Ġinter": 652,
      "Ġsh": 653,
      "Ġsystem": 654,
      "Ġcra": 655,
      "Ġr": 656,
      "12": 657,
      "our": 658,
      "Ġexecute": 659,
      "Ġcomm": 660,
      "Ġinjec": 661,
      "ound": 662,
      "Ġse": 663,
      "etw": 664,
      "ific": 665,
      "Ġversions": 666,
      "ramet": 667,
      "out": 668,
      "fer": 669,
      "Ġra": 670,
      "po": 671,
      "formation": 672,
      "Ġexploit": 673,
      "ware": 674,
      "pa": 675,
      "16": 676,
      "ix": 677,
      "ĠRe": 678,
      "ied": 679,
      "ĠWe": 680,
      "15": 681,
      "tim": 682,
      "24": 683,
      "Ġcould": 684,
      "ause": 685,
      "ors": 686,
      "Ġ6": 687,
      "php": 688,
      "Ġob": 689,
      "Ġmay": 690,
      "ĠCVE": 691,
      "Ġparamet": 692,
      "ents": 693,
      "ĠCon": 694,
      "ious": 695,
      "00000000": 696,
      "Ġag": 697,
      "cess": 698,
      "Ġ7": 699,
      "own": 700,
      "Ġpo": 701,
      "tra": 702,
      "Ġman": 703,
      "ill": 704,
      "Ġwhen": 705,
      "enc": 706,
      "ps": 707,
      "Ġ8": 708,
      "ance": 709,
      "get": 710,
      "tt": 711,
      "Ġpre": 712,
      "pe": 713,
      "ary": 714,
      "()": 715,
      "ulti": 716,
      "Ġpl": 717,
      "Ġbeen": 718,
      "//": 719,
      "14": 720,
      "ger": 721,
      "ges": 722,
      "..": 723,
      "henticated": 724,
      "iv": 725,
      "pon": 726,
      "bu": 727,
      "ĠK": 728,
      "13": 729,
      "sta": 730,
      "Ġup": 731,
      "Ġweb": 732,
      "Ġout": 733,
      "Ġpat": 734,
      "ex": 735,
      "Ġset": 736,
      "Ġresul": 737,
      "ase": 738,
      "Ġ/": 739,
      "Ġinformation": 740,
      "Ġro": 741,
      "23": 742,
      "Ġusers": 743,
      "ric": 744,
      "ffic": 745,
      "pen": 746,
      "Ġall": 747,
      "nel": 748,
      "che": 749,
      "hor": 750,
      "og": 751,
      "ization": 752,
      "ey": 753,
      "set": 754,
      "ech": 755,
      "rac": 756,
      "Ġac": 757,
      "ĠSer": 758,
      "ree": 759,
      "fa": 760,
      "ave": 761,
      "ect": 762,
      "irect": 763,
      "Ġcraf": 764,
      "sh": 765,
      "Ġused": 766,
      "ized": 767,
      "tes": 768,
      "19": 769,
      "lication": 770,
      "Ġ-": 771,
      "pr": 772,
      "ĠEx": 773,
      "18": 774,
      "identi": 775,
      "Ġfil": 776,
      "Ġne": 777,
      "Ġservice": 778,
      "17": 779,
      "Ġlead": 780,
      "Ġprivile": 781,
      "based": 782,
      "##": 783,
      "aut": 784,
      "tation": 785,
      "af": 786,
      "Ġqu": 787,
      "Ġno": 788,
      "Ġpar": 789,
      "trol": 790,
      "text": 791,
      "oft": 792,
      "Ġmal": 793,
      "Ġparameter": 794,
      "ĠPro": 795,
      "Ġden": 796,
      "ost": 797,
      "ise": 798,
      "--------": 799,
      "etwork": 800,
      "ates": 801,
      "ning": 802,
      "Ġconf": 803,
      "ty": 804,
      "Ġcrafted": 805,
      "QL": 806,
      "Ġdi": 807,
      "emory": 808,
      "Ġspec": 809,
      "oc": 810,
      "ĠAn": 811,
      "Ġincl": 812,
      "ong": 813,
      "ĠĠĠĠ": 814,
      "Ġusing": 815,
      "ruct": 816,
      "Ġ+": 817,
      "cripting": 818,
      "Ġadd": 819,
      "Ġgener": 820,
      "Ġcl": 821,
      "icious": 822,
      "ossi": 823,
      "Ġ<": 824,
      "Ġmod": 825,
      "load": 826,
      "flow": 827,
      "://": 828,
      "ok": 829,
      "OS": 830,
      "26": 831,
      "Ġ10": 832,
      "Ġ`": 833,
      "nt": 834,
      "led": 835,
      "ĠZ": 836,
      "Ġcause": 837,
      "ĠHT": 838,
      "Ġlocal": 839,
      "ating": 840,
      "vel": 841,
      "ows": 842,
      "50": 843,
      "ments": 844,
      "Ġrep": 845,
      "dition": 846,
      "stra": 847,
      "bo": 848,
      "Ġpossi": 849,
      "ber": 850,
      "Ġvalid": 851,
      "ual": 852,
      "ms": 853,
      "ful": 854,
      "vid": 855,
      "mar": 856,
      "Ġprocess": 857,
      "valu": 858,
      "rig": 859,
      "ink": 860,
      "ribu": 861,
      "ide": 862,
      "Ġ9": 863,
      "so": 864,
      "ensi": 865,
      "Ġund": 866,
      "ant": 867,
      "22": 868,
      "Ġacc": 869,
      "Ġem": 870,
      "LM": 871,
      "ature": 872,
      "Ġbu": 873,
      "This": 874,
      "ption": 875,
      "__": 876,
      "teg": 877,
      "Ġcommand": 878,
      "arch": 879,
      "ved": 880,
      "Ġhe": 881,
      "000": 882,
      "ces": 883,
      "Ġmalicious": 884,
      "ified": 885,
      "Ġattacks": 886,
      "Ġlog": 887,
      "ĠFor": 888,
      "Ġinput": 889,
      "ĠCom": 890,
      "Ġsub": 891,
      "tent": 892,
      "Ġprior": 893,
      "ib": 894,
      "clo": 895,
      "Ġ'": 896,
      "Ġsecurity": 897,
      "Ġsuch": 898,
      "Ġinto": 899,
      "Ġdes": 900,
      "ollow": 901,
      "30": 902,
      "Ġes": 903,
      "ities": 904,
      "tical": 905,
      "Ġcre": 906,
      "ven": 907,
      "inu": 908,
      "Ġhave": 909,
      "Ġperform": 910,
      "Ġcor": 911,
      "ference": 912,
      "eth": 913,
      "ration": 914,
      "ernel": 915,
      "log": 916,
      "80": 917,
      "site": 918,
      "Ġcontain": 919,
      "64": 920,
      "Ġuse": 921,
      "lock": 922,
      "].": 923,
      "ML": 924,
      "Ġdenial": 925,
      "Ġdoes": 926,
      "heck": 927,
      "Ġfiles": 928,
      "ie": 929,
      "ome": 930,
      "tern": 931,
      "cover": 932,
      "Ġet": 933,
      "Ġear": 934,
      "ical": 935,
      "Ġexecution": 936,
      "tection": 937,
      "cted": 938,
      "ves": 939,
      "ential": 940,
      "Con": 941,
      "Ġidenti": 942,
      "pass": 943,
      "app": 944,
      "oth": 945,
      "ugin": 946,
      "Ġwork": 947,
      "der": 948,
      "ttps": 949,
      "uring": 950,
      "Ġunaut": 951,
      "Ġaffects": 952,
      "Ġfollow": 953,
      "indows": 954,
      "action": 955,
      "ari": 956,
      "Ġy": 957,
      "Ġrequire": 958,
      "ĠY": 959,
      "TP": 960,
      "ens": 961,
      "Ġu": 962,
      "Ġmulti": 963,
      "Ġvulnerable": 964,
      "Ġbut": 965,
      "Ġinjection": 966,
      "yn": 967,
      "ethod": 968,
      "ource": 969,
      "Ġsc": 970,
      "Ġi": 971,
      "Ġmodels": 972,
      "Ġany": 973,
      "ob": 974,
      "ality": 975,
      "Ġhigh": 976,
      "40": 977,
      "Ġmemory": 978,
      "la": 979,
      "========": 980,
      "ĠQ": 981,
      "Ġapplication": 982,
      "fic": 983,
      "Ġdue": 984,
      "Ġaffected": 985,
      "ize": 986,
      "Ġif": 987,
      "ight": 988,
      "Ġoper": 989,
      "word": 990,
      "Ġwhere": 991,
      "Ġinclud": 992,
      "Ġauthenticated": 993,
      "iew": 994,
      "21": 995,
      "Ġthan": 996,
      "Ġdef": 997,
      "Ġnetwork": 998,
      "Ġcheck": 999,
      "'s": 1000,
      "Ġread": 1001,
      "],": 1002,
      "ject": 1003,
      "ensitive": 1004,
      "Ġme": 1005,
      "Ġdec": 1006,
      "Ġfix": 1007,
      "Ġanal": 1008,
      "Ġother": 1009,
      "Ġserver": 1010,
      "acy": 1011,
      "su": 1012,
      "duct": 1013,
      "Ġass": 1014,
      "Ġevalu": 1015,
      "raph": 1016,
      "spec": 1017,
      "Ġab": 1018,
      "Ġsign": 1019,
      "unt": 1020,
      "ask": 1021,
      "Ġver": 1022,
      "Ġunder": 1023,
      "Ġdiffer": 1024,
      "lier": 1025,
      "ĠMan": 1026,
      "ĠAd": 1027,
      "clos": 1028,
      "Ġrequest": 1029,
      "abilities": 1030,
      "ni": 1031,
      "Ġonly": 1032,
      "Ġsec": 1033,
      "Ġtim": 1034,
      "An": 1035,
      "Ġthese": 1036,
      "men": 1037,
      "Ġpossible": 1038,
      "Ġx": 1039,
      "one": 1040,
      "ID": 1041,
      "Ġkernel": 1042,
      "iel": 1043,
      "nown": 1044,
      "Re": 1045,
      "ffici": 1046,
      "op": 1047,
      "mis": 1048,
      "tur": 1049,
      "ext": 1050,
      "ten": 1051,
      "TE": 1052,
      "Ġaddress": 1053,
      "60": 1054,
      "ara": 1055,
      "data": 1056,
      "inux": 1057,
      "ke": 1058,
      "Ġdirect": 1059,
      "Ġcompon": 1060,
      "cre": 1061,
      "Ġearlier": 1062,
      "sing": 1063,
      "Ġmak": 1064,
      "gu": 1065,
      "mon": 1066,
      "Ġvect": 1067,
      "Ġexp": 1068,
      "Ġj": 1069,
      "col": 1070,
      "Ġtrans": 1071,
      "ult": 1072,
      "ould": 1073,
      "igure": 1074,
      "tr": 1075,
      "agement": 1076,
      "ĠSQL": 1077,
      "Ġits": 1078,
      "rite": 1079,
      "ced": 1080,
      "Ġadmin": 1081,
      "ield": 1082,
      "Ġoverflow": 1083,
      "Ġwhile": 1084,
      "RL": 1085,
      "les": 1086,
      "Ġpub": 1087,
      "ĠServer": 1088,
      "ache": 1089,
      "Ġour": 1090,
      "Ġwill": 1091,
      "read": 1092,
      "We": 1093,
      "Ġpass": 1094,
      "Ġidentif": 1095,
      "print": 1096,
      "Ġproper": 1097,
      "por": 1098,
      "Ġeach": 1099,
      "ĠDe": 1100,
      "ĠEn": 1101,
      "ax": 1102,
      "Ġfe": 1103,
      "27": 1104,
      "AN": 1105,
      "ify": 1106,
      "Ġsensitive": 1107,
      "Ġcontrol": 1108,
      "Ġtar": 1109,
      "Ġty": 1110,
      "Ġmethod": 1111,
      "Ġ{": 1112,
      "ĠWindows": 1113,
      "Ġrun": 1114,
      "Ġform": 1115,
      "ining": 1116,
      "ĠWeb": 1117,
      "oftware": 1118,
      "ous": 1119,
      "arning": 1120,
      "Ġplugin": 1121,
      "Ġwithout": 1122,
      "28": 1123,
      "riv": 1124,
      "proper": 1125,
      "ulation": 1126,
      "ĠLLM": 1127,
      "SR": 1128,
      "Ġkey": 1129,
      "Ġfir": 1130,
      "line": 1131,
      "vices": 1132,
      "Ġacross": 1133,
      "ĠSu": 1134,
      "ĠAut": 1135,
      "ined": 1136,
      "Ġprivileges": 1137,
      "me": 1138,
      "ages": 1139,
      "33": 1140,
      "PI": 1141,
      "Ġdisclos": 1142,
      "err": 1143,
      "pts": 1144,
      "pend": 1145,
      "par": 1146,
      "dic": 1147,
      "ding": 1148,
      "ĠID": 1149,
      "Ġtool": 1150,
      "99": 1151,
      "Ġbas": 1152,
      "ored": 1153,
      "70": 1154,
      "ness": 1155,
      "do": 1156,
      "Ġsim": 1157,
      "Ġtheir": 1158,
      "ysis": 1159,
      "Ġtrig": 1160,
      "AC": 1161,
      "hentication": 1162,
      "ists": 1163,
      "SE": 1164,
      "Ġpath": 1165,
      "ĠCh": 1166,
      "ever": 1167,
      "wo": 1168,
      "assi": 1169,
      "Ġreg": 1170,
      "Ġinst": 1171,
      "Ġdist": 1172,
      "igu": 1173,
      "ĠTh": 1174,
      "Ġbuffer": 1175,
      "Ġhand": 1176,
      "ework": 1177,
      "eng": 1178,
      "Ġinject": 1179,
      "ramework": 1180,
      "ml": 1181,
      "**": 1182,
      "ession": 1183,
      "Ġwithin": 1184,
      "Ġsupp": 1185,
      "mission": 1186,
      "ative": 1187,
      "ON": 1188,
      "Ġdiscover": 1189,
      "EE": 1190,
      "ructure": 1191,
      "XSS": 1192,
      "Ġcontext": 1193,
      "AA": 1194,
      "fficient": 1195,
      "ĠSystem": 1196,
      "=\"": 1197,
      "port": 1198,
      "Ġ:": 1199,
      "ility": 1200,
      "Ġcons": 1201,
      "ĠLinux": 1202,
      "ests": 1203,
      "gor": 1204,
      "90": 1205,
      "Ġobtain": 1206,
      "name": 1207,
      "tocol": 1208,
      "ayload": 1209,
      "Ġpot": 1210,
      "Ġprovid": 1211,
      "Ġappro": 1212,
      "Ġpage": 1213,
      "rect": 1214,
      "ĠApp": 1215,
      "Ġincluding": 1216,
      "32": 1217,
      "Ġfollowing": 1218,
      "Ġneed": 1219,
      "ample": 1220,
      "Ġstr": 1221,
      "Ġfound": 1222,
      "Ġoutput": 1223,
      "ving": 1224,
      "Ġcross": 1225,
      "ling": 1226,
      "Ġpres": 1227,
      "roid": 1228,
      "Ġmanip": 1229,
      "Ġspecific": 1230,
      "no": 1231,
      "mark": 1232,
      "vent": 1233,
      "ava": 1234,
      "ĠWord": 1235,
      "100": 1236,
      "pact": 1237,
      "Ġcer": 1238,
      "ency": 1239,
      "bed": 1240,
      "Ġenc": 1241,
      "Press": 1242,
      "Ġrespon": 1243,
      "Ġscripting": 1244,
      "cket": 1245,
      "een": 1246,
      "88": 1247,
      "AR": 1248,
      "Ġpublic": 1249,
      "ww": 1250,
      ");": 1251,
      "Ġcomponent": 1252,
      "ploy": 1253,
      "Ġopen": 1254,
      "lient": 1255,
      "Ġtarget": 1256,
      "atch": 1257,
      "``": 1258,
      "ath": 1259,
      "level": 1260,
      "loc": 1261,
      "main": 1262,
      "ater": 1263,
      "Ġcall": 1264,
      "Ġvectors": 1265,
      "arge": 1266,
      "ccessful": 1267,
      "ou": 1268,
      "Ġmis": 1269,
      "racle": 1270,
      "ĠSt": 1271,
      "be": 1272,
      "IN": 1273,
      "wh": 1274,
      "HP": 1275,
      "olic": 1276,
      "Ġdevice": 1277,
      "tiv": 1278,
      "Ġresults": 1279,
      "nce": 1280,
      "Ġthere": 1281,
      "ection": 1282,
      "55": 1283,
      "ffff": 1284,
      "urre": 1285,
      "ery": 1286,
      "ĠOracle": 1287,
      "Ġdifferent": 1288,
      "isk": 1289,
      "old": 1290,
      "pload": 1291,
      "Ġhttps": 1292,
      "ision": 1293,
      "Ġtime": 1294,
      "ndroid": 1295,
      "ier": 1296,
      "Ġalso": 1297,
      "ma": 1298,
      "etween": 1299,
      "its": 1300,
      "ĠWordPress": 1301,
      "anis": 1302,
      "Ġaction": 1303,
      "ĠIt": 1304,
      "we": 1305,
      "til": 1306,
      "Ġback": 1307,
      "known": 1308,
      "angu": 1309,
      "Pro": 1310,
      "Ġtr": 1311,
      "Ġ00000000": 1312,
      "time": 1313,
      "ged": 1314,
      "Ġrel": 1315,
      "Cross": 1316,
      "Ġph": 1317,
      "hav": 1318,
      "Ġthen": 1319,
      "\",": 1320,
      "Ġbec": 1321,
      "ĠHTML": 1322,
      "usion": 1323,
      "Ġcomple": 1324,
      "Ġscript": 1325,
      "34": 1326,
      "Ġbypass": 1327,
      "ĠHTTP": 1328,
      "ĠScripting": 1329,
      "ings": 1330,
      "Ġend": 1331,
      "Ġav": 1332,
      "LL": 1333,
      "fter": 1334,
      "ull": 1335,
      "Ġerr": 1336,
      "ast": 1337,
      "Ġdiscovered": 1338,
      "Ġvalue": 1339,
      "Ġvulnerabilities": 1340,
      "rypt": 1341,
      "Ġnum": 1342,
      "35": 1343,
      "Ġbound": 1344,
      "Ġadvers": 1345,
      "atform": 1346,
      "Ġstate": 1347,
      "RE": 1348,
      "ulnerability": 1349,
      "Im": 1350,
      "Ġtwo": 1351,
      "ayer": 1352,
      "ive": 1353,
      "ude": 1354,
      "29": 1355,
      "date": 1356,
      "Ġimple": 1357,
      "Ġcommands": 1358,
      "orm": 1359,
      "net": 1360,
      "Ġtask": 1361,
      "Ġmess": 1362,
      "Ġone": 1363,
      "Ġ|": 1364,
      "Ġsome": 1365,
      "Ġ11": 1366,
      "ues": 1367,
      "ĠSecurity": 1368,
      "ĠURL": 1369,
      "act": 1370,
      "Ġmore": 1371,
      "####": 1372,
      "echanis": 1373,
      "face": 1374,
      "Ex": 1375,
      "gram": 1376,
      "cor": 1377,
      "86": 1378,
      "Ġ00": 1379,
      "36": 1380,
      "ĠTo": 1381,
      "pre": 1382,
      "Ġvalidation": 1383,
      "reat": 1384,
      "Ġexists": 1385,
      "pos": 1386,
      "Ġresult": 1387,
      "ason": 1388,
      "anguage": 1389,
      "Ġrec": 1390,
      "horized": 1391,
      "ral": 1392,
      "Ġtok": 1393,
      "37": 1394,
      "Ġprivacy": 1395,
      "Ġbetween": 1396,
      "44": 1397,
      "tribu": 1398,
      "ĠTra": 1399,
      "Ġimpact": 1400,
      "ST": 1401,
      "vir": 1402,
      "ell": 1403,
      "omain": 1404,
      "Ġ,": 1405,
      "Ġunknown": 1406,
      "Ġfeature": 1407,
      "gn": 1408,
      "mit": 1409,
      "ural": 1410,
      "gra": 1411,
      "Ġdataset": 1412,
      "ht": 1413,
      "Ġnon": 1414,
      "Ġtrigger": 1415,
      "Ġprom": 1416,
      "inter": 1417,
      "ures": 1418,
      "url": 1419,
      "row": 1420,
      "Ġthey": 1421,
      "ditional": 1422,
      "Ġname": 1423,
      "ular": 1424,
      "base": 1425,
      "Ġauthentication": 1426,
      "ification": 1427,
      "ĠAndroid": 1428,
      "Ġsetting": 1429,
      "Ġsend": 1430,
      "ĠSD": 1431,
      "Ġunauthenticated": 1432,
      "Ġ2025": 1433,
      "havi": 1434,
      "urrent": 1435,
      "lect": 1436,
      "vol": 1437,
      "over": 1438,
      "ator": 1439,
      "ish": 1440,
      "Ġdetection": 1441,
      "200": 1442,
      "ep": 1443,
      "ond": 1444,
      "Ġeffec": 1445,
      "fo": 1446,
      "inal": 1447,
      "To": 1448,
      "ĠCross": 1449,
      "ainst": 1450,
      "Ġlow": 1451,
      "file": 1452,
      "ited": 1453,
      "cept": 1454,
      "entially": 1455,
      "tect": 1456,
      "Ġ12": 1457,
      "):": 1458,
      "Ġboth": 1459,
      "core": 1460,
      "ne": 1461,
      "CP": 1462,
      "tific": 1463,
      "Ġframework": 1464,
      "ci": 1465,
      "IP": 1466,
      "ĠAt": 1467,
      "Ġsystems": 1468,
      "45": 1469,
      "man": 1470,
      "ety": 1471,
      "trodu": 1472,
      "rup": 1473,
      "Ġlib": 1474,
      "Ġpassword": 1475,
      "Ġconfigu": 1476,
      "Ġrequests": 1477,
      "AP": 1478,
      "Ġso": 1479,
      "----------------": 1480,
      "by": 1481,
      "viron": 1482,
      "isting": 1483,
      "MS": 1484,
      "Ġvari": 1485,
      "py": 1486,
      "Ġfixed": 1487,
      "Ġsame": 1488,
      "48": 1489,
      "ĠJava": 1490,
      "Site": 1491,
      "Ġ#": 1492,
      "ruction": 1493,
      "round": 1494,
      "AT": 1495,
      "istra": 1496,
      "specified": 1497,
      "Ġanalysis": 1498,
      "ager": 1499,
      "Ġfail": 1500,
      "ĠAI": 1501,
      "Ġli": 1502,
      "Ġreal": 1503,
      "turn": 1504,
      "Ġnew": 1505,
      "Ġdesign": 1506,
      "Ġarch": 1507,
      "icro": 1508,
      "cap": 1509,
      "Ġcap": 1510,
      "Ġargu": 1511,
      "reg": 1512,
      "Ġmechanis": 1513,
      "Ġste": 1514,
      "Ġlim": 1515,
      "ader": 1516,
      "ĠXSS": 1517,
      "istic": 1518,
      "monstra": 1519,
      "')": 1520,
      "tri": 1521,
      "Ad": 1522,
      "ison": 1523,
      "jection": 1524,
      "ases": 1525,
      "ĠAPI": 1526,
      "chie": 1527,
      "ched": 1528,
      "01": 1529,
      "Ġprotocol": 1530,
      "Ġgu": 1531,
      "ently": 1532,
      "fs": 1533,
      "96": 1534,
      "view": 1535,
      "Ġmanipulation": 1536,
      "Ġfirst": 1537,
      "Ġclassi": 1538,
      "Ġref": 1539,
      "Ġduring": 1540,
      "code": 1541,
      "Ġlarge": 1542,
      "Ġinteraction": 1543,
      "gorith": 1544,
      "ĠĠĠ": 1545,
      "now": 1546,
      "Xiv": 1547,
      "Ġachie": 1548,
      "quest": 1549,
      "dex": 1550,
      "ational": 1551,
      "Ġresol": 1552,
      "Ġben": 1553,
      "56": 1554,
      "ER": 1555,
      "user": 1556,
      "ritical": 1557,
      "38": 1558,
      "ences": 1559,
      "Ġcrash": 1560,
      "Ġagent": 1561,
      "Ġop": 1562,
      "Ġinteg": 1563,
      "78": 1564,
      "Ġsaf": 1565,
      "ET": 1566,
      "Ġerror": 1567,
      "Ġunspecified": 1568,
      "Ġpayload": 1569,
      "Ġiniti": 1570,
      "Ġ2024": 1571,
      "ints": 1572,
      "tab": 1573,
      "ĠPl": 1574,
      "pace": 1575,
      "ines": 1576,
      "Ġpermission": 1577,
      "ze": 1578,
      "(\"": 1579,
      "Ġfield": 1580,
      "ampl": 1581,
      "ared": 1582,
      "04": 1583,
      "owever": 1584,
      "Ġz": 1585,
      "que": 1586,
      "Ġcontent": 1587,
      "ĠExploit": 1588,
      "Ġ<=": 1589,
      "ute": 1590,
      "SA": 1591,
      "Ġblock": 1592,
      "itect": 1593,
      "Ġagainst": 1594,
      "Ġrepres": 1595,
      "Ġdemonstra": 1596,
      "dential": 1597,
      "ount": 1598,
      "itor": 1599,
      "ĠSh": 1600,
      "ended": 1601,
      "ash": 1602,
      "mentation": 1603,
      "OR": 1604,
      "Ġnumber": 1605,
      "LE": 1606,
      "havior": 1607,
      "ran": 1608,
      "cu": 1609,
      "with": 1610,
      "tar": 1611,
      "stric": 1612,
      "ttp": 1613,
      "ĠPHP": 1614,
      "ule": 1615,
      "BM": 1616,
      "Ġunauthorized": 1617,
      "ĠLi": 1618,
      "add": 1619,
      "ĠLe": 1620,
      "76": 1621,
      "\":": 1622,
      "verage": 1623,
      "ild": 1624,
      "SQL": 1625,
      "eline": 1626,
      "ld": 1627,
      "velo": 1628,
      "Ġsession": 1629,
      "Ġtech": 1630,
      "ndard": 1631,
      "39": 1632,
      "Ġmakes": 1633,
      "Ġcol": 1634,
      "odes": 1635,
      "Ġcritical": 1636,
      "ron": 1637,
      "ym": 1638,
      "Ġ&": 1639,
      "Ġpotentially": 1640,
      "org": 1641,
      "admin": 1642,
      "DB": 1643,
      "ange": 1644,
      "PR": 1645,
      "search": 1646,
      "75": 1647,
      "Ġmain": 1648,
      "orted": 1649,
      "ĠNo": 1650,
      "Ġproduct": 1651,
      "Ġ15": 1652,
      "Com": 1653,
      "Ġmultiple": 1654,
      "Ġafter": 1655,
      "hell": 1656,
      "ily": 1657,
      "Ġleak": 1658,
      "PT": 1659,
      "idd": 1660,
      "roup": 1661,
      "Ġleads": 1662,
      "gine": 1663,
      "Ġrele": 1664,
      "fault": 1665,
      "Ġbecause": 1666,
      "fil": 1667,
      "olicy": 1668,
      "law": 1669,
      "CE": 1670,
      "Ġgain": 1671,
      "rag": 1672,
      "table": 1673,
      "utation": 1674,
      "unic": 1675,
      "Ġremain": 1676,
      "ĠManagement": 1677,
      "Ġlike": 1678,
      "De": 1679,
      "->": 1680,
      "Ġenable": 1681,
      "Ġrelated": 1682,
      "Ġavail": 1683,
      "Ġmust": 1684,
      "lications": 1685,
      "05": 1686,
      "Ġextra": 1687,
      "AS": 1688,
      "ream": 1689,
      "Ġdistribu": 1690,
      "respon": 1691,
      "ength": 1692,
      "ndom": 1693,
      "ĠData": 1694,
      "ĠAl": 1695,
      "Aut": 1696,
      "ka": 1697,
      "sys": 1698,
      "arial": 1699,
      "Ġconn": 1700,
      "Ġadministra": 1701,
      "back": 1702,
      "Ġupload": 1703,
      "ward": 1704,
      "ĠOS": 1705,
      "Ġrisk": 1706,
      "sition": 1707,
      "Ġperformance": 1708,
      "ĠSP": 1709,
      "ingle": 1710,
      "Ġtraining": 1711,
      "Ġenviron": 1712,
      "OM": 1713,
      "Ġsize": 1714,
      "03": 1715,
      "Ġargument": 1716,
      "Ġpers": 1717,
      "usted": 1718,
      "Ġdisclosure": 1719,
      "side": 1720,
      "98": 1721,
      "Ġreason": 1722,
      "95": 1723,
      "Ġtest": 1724,
      "ĠZh": 1725,
      "med": 1726,
      "Ġprivilege": 1727,
      "ically": 1728,
      "Ġparameters": 1729,
      "SC": 1730,
      "tively": 1731,
      "aniti": 1732,
      "Ġintrodu": 1733,
      "VSS": 1734,
      "versal": 1735,
      "Ġstructure": 1736,
      "ense": 1737,
      "tis": 1738,
      "Ġele": 1739,
      "eter": 1740,
      "ini": 1741,
      "als": 1742,
      "aract": 1743,
      "Ġent": 1744,
      "lied": 1745,
      "tor": 1746,
      "AM": 1747,
      "Ġproperly": 1748,
      "Ġclass": 1749,
      "\")": 1750,
      "tail": 1751,
      "ler": 1752,
      "For": 1753,
      "ĠUn": 1754,
      "ĠUser": 1755,
      "Ġobser": 1756,
      "ĠNe": 1757,
      "Ġcontains": 1758,
      "46": 1759,
      "08": 1760,
      "47": 1761,
      "Ġimpro": 1762,
      "ste": 1763,
      "allen": 1764,
      "sk": 1765,
      "ĠNO": 1766,
      "lected": 1767,
      "================": 1768,
      "Ġexper": 1769,
      "Ġhow": 1770,
      "Ġclient": 1771,
      "Ġcurrent": 1772,
      "Ġtype": 1773,
      "Ġthem": 1774,
      "ĠOpen": 1775,
      "Ġdri": 1776,
      "ose": 1777,
      "ark": 1778,
      "02": 1779,
      "Ġed": 1780,
      "Ġcaus": 1781,
      "Ġshould": 1782,
      "Ġconfiguration": 1783,
      "urther": 1784,
      "apt": 1785,
      "31": 1786,
      "Ġstud": 1787,
      "ties": 1788,
      "point": 1789,
      "soft": 1790,
      "inary": 1791,
      "Ġcredential": 1792,
      "sign": 1793,
      "PU": 1794,
      "Ġdeploy": 1795,
      "ograph": 1796,
      "Ġwould": 1797,
      "box": 1798,
      "ace": 1799,
      "ruption": 1800,
      "etric": 1801,
      "Ġtext": 1802,
      "IC": 1803,
      "Ġbehavior": 1804,
      "eman": 1805,
      "Ġdevices": 1806,
      "ution": 1807,
      "bly": 1808,
      "Ġremotely": 1809,
      "cing": 1810,
      "gent": 1811,
      "Ġresolved": 1812,
      "ilar": 1813,
      "rity": 1814,
      "sive": 1815,
      "correct": 1816,
      "ecure": 1817,
      "ultiple": 1818,
      "ĠInjection": 1819,
      "ceed": 1820,
      "Ġsoftware": 1821,
      "Improper": 1822,
      "https": 1823,
      "ĠIm": 1824,
      "Ġdele": 1825,
      "06": 1826,
      "Ġcomprom": 1827,
      "ower": 1828,
      "))": 1829,
      "Ġprompt": 1830,
      "ĠVersion": 1831,
      "ially": 1832,
      "Ġproble": 1833,
      "Ġsingle": 1834,
      "2016": 1835,
      "rc": 1836,
      "def": 1837,
      "Ġtyp": 1838,
      "Ġlearning": 1839,
      "nowled": 1840,
      "Ġwrite": 1841,
      "endor": 1842,
      "van": 1843,
      "Ġescal": 1844,
      "Ġens": 1845,
      "Ġevaluation": 1846,
      "Ġbased": 1847,
      "Ġredu": 1848,
      "ero": 1849,
      "ĠCode": 1850,
      "Ġembed": 1851,
      "emantic": 1852,
      "Ġlink": 1853,
      "Ġhard": 1854,
      "Ġinterface": 1855,
      "Ġimage": 1856,
      "bers": 1857,
      "Ġexploitation": 1858,
      "ĠAs": 1859,
      "Ġwere": 1860,
      "ype": 1861,
      "write": 1862,
      "Ġtem": 1863,
      "comm": 1864,
      "licit": 1865,
      "ĠRes": 1866,
      "bust": 1867,
      "Ġincre": 1868,
      "ĠVulnerability": 1869,
      "ĠComm": 1870,
      "Ġmessage": 1871,
      "Ġpacket": 1872,
      "struct": 1873,
      "Ġneeded": 1874,
      "49": 1875,
      "ĠGener": 1876,
      "icrosoft": 1877,
      "gorithm": 1878,
      "Ġrestric": 1879,
      "ternal": 1880,
      "fied": 1881,
      "Ġint": 1882,
      "Ġsaniti": 1883,
      "stan": 1884,
      "amples": 1885,
      "bound": 1886,
      "rit": 1887,
      "Ġtoken": 1888,
      "ables": 1889,
      "Ġclo": 1890,
      "ĠService": 1891,
      "velop": 1892,
      "Ġdomain": 1893,
      "Ġpartic": 1894,
      "ĠBy": 1895,
      "free": 1896,
      "ering": 1897,
      "SP": 1898,
      "gery": 1899,
      "Ġsuccessful": 1900,
      "Ġroot": 1901,
      "IT": 1902,
      "isco": 1903,
      "Ġcertain": 1904,
      "77": 1905,
      "Ġthree": 1906,
      "nowledge": 1907,
      "Ġ16": 1908,
      "Ġinstall": 1909,
      "',": 1910,
      "vis": 1911,
      "Ġstack": 1912,
      "Ġadditional": 1913,
      "page": 1914,
      "nal": 1915,
      "Ġrandom": 1916,
      "Ġcle": 1917,
      "ĠĠĠĠĠĠĠĠ": 1918,
      "Ġabout": 1919,
      "rid": 1920,
      "valid": 1921,
      "Ġfunctionality": 1922,
      "ĠAttack": 1923,
      "oding": 1924,
      "vide": 1925,
      "Ġvis": 1926,
      "Ġinf": 1927,
      "Ġsite": 1928,
      "ĠGo": 1929,
      "Ġ14": 1930,
      "Ġagents": 1931,
      "horization": 1932,
      "Ġ__": 1933,
      "Ġscen": 1934,
      "Ġthreat": 1935,
      "Ġindic": 1936,
      "not": 1937,
      "ules": 1938,
      "Ġvalues": 1939,
      "ake": 1940,
      "SRF": 1941,
      "work": 1942,
      "Ch": 1943,
      "ird": 1944,
      "ĠSoftware": 1945,
      "Ġshow": 1946,
      "ased": 1947,
      "Ġleading": 1948,
      "fff": 1949,
      "annel": 1950,
      "Ġ200": 1951,
      "Ġsequ": 1952,
      "racy": 1953,
      "Ġsafety": 1954,
      "41": 1955,
      "Ġoptim": 1956,
      "Ġprogram": 1957,
      "65": 1958,
      "Ġaka": 1959,
      "ĠIf": 1960,
      "Ġprac": 1961,
      "All": 1962,
      "Ġarchitect": 1963,
      "nap": 1964,
      "EN": 1965,
      "Ġstra": 1966,
      "pres": 1967,
      "ĠStored": 1968,
      "bin": 1969,
      "sequ": 1970,
      "Ġmethods": 1971,
      "Ġcal": 1972,
      "ao": 1973,
      "CT": 1974,
      "ĠAr": 1975,
      "logy": 1976,
      "ian": 1977,
      "arg": 1978,
      "Ġquery": 1979,
      "ince": 1980,
      "ins": 1981,
      "Ġflaw": 1982,
      "pted": 1983,
      "Ġrequired": 1984,
      "sufficient": 1985,
      "AL": 1986,
      "Ġ2023": 1987,
      "Ġanaly": 1988,
      "use": 1989,
      "Ġchallen": 1990,
      "arm": 1991,
      "less": 1992,
      "requ": 1993,
      "Ġloc": 1994,
      "ĠThese": 1995,
      "reak": 1996,
      "42": 1997,
      "cripts": 1998,
      "from": 1999,
      "97": 2000,
      "conf": 2001,
      "07": 2002,
      "ULL": 2003,
      "depend": 2004,
      "ĠIP": 2005,
      "ificant": 2006,
      "mware": 2007,
      "Ġencry": 2008,
      "Ser": 2009,
      "DP": 2010,
      "....": 2011,
      "Ġmodule": 2012,
      "Ġutil": 2013,
      "ook": 2014,
      "Ġhost": 2015,
      "uracy": 2016,
      "www": 2017,
      "Ġexample": 2018,
      "Ġcredentials": 2019,
      "ques": 2020,
      "jects": 2021,
      "58": 2022,
      "Ġsource": 2023,
      "Multiple": 2024,
      "lob": 2025,
      "red": 2026,
      "ogle": 2027,
      "prise": 2028,
      "ĠHowever": 2029,
      "Ġmanagement": 2030,
      "ĠManager": 2031,
      "head": 2032,
      "dev": 2033,
      "sider": 2034,
      "ĠFile": 2035,
      "html": 2036,
      "Ġran": 2037,
      "ick": 2038,
      "Ġattribu": 2039,
      "Ġdirectory": 2040,
      "sible": 2041,
      "chmark": 2042,
      "Ġcharact": 2043,
      "ĠarXiv": 2044,
      "AG": 2045,
      "Ġuses": 2046,
      "lag": 2047,
      "Ġsemantic": 2048,
      "mod": 2049,
      "Ġrobust": 2050,
      "Ġ$": 2051,
      "ownload": 2052,
      "Ġpages": 2053,
      "09": 2054,
      "Ġorig": 2055,
      "Ġpossibly": 2056,
      "Ġprodu": 2057,
      "alse": 2058,
      "```": 2059,
      "ee": 2060,
      "ging": 2061,
      "mp": 2062,
      "Ġresponse": 2063,
      "Ġ18": 2064,
      "Ġfa": 2065,
      "Ġdescri": 2066,
      "Ġmost": 2067,
      "Ġcont": 2068,
      "model": 2069,
      "ough": 2070,
      "ources": 2071,
      "Ġeven": 2072,
      "Ġlack": 2073,
      "ryptograph": 2074,
      "istent": 2075,
      "Ġstandard": 2076,
      "Ġfull": 2077,
      "achine": 2078,
      "ĠSta": 2079,
      "Ġallowing": 2080,
      "Ġlanguage": 2081,
      "system": 2082,
      "Ġlevel": 2083,
      "sp": 2084,
      "...": 2085,
      "pose": 2086,
      "43": 2087,
      "rt": 2088,
      "chain": 2089,
      "sel": 2090,
      "2015": 2091,
      "ĠAc": 2092,
      "Ġ*": 2093,
      "Ġescap": 2094,
      "ĠAccess": 2095,
      "lab": 2096,
      "ĠPriv": 2097,
      "ump": 2098,
      "Ġdisclosed": 2099,
      "her": 2100,
      "Ġget": 2101,
      "Ġfind": 2102,
      "Ġinsufficient": 2103,
      "ynam": 2104,
      "uman": 2105,
      "En": 2106,
      "verse": 2107,
      "atic": 2108,
      "Figure": 2109,
      "Ġocc": 2110,
      "Ġlong": 2111,
      "ustom": 2112,
      "Ġtools": 2113,
      "ik": 2114,
      "ecution": 2115,
      "ĠFire": 2116,
      "lying": 2117,
      "Table": 2118,
      "ension": 2119,
      "Ġsche": 2120,
      "iven": 2121,
      "troll": 2122,
      "Ġaccount": 2123,
      "ft": 2124,
      "host": 2125,
      "onom": 2126,
      "Ġadversarial": 2127,
      "Ġsur": 2128,
      "Ġla": 2129,
      "Ġmin": 2130,
      "Ġmat": 2131,
      "oun": 2132,
      "bove": 2133,
      "lu": 2134,
      "Ġexplo": 2135,
      "Ġsettings": 2136,
      "Ġsk": 2137,
      "66": 2138,
      "Ġimplementation": 2139,
      "that": 2140,
      "tails": 2141,
      "Script": 2142,
      "Ġapproach": 2143,
      "Ġresulting": 2144,
      "Ġmeas": 2145,
      "mall": 2146,
      "Ġcorruption": 2147,
      "Ġsearch": 2148,
      "DI": 2149,
      "tations": 2150,
      "resh": 2151,
      "Ġcertific": 2152,
      "Ġact": 2153,
      "ĠRequest": 2154,
      "Ġabove": 2155,
      "Ġupdate": 2156,
      "Ġalloc": 2157,
      "Ġcontra": 2158,
      "rate": 2159,
      "Ġid": 2160,
      "Ġdatabase": 2161,
      "Ġremo": 2162,
      "can": 2163,
      "ear": 2164,
      "fy": 2165,
      "orld": 2166,
      "Ġgeneration": 2167,
      "Ġnet": 2168,
      "</": 2169,
      "Ġdirectly": 2170,
      "Ġmechanism": 2171,
      "ĠModel": 2172,
      "Ġstring": 2173,
      "link": 2174,
      "Ġred": 2175,
      "Ġrequires": 2176,
      "ictim": 2177,
      "Ġimproper": 2178,
      "trie": 2179,
      "ĠRemote": 2180,
      "Ġpointer": 2181,
      "Ġpermissions": 2182,
      "ĠNOTE": 2183,
      "thon": 2184,
      "Ġdefault": 2185,
      "Ġexisting": 2186,
      "Ġsignificant": 2187,
      "fication": 2188,
      "ret": 2189,
      "ocus": 2190,
      "Ġsyn": 2191,
      "lection": 2192,
      "Ġbinary": 2193,
      "Ġpr": 2194,
      "ade": 2195,
      "SI": 2196,
      "Ġrepresen": 2197,
      "sub": 2198,
      "priv": 2199,
      "Ġprovides": 2200,
      "aries": 2201,
      "Ġmodify": 2202,
      "Ġcase": 2203,
      "Ġcondition": 2204,
      "ĠControl": 2205,
      "call": 2206,
      "wn": 2207,
      "ames": 2208,
      "Ġscal": 2209,
      "hether": 2210,
      "68": 2211,
      "Ġlab": 2212,
      "dis": 2213,
      "Ġrece": 2214,
      "ffected": 2215,
      "Ġresearch": 2216,
      "ested": 2217,
      "Ġable": 2218,
      "ister": 2219,
      "Ġ('": 2220,
      "67": 2221,
      "AI": 2222,
      "attack": 2223,
      "ĠIntern": 2224,
      "Ġscripts": 2225,
      "ĠAC": 2226,
      "Ġdepend": 2227,
      "ĠCisco": 2228,
      "Ġverification": 2229,
      "Ġstrateg": 2230,
      "ĠOn": 2231,
      "Ġ2026": 2232,
      "Ġprovide": 2233,
      "::": 2234,
      "Ġwell": 2235,
      "Pl": 2236,
      "Th": 2237,
      "Ġconstra": 2238,
      "Ġ\\": 2239,
      "str": 2240,
      "Ġ17": 2241,
      "Ġdeter": 2242,
      "Ġvictim": 2243,
      "Ġcreate": 2244,
      "niques": 2245,
      "Ġview": 2246,
      "utral": 2247,
      "oS": 2248,
      "Ġreturn": 2249,
      "iled": 2250,
      "Ġway": 2251,
      "Ġfunctions": 2252,
      "Ġ13": 2253,
      "orts": 2254,
      "Ġcorrect": 2255,
      "ĠEnter": 2256,
      "Ġprob": 2257,
      "ĠCVSS": 2258,
      "('": 2259,
      "Ġgo": 2260,
      "Ġidentify": 2261,
      "Ġrather": 2262,
      "Ġdevelop": 2263,
      "till": 2264,
      "Ġmight": 2265,
      "Ġbeing": 2266,
      "force": 2267,
      "md": 2268,
      "ĠNetwork": 2269,
      "Ġdetect": 2270,
      "afe": 2271,
      "ĠDes": 2272,
      "play": 2273,
      "89": 2274,
      "tit": 2275,
      "SL": 2276,
      "Ġinclude": 2277,
      "rel": 2278,
      "where": 2279,
      "85": 2280,
      "tivity": 2281,
      "struction": 2282,
      "Ġ>": 2283,
      "ragon": 2284,
      "Ġpolicy": 2285,
      "posed": 2286,
      "ics": 2287,
      "Ġimp": 2288,
      "unication": 2289,
      "ĠSe": 2290,
      "Ġavailable": 2291,
      "cp": 2292,
      "ume": 2293,
      "AD": 2294,
      "Ġcost": 2295,
      "ĠSnap": 2296,
      "II": 2297,
      "SM": 2298,
      "Ġpost": 2299,
      "Ġsever": 2300,
      "Ġindex": 2301,
      "Ġfurther": 2302,
      "Ġmissing": 2303,
      "Ġprocessing": 2304,
      "list": 2305,
      "Ġoperations": 2306,
      "Ġext": 2307,
      "terns": 2308,
      "izes": 2309,
      "art": 2310,
      "Ġplatform": 2311,
      "go": 2312,
      "gener": 2313,
      "########": 2314,
      "Ġmean": 2315,
      "Ġenvironment": 2316,
      "Ġautom": 2317,
      "uting": 2318,
      "Ġenti": 2319,
      "vation": 2320,
      "dragon": 2321,
      "tected": 2322,
      "lib": 2323,
      "ses": 2324,
      "cer": 2325,
      "Ġsimilar": 2326,
      "Ġ19": 2327,
      "Ġ)": 2328,
      "ental": 2329,
      "Ġstored": 2330,
      "ai": 2331,
      "very": 2332,
      "Ġlist": 2333,
      "identiality": 2334,
      "ĠSnapdragon": 2335,
      "tance": 2336,
      "ible": 2337,
      "ĠEnterprise": 2338,
      "Ġretrie": 2339,
      "structure": 2340,
      "itig": 2341,
      "Ġfirmware": 2342,
      "aches": 2343,
      "Ġlength": 2344,
      "Ġtraffic": 2345,
      "ĠInformation": 2346,
      "Ġq": 2347,
      "Ġescalation": 2348,
      "Ġprivate": 2349,
      "other": 2350,
      "key": 2351,
      "Ġreasoning": 2352,
      "self": 2353,
      "ĠWh": 2354,
      "OST": 2355,
      "ĠLo": 2356,
      "ij": 2357,
      "Ġexperim": 2358,
      "ĠPage": 2359,
      "Ġlimit": 2360,
      "ĠSuccessful": 2361,
      "84": 2362,
      "rowser": 2363,
      "WE": 2364,
      "Ġexpos": 2365,
      "Ġpatch": 2366,
      "Ġter": 2367,
      "Ġke": 2368,
      "69": 2369,
      "57": 2370,
      "ql": 2371,
      "oded": 2372,
      "Ġline": 2373,
      "ector": 2374,
      "Ġyou": 2375,
      "Ġfree": 2376,
      "Ġsol": 2377,
      "Ġidentified": 2378,
      "Ġinvol": 2379,
      "Ġtraversal": 2380,
      "Ġoff": 2381,
      "ĠGeneration": 2382,
      "Ġpredic": 2383,
      "ants": 2384,
      "Ġscore": 2385,
      "53": 2386,
      "hed": 2387,
      "Ġreli": 2388,
      "Ġsp": 2389,
      "Ġwhether": 2390,
      "52": 2391,
      "Ġpp": 2392,
      "zation": 2393,
      "map": 2394,
      "Ġservers": 2395,
      "eries": 2396,
      "Ġmo": 2397,
      "ĊĠĠĠ": 2398,
      "grade": 2399,
      "door": 2400,
      "test": 2401,
      "Ġ0000": 2402,
      "atermark": 2403,
      "fact": 2404,
      "Ġinitial": 2405,
      "Ġrate": 2406,
      "ches": 2407,
      "Ġmon": 2408,
      "ĠLLMs": 2409,
      "bility": 2410,
      "utralization": 2411,
      "tial": 2412,
      "Ġsecure": 2413,
      "hi": 2414,
      "Ġcy": 2415,
      "ries": 2416,
      "elf": 2417,
      "Ġspecially": 2418,
      "ually": 2419,
      "54": 2420,
      "mart": 2421,
      "Ġpack": 2422,
      "Ġrunning": 2423,
      "IM": 2424,
      "Ġcapt": 2425,
      "Ġorder": 2426,
      "Ġinternal": 2427,
      "EM": 2428,
      "LLM": 2429,
      "Ġaud": 2430,
      "andid": 2431,
      "Ġcompromise": 2432,
      "ĠJavaScript": 2433,
      "Ġcomplex": 2434,
      "Ġapplications": 2435,
      "Ġlat": 2436,
      "AAAA": 2437,
      "ĠBu": 2438,
      "EEE": 2439,
      "74": 2440,
      "path": 2441,
      "ote": 2442,
      "ĠAll": 2443,
      "ĠGoogle": 2444,
      "greg": 2445,
      "sw": 2446,
      "hip": 2447,
      "ormal": 2448,
      "rame": 2449,
      "lobal": 2450,
      "js": 2451,
      "oid": 2452,
      "Ġbounds": 2453,
      "Ġwho": 2454,
      "Ġchain": 2455,
      "Ġlayer": 2456,
      "Ġbl": 2457,
      "Ġ0000000000000000": 2458,
      "Ġupd": 2459,
      "Content": 2460,
      "itle": 2461,
      "oo": 2462,
      "ĠDis": 2463,
      "Ġ?": 2464,
      "Ġpotential": 2465,
      "lp": 2466,
      "fox": 2467,
      "Ġtrust": 2468,
      "Ġobject": 2469,
      "ĠInput": 2470,
      "Ġgraph": 2471,
      "oT": 2472,
      "aging": 2473,
      "Ġchecks": 2474,
      "cle": 2475,
      "Ġcommit": 2476,
      "vious": 2477,
      "Ac": 2478,
      "Ġsmall": 2479,
      "stead": 2480,
      "des": 2481,
      "AV": 2482,
      "ĠPo": 2483,
      "ays": 2484,
      "process": 2485,
      "ded": 2486,
      "Ġoccur": 2487,
      "aly": 2488,
      "mer": 2489,
      "Ġclassified": 2490,
      "ĠSection": 2491,
      "RI": 2492,
      "Un": 2493,
      "Ġinv": 2494,
      "Ġaccuracy": 2495,
      "Ġinte": 2496,
      "antum": 2497,
      "Ġverify": 2498,
      "2025": 2499,
      "Ġcate": 2500,
      "Ġexplicit": 2501,
      "Ġmac": 2502,
      "lis": 2503,
      "Ġprivileged": 2504,
      "Ġconsider": 2505,
      "Ġattem": 2506,
      "Ġload": 2507,
      "pher": 2508,
      "ox": 2509,
      "RO": 2510,
      "EC": 2511,
      "ived": 2512,
      "59": 2513,
      "79": 2514,
      "rior": 2515,
      "Ġmake": 2516,
      "Ġintegrity": 2517,
      "source": 2518,
      "ime": 2519,
      "ditions": 2520,
      "Ġinstruction": 2521,
      "after": 2522,
      "Ġffff": 2523,
      "Ġprevent": 2524,
      "igured": 2525,
      "Ġcomputation": 2526,
      "Ġcryptograph": 2527,
      "Ġfocus": 2528,
      "irst": 2529,
      "ĠAffected": 2530,
      "ĠWhen": 2531,
      "Ġrecord": 2532,
      "Ġalign": 2533,
      "essible": 2534,
      "Ġpresent": 2535,
      "Ġactions": 2536,
      "Ġgeneral": 2537,
      "abling": 2538,
      "zz": 2539,
      "ĠNULL": 2540,
      "idden": 2541,
      "Ġlaun": 2542,
      "comp": 2543,
      "aa": 2544,
      "Ġinference": 2545,
      "ĠMy": 2546,
      "supp": 2547,
      "PC": 2548,
      "Ġpaper": 2549,
      "Ġbelow": 2550,
      "oder": 2551,
      "2024": 2552,
      "irt": 2553,
      "Ġheap": 2554,
      "Ġ2020": 2555,
      "%)": 2556,
      "Ġgroup": 2557,
      "ĠComp": 2558,
      "ĠThere": 2559,
      "Ġbenchmark": 2560,
      "ĠNeutralization": 2561,
      "UI": 2562,
      "Ġmeta": 2563,
      "ĠForgery": 2564,
      "specific": 2565,
      "ice": 2566,
      "off": 2567,
      "ĠMicrosoft": 2568,
      "Ġdocu": 2569,
      "NS": 2570,
      "Ġcorrespon": 2571,
      "Ġpatterns": 2572,
      "ĠFirefox": 2573,
      "rated": 2574,
      "ately": 2575,
      "but": 2576,
      "Ġevaluate": 2577,
      "lish": 2578,
      "Ġknowledge": 2579,
      "ĠExecution": 2580,
      "Ġchang": 2581,
      "Ġprotection": 2582,
      "ĠIBM": 2583,
      "Ġmax": 2584,
      "Ġdistribution": 2585,
      "Ġpip": 2586,
      "Ġknown": 2587,
      "Ġallowed": 2588,
      "ĠDuring": 2589,
      "DF": 2590,
      "mail": 2591,
      "Data": 2592,
      "Ġhandling": 2593,
      "Ġspace": 2594,
      "entral": 2595,
      "Ġqueries": 2596,
      "****": 2597,
      "Ġproblem": 2598,
      "At": 2599,
      "AB": 2600,
      "Uns": 2601,
      "ION": 2602,
      "stance": 2603,
      "ray": 2604,
      "Ġreve": 2605,
      "enter": 2606,
      "ef": 2607,
      "94": 2608,
      "Ġshell": 2609,
      "Ġflow": 2610,
      "72": 2611,
      "Ġmaintain": 2612,
      "Ġcandid": 2613,
      "ario": 2614,
      "ital": 2615,
      "Ġchange": 2616,
      "Ġtasks": 2617,
      "troller": 2618,
      "OT": 2619,
      "ĠTable": 2620,
      "Exploit": 2621,
      "cy": 2622,
      "aces": 2623,
      "CS": 2624,
      "ĠMo": 2625,
      "Ġenabled": 2626,
      "ĠInte": 2627,
      "As": 2628,
      "mary": 2629,
      "pected": 2630,
      "gi": 2631,
      "Ġadversary": 2632,
      "Ġalgorithm": 2633,
      "medi": 2634,
      "Ġequ": 2635,
      "Ġexecuted": 2636,
      "input": 2637,
      "Ġport": 2638,
      "tics": 2639,
      "bounds": 2640,
      "Ġdetails": 2641,
      "UG": 2642,
      "ython": 2643,
      "Ġstill": 2644,
      "Ġoften": 2645,
      "edia": 2646,
      "Ġam": 2647,
      "ĠSM": 2648,
      "Ġdynam": 2649,
      "tus": 2650,
      "dependent": 2651,
      "Ġfeatures": 2652,
      "umption": 2653,
      "Ġhuman": 2654,
      "tun": 2655,
      "ĠWang": 2656,
      "63": 2657,
      "imension": 2658,
      "ols": 2659,
      "Ġgenerated": 2660,
      "Ġendpoint": 2661,
      "51": 2662,
      "irectory": 2663,
      "reshold": 2664,
      "Ġsum": 2665,
      "Ġstep": 2666,
      "Ġ+=": 2667,
      "ĠFigure": 2668,
      "ponent": 2669,
      "index": 2670,
      "only": 2671,
      "xy": 2672,
      "Ġproducts": 2673,
      "vents": 2674,
      "ĠSim": 2675,
      "Ġchannel": 2676,
      "dec": 2677,
      "2020": 2678,
      "ng": 2679,
      "alloc": 2680,
      "han": 2681,
      "ĠTech": 2682,
      "Bu": 2683,
      "rop": 2684,
      "ĠOver": 2685,
      "aj": 2686,
      "Ġdatasets": 2687,
      "Ġincorrect": 2688,
      "hand": 2689,
      "ented": 2690,
      "control": 2691,
      "Ġstudy": 2692,
      "Ġoriginal": 2693,
      "Ġ2021": 2694,
      "ulate": 2695,
      "db": 2696,
      "wise": 2697,
      "Ġaccessible": 2698,
      "pecified": 2699,
      "tant": 2700,
      ".\"": 2701,
      "aka": 2702,
      "Ġtokens": 2703,
      "Ġmitig": 2704,
      "Ġ000000000000": 2705,
      "Ġproof": 2706,
      "ĠSE": 2707,
      "Ġlever": 2708,
      "Ġexternal": 2709,
      "ii": 2710,
      "Ġengine": 2711,
      "ready": 2712,
      "Ġmechanisms": 2713,
      "Ġlogin": 2714,
      "Ġconnec": 2715,
      "Ġmessages": 2716,
      "DE": 2717,
      "Ġsupport": 2718,
      "http": 2719,
      "LS": 2720,
      "Ġbug": 2721,
      "User": 2722,
      "ĠPer": 2723,
      "Ġfact": 2724,
      "73": 2725,
      "Ġsending": 2726,
      "top": 2727,
      "Ġgra": 2728,
      "lease": 2729,
      "break": 2730,
      "ĠOur": 2731,
      "Ġsignature": 2732,
      "Ġlibrary": 2733,
      "Ġdid": 2734,
      "Ġmode": 2735,
      "irtual": 2736,
      "dri": 2737,
      "ĠZhang": 2738,
      "sers": 2739,
      "arn": 2740,
      "lick": 2741,
      "Ġleverage": 2742,
      "61": 2743,
      "ert": 2744,
      "poof": 2745,
      "cial": 2746,
      "Ġpoint": 2747,
      "tering": 2748,
      "Ġextract": 2749,
      "Ġprovided": 2750,
      "Ġaffect": 2751,
      "Unspecified": 2752,
      "71": 2753,
      "iting": 2754,
      "Ġsamples": 2755,
      "iated": 2756,
      "\"\\": 2757,
      "83": 2758,
      "Ġcannot": 2759,
      "device": 2760,
      "Ġflag": 2761,
      "mented": 2762,
      "Ġcapability": 2763,
      "93": 2764,
      "application": 2765,
      "Ġdelete": 2766,
      "way": 2767,
      "Al": 2768,
      "Ġlater": 2769,
      "Ġproposed": 2770,
      "ĠMe": 2771,
      "Ġhy": 2772,
      "ĠSupp": 2773,
      "ets": 2774,
      "obile": 2775,
      "Ġbrowser": 2776,
      "Ġnode": 2777,
      "arios": 2778,
      "conn": 2779,
      "OC": 2780,
      "ĠConf": 2781,
      "iddle": 2782,
      "alysis": 2783,
      "ĠTrans": 2784,
      "bug": 2785,
      "Ġexploitable": 2786,
      "Ġuni": 2787,
      "Ġintended": 2788,
      "iness": 2789,
      "Ġexploited": 2790,
      "ĠEle": 2791,
      "Ġadministrator": 2792,
      "Po": 2793,
      "check": 2794,
      "tension": 2795,
      "stream": 2796,
      "IS": 2797,
      "ĠIEEE": 2798,
      "Ġloss": 2799,
      "62": 2800,
      "Ġcommunication": 2801,
      "US": 2802,
      "rastructure": 2803,
      "ĠSpec": 2804,
      "Ġbuild": 2805,
      "Ġpart": 2806,
      "Ġdere": 2807,
      "Ġparticular": 2808,
      "Ġdecision": 2809,
      "Ġsecond": 2810,
      "Ġassoc": 2811,
      "ĠAss": 2812,
      "ĠQu": 2813,
      "rix": 2814,
      "Ġcli": 2815,
      "Ġemail": 2816,
      "Ġdemonstrated": 2817,
      "xc": 2818,
      "ĠRec": 2819,
      "Ġcomplete": 2820,
      "Ġextension": 2821,
      "500": 2822,
      "Ġhttp": 2823,
      "2023": 2824,
      "inline": 2825,
      "Ġlabel": 2826,
      "Ġinputs": 2827,
      "Ġmetric": 2828,
      "Ġcharacter": 2829,
      "Ġlogic": 2830,
      "Ġstruct": 2831,
      "Ġinjected": 2832,
      "\\\\": 2833,
      "Ġmem": 2834,
      "Tra": 2835,
      "PS": 2836,
      "hes": 2837,
      "Ġformat": 2838,
      "izing": 2839,
      "Ġmachine": 2840,
      "Ġgiven": 2841,
      "Ġunders": 2842,
      "ED": 2843,
      "tice": 2844,
      "87": 2845,
      "ND": 2846,
      "tand": 2847,
      "CR": 2848,
      "tives": 2849,
      "ĠVer": 2850,
      "Ġminim": 2851,
      "local": 2852,
      "Ġsanitization": 2853,
      "xd": 2854,
      "Conf": 2855,
      "ithub": 2856,
      "ised": 2857,
      "liance": 2858,
      "Ġvector": 2859,
      "Ġadap": 2860,
      "Ġzero": 2861,
      "ĠAuthor": 2862,
      "ĠUp": 2863,
      "position": 2864,
      "gers": 2865,
      "Ġheader": 2866,
      "target": 2867,
      "Type": 2868,
      "gan": 2869,
      "ĠCPU": 2870,
      "lim": 2871,
      "Ġpreser": 2872,
      "world": 2873,
      "Ġcandidate": 2874,
      "CH": 2875,
      "Ġhardware": 2876,
      "ferences": 2877,
      "size": 2878,
      "ysical": 2879,
      "incl": 2880,
      "Ġtechniques": 2881,
      "uzz": 2882,
      "CSRF": 2883,
      "nder": 2884,
      "comple": 2885,
      "aran": 2886,
      "Ġdriver": 2887,
      "IF": 2888,
      "scal": 2889,
      "ĠWP": 2890,
      "versity": 2891,
      "sc": 2892,
      "Ġdefense": 2893,
      "Ġchallenge": 2894,
      "Ġreference": 2895,
      "Ġ2022": 2896,
      "agent": 2897,
      "fe": 2898,
      "2019": 2899,
      "ĠJun": 2900,
      "Ġoutputs": 2901,
      "Ġinstance": 2902,
      "Ġlock": 2903,
      "92": 2904,
      "plor": 2905,
      "Ġcalls": 2906,
      "produ": 2907,
      "eam": 2908,
      "On": 2909,
      "formed": 2910,
      "Ġclear": 2911,
      "Ġcomponents": 2912,
      "ĠPh": 2913,
      "Res": 2914,
      "memory": 2915,
      "IBM": 2916,
      "AX": 2917,
      "ĠLog": 2918,
      "anti": 2919,
      "Ġremains": 2920,
      "Ġcases": 2921,
      "Ġthird": 2922,
      "cus": 2923,
      "ĠUni": 2924,
      "Ġconditions": 2925,
      "Sh": 2926,
      "Ġresource": 2927,
      "Ġauthorization": 2928,
      "Ġshows": 2929,
      "Ġensure": 2930,
      "tention": 2931,
      "Ġestab": 2932,
      "ĠmacOS": 2933,
      "ensor": 2934,
      "ators": 2935,
      "Ġ--": 2936,
      "Web": 2937,
      "server": 2938,
      "Ġevent": 2939,
      "Ġearly": 2940,
      "Ġvol": 2941,
      "Ġpoison": 2942,
      "signed": 2943,
      "alth": 2944,
      "Vulnerability": 2945,
      "Ġshown": 2946,
      "Ġmeasure": 2947,
      "Ġachieve": 2948,
      "asing": 2949,
      "Date": 2950,
      "Ġhigher": 2951,
      "ression": 2952,
      "unk": 2953,
      "ĠDen": 2954,
      "ele": 2955,
      "xim": 2956,
      "ili": 2957,
      "ĠRE": 2958,
      "rompt": 2959,
      "Ġvalidate": 2960,
      "Ġstrong": 2961,
      "xb": 2962,
      "Ġvendor": 2963,
      "Ġnoise": 2964,
      "Ġalready": 2965,
      "ĠEd": 2966,
      "return": 2967,
      "ĠGu": 2968,
      "obe": 2969,
      "import": 2970,
      "wit": 2971,
      "ken": 2972,
      "Ġ22": 2973,
      "Ġevery": 2974,
      "Ġenabling": 2975,
      "sed": 2976,
      "Ġwatermark": 2977,
      "Ġbro": 2978,
      "send": 2979,
      "Ġinstead": 2980,
      "ĠPre": 2981,
      "rome": 2982,
      "Ġassess": 2983,
      "Ġcertificate": 2984,
      "Ġleg": 2985,
      "ĠComput": 2986,
      "let": 2987,
      "web": 2988,
      "Ġcomb": 2989,
      "XX": 2990,
      "No": 2991,
      "001": 2992,
      "post": 2993,
      "Ġcore": 2994,
      "mes": 2995,
      "uture": 2996,
      "2017": 2997,
      "ceedings": 2998,
      "ĠChen": 2999,
      "ifi": 3000,
      "Agent": 3001,
      "Ġprevious": 3002,
      "Ġbenign": 3003,
      "Ġaggreg": 3004,
      "NN": 3005,
      "ĠAg": 3006,
      "Ġinvalid": 3007,
      "Ġgenerate": 3008,
      "82": 3009,
      "Ġweak": 3010,
      "open": 3011,
      "Ġtransaction": 3012,
      "tal": 3013,
      "which": 3014,
      "PE": 3015,
      "ĠGit": 3016,
      "ception": 3017,
      "Ġfine": 3018,
      "irection": 3019,
      "wen": 3020,
      "Ġsus": 3021,
      "umer": 3022,
      "Ġcook": 3023,
      "Ġ2019": 3024,
      "ĠRef": 3025,
      "github": 3026,
      "SD": 3027,
      "plate": 3028,
      "ĠConference": 3029,
      "Ġhead": 3030,
      "][": 3031,
      "loud": 3032,
      "Ġself": 3033,
      "Ġarchitecture": 3034,
      "UT": 3035,
      "orage": 3036,
      "Ġconduct": 3037,
      "Ġimpacts": 3038,
      "Ġlay": 3039,
      "Ġkeys": 3040,
      "ming": 3041,
      "Ġservices": 3042,
      "Ġrecover": 3043,
      "DM": 3044,
      "Ġci": 3045,
      "App": 3046,
      "Ġ%": 3047,
      "Ġcustom": 3048,
      "ĠWork": 3049,
      "Ġrange": 3050,
      "Ġactiv": 3051,
      "Ġcontaining": 3052,
      "91": 3053,
      "Author": 3054,
      "ĊĊ": 3055,
      "ĠBase": 3056,
      "'t": 3057,
      "Ġ21": 3058,
      "enses": 3059,
      "exe": 3060,
      "arante": 3061,
      "tage": 3062,
      "Ġ24": 3063,
      "iter": 3064,
      "Platform": 3065,
      "aim": 3066,
      "ama": 3067,
      "Ġconfir": 3068,
      "igital": 3069,
      "Ġcompar": 3070,
      "ĠPrior": 3071,
      "Ġsection": 3072,
      "DoS": 3073,
      "Ġeas": 3074,
      "Ġ_": 3075,
      "cs": 3076,
      "ired": 3077,
      "run": 3078,
      "vant": 3079,
      "ults": 3080,
      "vidence": 3081,
      "entry": 3082,
      "init": 3083,
      "ĠWhile": 3084,
      "class": 3085,
      "Ġencryption": 3086,
      "ĠEngine": 3087,
      "St": 3088,
      "ura": 3089,
      "Ġembedding": 3090,
      "ither": 3091,
      "cgi": 3092,
      "Ġtypes": 3093,
      "Ġperson": 3094,
      "Ġown": 3095,
      "ĠCl": 3096,
      "Ġescaping": 3097,
      "FL": 3098,
      "Ġbase": 3099,
      "ĠCR": 3100,
      "Ġdetermin": 3101,
      "Ġaddressed": 3102,
      "Ġspoof": 3103,
      "ĠLink": 3104,
      "Ġvar": 3105,
      "new": 3106,
      "':": 3107,
      "Ġlimited": 3108,
      "110": 3109,
      "cep": 3110,
      "Dis": 3111,
      "Ġ==": 3112,
      "Ġanother": 3113,
      "Ġscenarios": 3114,
      "sig": 3115,
      "rm": 3116,
      "gory": 3117,
      "aster": 3118,
      "xe": 3119,
      "ĠAgent": 3120,
      "ĠScore": 3121,
      "Ġstatic": 3122,
      "Ġability": 3123,
      "perform": 3124,
      "Ġreport": 3125,
      "Ġhandle": 3126,
      "ĠFix": 3127,
      "Ġcryptographic": 3128,
      "ijack": 3129,
      "ename": 3130,
      "Ġsa": 3131,
      "Ġimpor": 3132,
      "Ġtriggers": 3133,
      "ecess": 3134,
      "llig": 3135,
      "Ġposi": 3136,
      "81": 3137,
      "pache": 3138,
      "Ġtempor": 3139,
      "turb": 3140,
      "Ġsql": 3141,
      "trans": 3142,
      "Ġaddresses": 3143,
      "ĠXML": 3144,
      "Ġidentifier": 3145,
      "Ġsequence": 3146,
      "Man": 3147,
      "Ġresources": 3148,
      "Ġhash": 3149,
      "place": 3150,
      "ailbreak": 3151,
      "Ġdereference": 3152,
      "Net": 3153,
      "cons": 3154,
      "Ġfailure": 3155,
      "Ġdeployment": 3156,
      "Ġbaseline": 3157,
      "Ġrobustness": 3158,
      "divid": 3159,
      "ĠTitle": 3160,
      "Ġeffective": 3161,
      "Ġcoun": 3162,
      "Ġrole": 3163,
      "Ġfalse": 3164,
      "Ġgap": 3165,
      "under": 3166,
      "Ġreported": 3167,
      "Ġsecret": 3168,
      "arXiv": 3169,
      "lished": 3170,
      "Ġimprove": 3171,
      "ah": 3172,
      "trusted": 3173,
      "Ġthose": 3174,
      "Ġshort": 3175,
      "elines": 3176,
      "Ġpair": 3177,
      "Ġapproaches": 3178,
      "ank": 3179,
      "fd": 3180,
      "ĠProcess": 3181,
      "Ġques": 3182,
      "Ġfour": 3183,
      "vi": 3184,
      "Ġthreshold": 3185,
      "mem": 3186,
      "parse": 3187,
      "Ġassociated": 3188,
      "secure": 3189,
      "ĠChrome": 3190,
      "veness": 3191,
      "Ġfin": 3192,
      "ĠSite": 3193,
      "ĠAdd": 3194,
      "pack": 3195,
      "Ġachieves": 3196,
      "Ġder": 3197,
      "Ġmatch": 3198,
      "Ġ100": 3199,
      "like": 3200,
      "Ġbit": 3201,
      "Ġenables": 3202,
      "Ġstar": 3203,
      "Accept": 3204,
      "inger": 3205,
      "Ġparsing": 3206,
      "Ġdownload": 3207,
      "Ġharm": 3208,
      "Ġcontribu": 3209,
      "cra": 3210,
      "Ġpreprint": 3211,
      "Ġinser": 3212,
      "len": 3213,
      "Ġconfidentiality": 3214,
      "Ġmaking": 3215,
      "Ġrespec": 3216,
      "Ġdesigned": 3217,
      "sec": 3218,
      "ĊĠĠĠĠ": 3219,
      "Ġutility": 3220,
      "xa": 3221,
      "VM": 3222,
      "Ġavoid": 3223,
      "type": 3224,
      "Ġfollows": 3225,
      "ideo": 3226,
      "ĠDenial": 3227,
      "acc": 3228,
      "Ġmany": 3229,
      "ĠHome": 3230,
      "Ġdocument": 3231,
      "ov": 3232,
      "().": 3233,
      "TS": 3234,
      "pc": 3235,
      "ĠSol": 3236,
      "Ġsample": 3237,
      "ĠTr": 3238,
      "Ġbackdoor": 3239,
      "Ġcapture": 3240,
      "1111": 3241,
      "Ġstore": 3242,
      "pping": 3243,
      "Ġseveral": 3244,
      "ref": 3245,
      "Ġconta": 3246,
      "HE": 3247,
      "Ġscenario": 3248,
      "overn": 3249,
      "IA": 3250,
      "ium": 3251,
      "Ġrig": 3252,
      "ulated": 3253,
      "ingu": 3254,
      "zed": 3255,
      "msg": 3256,
      "illa": 3257,
      "Open": 3258,
      "Ġconstraints": 3259,
      "ights": 3260,
      "Ġpractical": 3261,
      "istribu": 3262,
      "indow": 3263,
      "ATE": 3264,
      "Ġstatis": 3265,
      "Ġsug": 3266,
      "ĠMySQL": 3267,
      "Ġoperation": 3268,
      "usiness": 3269,
      "apping": 3270,
      "Ġprompts": 3271,
      "2021": 3272,
      "Ġrepos": 3273,
      "Ġadvan": 3274,
      "Ġbuil": 3275,
      "Ġcommon": 3276,
      "rec": 3277,
      "Ġshared": 3278,
      "Ġimages": 3279,
      "Log": 3280,
      "oot": 3281,
      "IG": 3282,
      "Ġsuccess": 3283,
      "clusion": 3284,
      "Ġprotocols": 3285,
      "ĠInter": 3286,
      "safe": 3287,
      "Ġglobal": 3288,
      "Ġhelp": 3289,
      "Ġfinal": 3290,
      "ĠInteg": 3291,
      "ĠPlugin": 3292,
      "bl": 3293,
      "Ġsepa": 3294,
      "Ġnormal": 3295,
      "state": 3296,
      "Ġclients": 3297,
      "ES": 3298,
      "Ġyield": 3299,
      "Ġpackets": 3300,
      "ĠDi": 3301,
      "image": 3302,
      "board": 3303,
      "Ġsee": 3304,
      "login": 3305,
      "Ġvariable": 3306,
      "MP": 3307,
      "fc": 3308,
      "Ġconstruct": 3309,
      "Ġvi": 3310,
      "sol": 3311,
      "plit": 3312,
      "Ġobjects": 3313,
      "security": 3314,
      "ĠLearning": 3315,
      "Ġyour": 3316,
      "Buffer": 3317,
      "ody": 3318,
      "function": 3319,
      "Ġobtained": 3320,
      "Ġnetworks": 3321,
      "rations": 3322,
      "Ġidentity": 3323,
      "Ġavailability": 3324,
      "Ġsignificantly": 3325,
      "script": 3326,
      "eo": 3327,
      "Ġcorresponding": 3328,
      "Ġarg": 3329,
      "xml": 3330,
      "ync": 3331,
      "ĠEas": 3332,
      "Ġpower": 3333,
      "Ġfrequ": 3334,
      "ĠSC": 3335,
      "Ġtop": 3336,
      "andbox": 3337,
      "Ġdefined": 3338,
      "password": 3339,
      "CVE": 3340,
      "Ġwhat": 3341,
      "Ġreview": 3342,
      "Ġcapabilities": 3343,
      "Ġprobability": 3344,
      "ĠDP": 3345,
      "Ġguarante": 3346,
      "xx": 3347,
      "ĠiOS": 3348,
      "Ġconsist": 3349,
      "valuation": 3350,
      "NI": 3351,
      "Ġphp": 3352,
      "pri": 3353,
      "ĠLiu": 3354,
      "Ġsince": 3355,
      "Ġlower": 3356,
      "Ġpackage": 3357,
      "Ġcategor": 3358,
      "ĠHe": 3359,
      "Ġpipeline": 3360,
      "Ġiter": 3361,
      "ĠDate": 3362,
      "cription": 3363,
      "FF": 3364,
      "Ġupgrade": 3365,
      "ati": 3366,
      "ĠVendor": 3367,
      "light": 3368,
      "Ġtrusted": 3369,
      "hibit": 3370,
      "Ġmonitor": 3371,
      "Ġdistin": 3372,
      "tifact": 3373,
      "ĠCor": 3374,
      "tex": 3375,
      "ĠHu": 3376,
      "Ġnodes": 3377,
      "Ġtrace": 3378,
      "Ġaccoun": 3379,
      "Ġoperating": 3380,
      "istration": 3381,
      "Ġwrit": 3382,
      "Ġunderstand": 3383,
      "ories": 3384,
      "forcement": 3385,
      "Ġfails": 3386,
      "change": 3387,
      "Ġfields": 3388,
      "Set": 3389,
      "TT": 3390,
      "eder": 3391,
      "tiveness": 3392,
      "Ġparticip": 3393,
      "ĠSec": 3394,
      "Ġuntrusted": 3395,
      "more": 3396,
      "raw": 3397,
      "Code": 3398,
      "oice": 3399,
      "cope": 3400,
      "ĠSystems": 3401,
      "lex": 3402,
      "Ġff": 3403,
      "Ġsys": 3404,
      "ination": 3405,
      "Ġsynthe": 3406,
      "Our": 3407,
      "`,": 3408,
      "Ġind": 3409,
      "max": 3410,
      "Ġneg": 3411,
      "Ġrela": 3412,
      "abled": 3413,
      "Ġreveal": 3414,
      "Ġrepe": 3415,
      "Ġcontract": 3416,
      "Ġindivid": 3417,
      "Ġrout": 3418,
      "PHP": 3419,
      "Ar": 3420,
      "component": 3421,
      "CL": 3422,
      "ĠConn": 3423,
      "--------------------------------": 3424,
      "Ġcontinu": 3425,
      "erson": 3426,
      "Ġruntime": 3427,
      "ĠFe": 3428,
      "ĠProceedings": 3429,
      "Ġtotal": 3430,
      "Ġpattern": 3431,
      "ĠInd": 3432,
      "Ġdown": 3433,
      "Ġconfigured": 3434,
      "Ġmetadata": 3435,
      "},": 3436,
      "Ben": 3437,
      "Ġbytes": 3438,
      "ons": 3439,
      "though": 3440,
      "`.": 3441,
      "entic": 3442,
      "ĠAdmin": 3443,
      "pf": 3444,
      "uc": 3445,
      "Ġestim": 3446,
      "matic": 3447,
      "inition": 3448,
      "Ġattributes": 3449,
      "atically": 3450,
      "tition": 3451,
      "Ġclean": 3452,
      "Ġintroduce": 3453,
      "Ġinteger": 3454,
      "ba": 3455,
      "Ins": 3456,
      "ĠSet": 3457,
      "Ġunique": 3458,
      "Ġsafe": 3459,
      "Sec": 3460,
      "Ġappear": 3461,
      "Ġec": 3462,
      "Ġ32": 3463,
      "Ġprec": 3464,
      "ensive": 3465,
      "ĠApple": 3466,
      "Ġcauses": 3467,
      "Ġcipher": 3468,
      "nical": 3469,
      "afety": 3470,
      "Ġevidence": 3471,
      "payload": 3472,
      "Ġoverhead": 3473,
      "endix": 3474,
      "Ġphysical": 3475,
      "domain": 3476,
      "ilege": 3477,
      "CC": 3478,
      "Ġmark": 3479,
      "Ġinstallations": 3480,
      "File": 3481,
      "df": 3482,
      "ĠCMS": 3483,
      "orem": 3484,
      "ĠVector": 3485,
      "Hub": 3486,
      "Ġsent": 3487,
      "Ġencrypted": 3488,
      "Ġsym": 3489,
      "ĠOb": 3490,
      "itory": 3491,
      "Ġobjec": 3492,
      "Ġworkflow": 3493,
      "lies": 3494,
      "Ġenvironments": 3495,
      "entation": 3496,
      "crete": 3497,
      "ĠInternet": 3498,
      "hing": 3499,
      "press": 3500,
      "ĠMulti": 3501,
      "pu": 3502,
      "ĠRed": 3503,
      "pare": 3504,
      "Gu": 3505,
      "asp": 3506,
      "info": 3507,
      "ock": 3508,
      "lay": 3509,
      "Ġusage": 3510,
      "Ġloop": 3511,
      "ĠCons": 3512,
      "ĠForm": 3513,
      "================================": 3514,
      "stanti": 3515,
      "block": 3516,
      "OL": 3517,
      "Ġaccesses": 3518,
      "Ġinc": 3519,
      "(),": 3520,
      "itation": 3521,
      "Ġinterpre": 3522,
      "FS": 3523,
      "Ġpatched": 3524,
      "ibility": 3525,
      "Ġscheme": 3526,
      "xf": 3527,
      "oll": 3528,
      "api": 3529,
      "Ġexist": 3530,
      "uan": 3531,
      "Ġtypically": 3532,
      "ĠApache": 3533,
      "Name": 3534,
      "onger": 3535,
      "ives": 3536,
      "fficiency": 3537,
      "ĠSSL": 3538,
      "Ġtag": 3539,
      "300": 3540,
      "ĠFil": 3541,
      "Ġusername": 3542,
      "Ġproject": 3543,
      "ĠPrivacy": 3544,
      ">]": 3545,
      "Ġincludes": 3546,
      "Fig": 3547,
      "Ġrestrictions": 3548,
      "ĠDef": 3549,
      "lash": 3550,
      "Ġhijack": 3551,
      "Des": 3552,
      "doc": 3553,
      "Ġcalled": 3554,
      "earch": 3555,
      "Ġorgan": 3556,
      "tional": 3557,
      "Ġformal": 3558,
      "Ġpaths": 3559,
      "Ġcomparison": 3560,
      "Ġill": 3561,
      "ously": 3562,
      "ĠPython": 3563,
      "ĠASR": 3564,
      "Ġrisks": 3565,
      "Ġrecon": 3566,
      "Ġisol": 3567,
      "fix": 3568,
      "used": 3569,
      "inally": 3570,
      "Ġcir": 3571,
      "HT": 3572,
      "Ġupdates": 3573,
      "files": 3574,
      "ĠPar": 3575,
      "++": 3576,
      "Sta": 3577,
      "ĠSub": 3578,
      "Ġentry": 3579,
      "istics": 3580,
      "tech": 3581,
      "tig": 3582,
      "Ġ48": 3583,
      "Ġauthor": 3584,
      "nology": 3585,
      "ĠReflected": 3586,
      "itial": 3587,
      "Ġexperiments": 3588,
      "cat": 3589,
      "Ġsubset": 3590,
      "Ġcompu": 3591,
      "vm": 3592,
      "ĠProduct": 3593,
      "Ġbal": 3594,
      "supplied": 3595,
      "irical": 3596,
      "Attack": 3597,
      "Ġthus": 3598,
      "Ġside": 3599,
      "Ġleakage": 3600,
      "ĠSeries": 3601,
      "Ġtransfer": 3602,
      "Ġclick": 3603,
      "Ġnames": 3604,
      "ĠExt": 3605,
      "close": 3606,
      "ING": 3607,
      "NT": 3608,
      "ĠMod": 3609,
      "Ġvarious": 3610,
      "Ġnext": 3611,
      "atural": 3612,
      "bersecurity": 3613,
      "pot": 3614,
      "shell": 3615,
      "../": 3616,
      "ĠInternational": 3617,
      "Windows": 3618,
      "controlled": 3619,
      "CVSS": 3620,
      "Ġredirect": 3621,
      "Ġchanges": 3622,
      "tach": 3623,
      "rupt": 3624,
      "task": 3625,
      "IR": 3626,
      "MA": 3627,
      "uster": 3628,
      "Ġquanti": 3629,
      "Ġadministrative": 3630,
      "Ġmetrics": 3631,
      "Ġmaxim": 3632,
      "Ġchallenges": 3633,
      "Ġperturb": 3634,
      "Ġsubs": 3635,
      "ology": 3636,
      "Ġsatis": 3637,
      "='": 3638,
      "Ġtake": 3639,
      "ises": 3640,
      "aware": 3641,
      "rick": 3642,
      "Ġissues": 3643,
      "active": 3644,
      "Ġemploy": 3645,
      "Ġlogs": 3646,
      "Ġdynamic": 3647,
      "cd": 3648,
      "150": 3649,
      "Ġdiscus": 3650,
      "ene": 3651,
      "plain": 3652,
      "mine": 3653,
      "denti": 3654,
      "ocial": 3655,
      "Ġimproved": 3656,
      "vail": 3657,
      "son": 3658,
      "ĠPOST": 3659,
      "ĠDNS": 3660,
      "ĠBe": 3661,
      "cent": 3662,
      "anel": 3663,
      "ĠLocal": 3664,
      "Ġru": 3665,
      "tings": 3666,
      "System": 3667,
      "Ġobserved": 3668,
      "Ġdefenses": 3669,
      "Ġrecomm": 3670,
      "Service": 3671,
      "this": 3672,
      "2022": 3673,
      "essage": 3674,
      "Ġ23": 3675,
      "+]": 3676,
      "Ġinfrastructure": 3677,
      "CA": 3678,
      "ĠAcc": 3679,
      "around": 3680,
      "zilla": 3681,
      "reen": 3682,
      "Ġ26": 3683,
      "fus": 3684,
      "FT": 3685,
      "Ġmap": 3686,
      "version": 3687,
      "\">": 3688,
      "apps": 3689,
      "otes": 3690,
      "service": 3691,
      "Ġresponses": 3692,
      "ditionally": 3693,
      "Ġindividual": 3694,
      "Ġrespond": 3695,
      "zip": 3696,
      "sequently": 3697,
      "Ġstrategies": 3698,
      "aged": 3699,
      "ĠTested": 3700,
      "nique": 3701,
      "Ġrules": 3702,
      "Ġclassification": 3703,
      "Ġsteps": 3704,
      "When": 3705,
      "kernel": 3706,
      "lama": 3707,
      "Ġplain": 3708,
      "gorithms": 3709,
      "Ġcloud": 3710,
      "ĠKey": 3711,
      "Link": 3712,
      "---": 3713,
      "Ġsuccessfully": 3714,
      "Ġelement": 3715,
      "Ġstart": 3716,
      "Ġconnection": 3717,
      "Server": 3718,
      "Le": 3719,
      "Ġevaluated": 3720,
      "ĠHomepage": 3721,
      "2018": 3722,
      "Ġround": 3723,
      "Ġplan": 3724,
      "perim": 3725,
      "thread": 3726,
      "ĠSuite": 3727,
      "Ġtimes": 3728,
      "Ġstrategy": 3729,
      "OP": 3730,
      "Ġalignment": 3731,
      "Ġfuture": 3732,
      "Ġdemonstrate": 3733,
      "complete": 3734,
      "Rec": 3735,
      "value": 3736,
      "exit": 3737,
      "mitted": 3738,
      "Ġsufficient": 3739,
      "aw": 3740,
      "Ġwhenever": 3741,
      "tors": 3742,
      "pi": 3743,
      "ift": 3744,
      "unc": 3745,
      "urn": 3746,
      "ctl": 3747,
      "Ġlayers": 3748,
      "Ġoptimization": 3749,
      "ĠEm": 3750,
      "part": 3751,
      "ĠCommand": 3752,
      "ho": 3753,
      "Ġunderlying": 3754,
      "CMS": 3755,
      "ffice": 3756,
      "sole": 3757,
      "erial": 3758,
      "cum": 3759,
      "Ġharmful": 3760,
      "Ġcache": 3761,
      "Ġregister": 3762,
      "ĠAuthorization": 3763,
      "issing": 3764,
      "Ġentire": 3765,
      "ĠAP": 3766,
      "count": 3767,
      "ising": 3768,
      "olicies": 3769,
      "ror": 3770,
      "itim": 3771,
      "Ġnecess": 3772,
      "ĠCSC": 3773,
      "Force": 3774,
      "Ġquantum": 3775,
      "Ġlatency": 3776,
      ")(": 3777,
      "He": 3778,
      "Qu": 3779,
      "Ġoccurs": 3780,
      "Ġstructured": 3781,
      "tary": 3782,
      "........": 3783,
      "down": 3784,
      "Ġfund": 3785,
      "Ġcount": 3786,
      "common": 3787,
      "pus": 3788,
      "Ġretur": 3789,
      "aring": 3790,
      "udget": 3791,
      "ĠAuthentication": 3792,
      "Ġapplied": 3793,
      "uch": 3794,
      "Ġfs": 3795,
      "queue": 3796,
      "Ġsmart": 3797,
      "utions": 3798,
      "Ġstream": 3799,
      "Ġexpected": 3800,
      "Ġskill": 3801,
      "lligence": 3802,
      "rad": 3803,
      "etter": 3804,
      "Ġsetup": 3805,
      "Ġprin": 3806,
      "unity": 3807,
      "Ġparty": 3808,
      "ĠVM": 3809,
      "ully": 3810,
      "Ġsimple": 3811,
      "Ġpropose": 3812,
      "ĠCL": 3813,
      "Ġshare": 3814,
      "tribut": 3815,
      "Ġoption": 3816,
      "oper": 3817,
      "[+]": 3818,
      "Wh": 3819,
      "Ġeither": 3820,
      "Ġconver": 3821,
      "ĠVal": 3822,
      "ground": 3823,
      "ĠUpdate": 3824,
      "Ġtrue": 3825,
      "Ġacce": 3826,
      "ĠApplication": 3827,
      "asan": 3828,
      "Ġproperties": 3829,
      "Ġemp": 3830,
      "content": 3831,
      "ters": 3832,
      "Ġexhibit": 3833,
      "Ġdimension": 3834,
      "weight": 3835,
      "Ġrelease": 3836,
      "ĠCo": 3837,
      "points": 3838,
      "ĠReg": 3839,
      "ĠAnalysis": 3840,
      "vey": 3841,
      "GPT": 3842,
      "ĠVersions": 3843,
      "brid": 3844,
      "dule": 3845,
      "filter": 3846,
      "ĠIntel": 3847,
      "Ġ2018": 3848,
      "ands": 3849,
      "ĠSecure": 3850,
      "Ġnow": 3851,
      "Ġcharacters": 3852,
      "CAN": 3853,
      "Ġtesting": 3854,
      "Ġclose": 3855,
      "ĠMon": 3856,
      "Ġcausing": 3857,
      "ui": 3858,
      "ĠJS": 3859,
      "Ġillust": 3860,
      "Ġescape": 3861,
      "Ġnull": 3862,
      "shot": 3863,
      "Ġperforming": 3864,
      "ĠUI": 3865,
      "posi": 3866,
      "Ġspecial": 3867,
      "cf": 3868,
      "SH": 3869,
      "eh": 3870,
      "ptions": 3871,
      "learning": 3872,
      "ĠEach": 3873,
      "ĠML": 3874,
      "ĠWas": 3875,
      "CO": 3876,
      "Ġprocesses": 3877,
      "Key": 3878,
      "COM": 3879,
      "ways": 3880,
      "vised": 3881,
      "ĊĠĠĠĠĠĠĠ": 3882,
      "tep": 3883,
      "isted": 3884,
      "ryption": 3885,
      "Ġfilter": 3886,
      "iers": 3887,
      "Ġattribute": 3888,
      "group": 3889,
      "Ġviol": 3890,
      "ending": 3891,
      "output": 3892,
      "zing": 3893,
      "ĠCloud": 3894,
      "mb": 3895,
      "ards": 3896,
      "Ġinitiated": 3897,
      "ĠCy": 3898,
      "Ġ25": 3899,
      "Ġeffectively": 3900,
      "ĠOut": 3901,
      "hensive": 3902,
      "Ġless": 3903,
      "etch": 3904,
      "ĠMac": 3905,
      "ĠPDF": 3906,
      "101": 3907,
      "cmd": 3908,
      "Ġtre": 3909,
      "store": 3910,
      "Ġgoal": 3911,
      "Ġinstructions": 3912,
      "Ġincreasing": 3913,
      "dient": 3914,
      "rict": 3915,
      "Ġforgery": 3916,
      "Ġclaim": 3917,
      "Ġtermin": 3918,
      "Ġlaunched": 3919,
      "Ġmatrix": 3920,
      "Ġtak": 3921,
      "UC": 3922,
      "ĠLet": 3923,
      "Based": 3924,
      "Ġmade": 3925,
      "Ġms": 3926,
      "related": 3927,
      "Ġsignal": 3928,
      "UM": 3929,
      "ileged": 3930,
      "URL": 3931,
      "geted": 3932,
      "umber": 3933,
      "Microsoft": 3934,
      "venance": 3935,
      "ĠAdvan": 3936,
      "token": 3937,
      "Ġartifact": 3938,
      "Ġseg": 3939,
      "Ġefficient": 3940,
      "vestig": 3941,
      "gy": 3942,
      "eople": 3943,
      "ton": 3944,
      "256": 3945,
      "Ġselect": 3946,
      ".:": 3947,
      "Ġhidden": 3948,
      "Ġvisual": 3949,
      "Ġdistinct": 3950,
      "Ġassigned": 3951,
      "Ġapply": 3952,
      "ops": 3953,
      "ĠNet": 3954,
      "stances": 3955,
      "ably": 3956,
      "Ġcomplexity": 3957,
      "Ġ2017": 3958,
      "Ġattempt": 3959,
      "fusc": 3960,
      "Ġrely": 3961,
      "using": 3962,
      "itimate": 3963,
      "Model": 3964,
      "Ġintroduced": 3965,
      "pper": 3966,
      "Ġscan": 3967,
      "ctive": 3968,
      "ben": 3969,
      "Ġsandbox": 3970,
      "tart": 3971,
      "tative": 3972,
      "ardware": 3973,
      "Enc": 3974,
      "120": 3975,
      "Ġheaders": 3976,
      "Ġmy": 3977,
      "while": 3978,
      "Ġactive": 3979,
      "By": 3980,
      "Ġtrack": 3981,
      "Ġlearn": 3982,
      "encies": 3983,
      "ĠServices": 3984,
      "Def": 3985,
      "800": 3986,
      "ds": 3987,
      "each": 3988,
      "################": 3989,
      "auth": 3990,
      "Ġworkaround": 3991,
      "volution": 3992,
      "book": 3993,
      "late": 3994,
      "ux": 3995,
      "Ġcontrols": 3996,
      "Ġlocation": 3997,
      "Ġexec": 3998,
      "Ġaverage": 3999,
      "Ġansw": 4000,
      "Ġtherefore": 4001,
      "tributor": 4002,
      "Ġbi": 4003,
      "esting": 4004,
      "Ġleast": 4005,
      "rial": 4006,
      "node": 4007,
      "sim": 4008,
      "ĠDec": 4009,
      "Ġtransform": 4010,
      "ederated": 4011,
      "cache": 4012,
      "oint": 4013,
      "Ġsummar": 4014,
      "ĠBack": 4015,
      "PN": 4016,
      "quire": 4017,
      "merce": 4018,
      "plorer": 4019,
      "Ġfffff": 4020,
      "stant": 4021,
      "Ġleveraging": 4022,
      "Ġtable": 4023,
      "Ġelev": 4024,
      "Lo": 4025,
      "middle": 4026,
      "Ġcontrast": 4027,
      "reed": 4028,
      "Ġmalformed": 4029,
      "Ġcreated": 4030,
      "rates": 4031,
      "layer": 4032,
      "ĠPort": 4033,
      "Ġsuper": 4034,
      "Ġreflect": 4035,
      "ĠWith": 4036,
      "ĠUsers": 4037,
      "ĠFramework": 4038,
      "iki": 4039,
      "stack": 4040,
      "ifier": 4041,
      "Tr": 4042,
      "aving": 4043,
      "plan": 4044,
      "Ġexact": 4045,
      "ording": 4046,
      "Ġconsumption": 4047,
      "Ġmask": 4048,
      "Ġoverwrite": 4049,
      "Ġconsistent": 4050,
      "na": 4051,
      "Ġevents": 4052,
      "sock": 4053,
      "Ġexam": 4054,
      "ĠPost": 4055,
      "emon": 4056,
      "Ġapproxim": 4057,
      "ĠModels": 4058,
      "\"\"": 4059,
      "ĠGPT": 4060,
      "config": 4061,
      "Ġpasswords": 4062,
      "Ġexplicitly": 4063,
      "buf": 4064,
      "Ġphase": 4065,
      "iring": 4066,
      "ĠIoT": 4067,
      "opt": 4068,
      "Ġdeep": 4069,
      "Ġoperational": 4070,
      "var": 4071,
      "mal": 4072,
      "ĠRT": 4073,
      "Ġfam": 4074,
      "ĠMore": 4075,
      "Ġsupported": 4076,
      "Ġfully": 4077,
      "omin": 4078,
      "tically": 4079,
      "eck": 4080,
      "ĠReader": 4081,
      "session": 4082,
      "order": 4083,
      "iguration": 4084,
      "dll": 4085,
      "Ġgran": 4086,
      "mediate": 4087,
      "Ġcompared": 4088,
      "yond": 4089,
      "Ġcopy": 4090,
      "Ġlook": 4091,
      "space": 4092,
      "ĠPID": 4093,
      "ublic": 4094,
      "Ġreports": 4095,
      "Ġextraction": 4096,
      "versarial": 4097,
      "Ġwebapps": 4098,
      "tability": 4099,
      "Ġrepository": 4100,
      "gin": 4101,
      "allow": 4102,
      "ĠClient": 4103,
      "Conn": 4104,
      "Ġcalc": 4105,
      "Ġpop": 4106,
      "oci": 4107,
      "Ġimplement": 4108,
      "tailed": 4109,
      "Version": 4110,
      "YS": 4111,
      "Ġproperty": 4112,
      "2014": 4113,
      "Ġdefine": 4114,
      "Fi": 4115,
      "ĠAutom": 4116,
      "Ġvs": 4117,
      "Ġsequences": 4118,
      "Ġreprodu": 4119,
      "ĠNetworks": 4120,
      "RA": 4121,
      "Ġ}": 4122,
      "ĠPath": 4123,
      "Ġcontrolled": 4124,
      "tuning": 4125,
      "ĠMSM": 4126,
      "jected": 4127,
      "tot": 4128,
      "ĠCSRF": 4129,
      "older": 4130,
      "Ġsimul": 4131,
      "privileged": 4132,
      "](": 4133,
      "rameter": 4134,
      "Ġallocated": 4135,
      "such": 4136,
      "response": 4137,
      "pped": 4138,
      "ateway": 4139,
      "Ġembedded": 4140,
      "zer": 4141,
      "Ġbest": 4142,
      "abs": 4143,
      "Ġeffectiveness": 4144,
      "ĠImage": 4145,
      "ĠLanguage": 4146,
      "Ġstructural": 4147,
      "Ġwindow": 4148,
      "ĠRo": 4149,
      "Missing": 4150,
      "ĠCT": 4151,
      "ĠUniversity": 4152,
      "Ġ30": 4153,
      "Ġproviding": 4154,
      "Ġbeyond": 4155,
      "stract": 4156,
      "ĠPlatform": 4157,
      "da": 4158,
      "ĠTCP": 4159,
      "atory": 4160,
      "Ġground": 4161,
      "ĠCWE": 4162,
      "Ġtrick": 4163,
      "ĠVis": 4164,
      "sequent": 4165,
      "Ġdistributed": 4166,
      "ung": 4167,
      "Ġpoints": 4168,
      "Ġquality": 4169,
      "Ġcookie": 4170,
      "Ġadj": 4171,
      "alle": 4172,
      "Ġboundary": 4173,
      "igns": 4174,
      "Ġfeed": 4175,
      "BER": 4176,
      "ĠPR": 4177,
      "Ġarray": 4178,
      "Ġstudies": 4179,
      "arger": 4180,
      "Ġemer": 4181,
      "labor": 4182,
      "ĠProtocol": 4183,
      "Ġregion": 4184,
      "If": 4185,
      "Commerce": 4186,
      "ĠVDB": 4187,
      "ĠZDI": 4188,
      "register": 4189,
      "Directory": 4190,
      "Form": 4191,
      "udio": 4192,
      "yle": 4193,
      "Ġhist": 4194,
      "ĠBug": 4195,
      "Ġdisplay": 4196,
      "Ġcontents": 4197,
      "wd": 4198,
      "Ġrates": 4199,
      "Ġdiffic": 4200,
      "tle": 4201,
      "AF": 4202,
      "Security": 4203,
      "Ġ64": 4204,
      "CPU": 4205,
      "ĠGitHub": 4206,
      "vision": 4207,
      "Ġ2016": 4208,
      "Su": 4209,
      "Ġtrade": 4210,
      "station": 4211,
      "closure": 4212,
      "mount": 4213,
      "Ġlaunch": 4214,
      "Ġconfigurations": 4215,
      "ĠContent": 4216,
      "Ġsy": 4217,
      "Ġpolicies": 4218,
      "scale": 4219,
      "bb": 4220,
      "Ġcategories": 4221,
      "Ġ..": 4222,
      "Ġjailbreak": 4223,
      "Ġaccounts": 4224,
      "iang": 4225,
      "Use": 4226,
      "my": 4227,
      "oted": 4228,
      ":\\": 4229,
      "Ġ**": 4230,
      "Ġhold": 4231,
      "irq": 4232,
      "Ġcompre": 4233,
      "EX": 4234,
      "java": 4235,
      "Ġraw": 4236,
      "Ġitself": 4237,
      "ĠCre": 4238,
      "Ġrule": 4239,
      "hts": 4240,
      "Ġthreats": 4241,
      "ern": 4242,
      "ĠPa": 4243,
      "Ġrecent": 4244,
      "training": 4245,
      "Ġfindings": 4246,
      "Ġmed": 4247,
      "Add": 4248,
      "erving": 4249,
      "Ġnear": 4250,
      "Ġdest": 4251,
      "align": 4252,
      "Ġpublicly": 4253,
      "Ġrepresentation": 4254,
      "Ġseries": 4255,
      "ĠCol": 4256,
      "Ġaim": 4257,
      "------------": 4258,
      "texts": 4259,
      "ĠHand": 4260,
      "********": 4261,
      "upload": 4262,
      "])": 4263,
      "move": 4264,
      "there": 4265,
      "Ġgovern": 4266,
      "Ġstorage": 4267,
      "rob": 4268,
      "[<": 4269,
      "ĠDetection": 4270,
      "onomy": 4271,
      "ĠEasily": 4272,
      "Ġtrained": 4273,
      "Ġincluded": 4274,
      "Fix": 4275,
      "Ġtriggered": 4276,
      "pth": 4277,
      "oken": 4278,
      "alled": 4279,
      "Ġlinear": 4280,
      "ĠSince": 4281,
      "/*": 4282,
      "ifically": 4283,
      "Ġcertificates": 4284,
      "Ġword": 4285,
      "ĠWoo": 4286,
      "Ġstrict": 4287,
      "EV": 4288,
      "Ġdomains": 4289,
      "ĠMobile": 4290,
      "Ġdeli": 4291,
      "inc": 4292,
      "idth": 4293,
      "Ġcar": 4294,
      "models": 4295,
      "Ġaudit": 4296,
      "ĠACM": 4297,
      "Ġefficiency": 4298,
      "lip": 4299,
      "ush": 4300,
      "Ġcover": 4301,
      "Ġdrivers": 4302,
      "uk": 4303,
      "tible": 4304,
      "ecause": 4305,
      "Ġcontacted": 4306,
      "Ġpur": 4307,
      "Ġalgorithms": 4308,
      "Ġproxy": 4309,
      "Ġcentral": 4310,
      "ĠMDM": 4311,
      "Ġreduce": 4312,
      "ĠRB": 4313,
      "Ġlegitimate": 4314,
      "graph": 4315,
      "Ġproblematic": 4316,
      "ifies": 4317,
      "Ġscores": 4318,
      "high": 4319,
      "root": 4320,
      "Ġreturns": 4321,
      "MD": 4322,
      "pid": 4323,
      "ĠVirtual": 4324,
      "AAAAAAAA": 4325,
      "ancial": 4326,
      "ĠLib": 4327,
      "ĠSupported": 4328,
      "syscall": 4329,
      "tio": 4330,
      "Auth": 4331,
      "ĠPrivilege": 4332,
      "fier": 4333,
      "hishing": 4334,
      "omes": 4335,
      "Out": 4336,
      "ided": 4337,
      "Ġdirection": 4338,
      "Ġyet": 4339,
      "enk": 4340,
      "Ġel": 4341,
      "ĠMemory": 4342,
      "Ġerrors": 4343,
      "\".": 4344,
      "($": 4345,
      "Ġstage": 4346,
      "Ġruns": 4347,
      "ĠAttackers": 4348,
      "mode": 4349,
      "Ġrelevant": 4350,
      "Ġurl": 4351,
      "ina": 4352,
      "Bench": 4353,
      "modal": 4354,
      "Per": 4355,
      "ĠGraph": 4356,
      "unications": 4357,
      "Ġanom": 4358,
      "ĠEdition": 4359,
      "Ġdetected": 4360,
      "osystem": 4361,
      "faces": 4362,
      "assword": 4363,
      "heng": 4364,
      "ĠGPU": 4365,
      "Ġcreating": 4366,
      "%,": 4367,
      "pag": 4368,
      "driven": 4369,
      "lot": 4370,
      "any": 4371,
      "Ġbudget": 4372,
      "Ġattempts": 4373,
      "Ġbreak": 4374,
      "ĠFirst": 4375,
      "Ġselection": 4376,
      "Ġcomputational": 4377,
      "ĠNote": 4378,
      "Ġinher": 4379,
      "ĠCore": 4380,
      "era": 4381,
      "request": 4382,
      "edit": 4383,
      "stru": 4384,
      "ĠMCP": 4385,
      "ampling": 4386,
      "Ġmeans": 4387,
      "Ġ//": 4388,
      "ĠEX": 4389,
      "Ġtran": 4390,
      "Ġoutside": 4391,
      "Ġchecking": 4392,
      "ĠOne": 4393,
      "oring": 4394,
      "Ġencoding": 4395,
      "There": 4396,
      "Ġrecords": 4397,
      "ĠAuto": 4398,
      "Ġinclusion": 4399,
      "ĠComputer": 4400,
      "\");": 4401,
      "party": 4402,
      "ĠJo": 4403,
      "UL": 4404,
      "cience": 4405,
      "orting": 4406,
      "Flow": 4407,
      "Ġrequirements": 4408,
      "Priv": 4409,
      "Ġindependent": 4410,
      "Ġreach": 4411,
      "ĠExplorer": 4412,
      "see": 4413,
      "witch": 4414,
      "ĠSDM": 4415,
      "Ġensuring": 4416,
      "____": 4417,
      "update": 4418,
      "ĠYang": 4419,
      "Ġdetermine": 4420,
      "Pre": 4421,
      "Ġperformed": 4422,
      "az": 4423,
      "Ġbetter": 4424,
      "rypto": 4425,
      "ring": 4426,
      "Ġelements": 4427,
      "Ġreset": 4428,
      "string": 4429,
      "Up": 4430,
      "Ġanalyze": 4431,
      "FI": 4432,
      "tec": 4433,
      "Cl": 4434,
      "Ġwide": 4435,
      "ĠSource": 4436,
      "ĠPeople": 4437,
      "step": 4438,
      "uplic": 4439,
      "ĠAfter": 4440,
      "Ġhighly": 4441,
      "SG": 4442,
      "Ġfac": 4443,
      "Ġattention": 4444,
      "context": 4445,
      "Ġscale": 4446,
      "Ġintroduces": 4447,
      "Ġretrieval": 4448,
      "ĠAppendix": 4449,
      "Ġunsafe": 4450,
      "rror": 4451,
      "stall": 4452,
      "ĠPower": 4453,
      "Ġtargeted": 4454,
      "ioctl": 4455,
      "socket": 4456,
      "gether": 4457,
      "ĠOnline": 4458,
      "Ġwp": 4459,
      "Mo": 4460,
      "Ġstates": 4461,
      "dump": 4462,
      "Time": 4463,
      "iform": 4464,
      "current": 4465,
      "echo": 4466,
      "ĠOffice": 4467,
      "'.": 4468,
      "Ġcompute": 4469,
      "Ġmodules": 4470,
      "Ġ;": 4471,
      "Ġcam": 4472,
      "Ġprovenance": 4473,
      "fies": 4474,
      "Ġalong": 4475,
      "TR": 4476,
      "pite": 4477,
      "mu": 4478,
      "Ġrace": 4479,
      "printf": 4480,
      "Ġfundam": 4481,
      "Ġrepresent": 4482,
      "ABLE": 4483,
      "Ġbits": 4484,
      "formance": 4485,
      "Ġtemplate": 4486,
      "Ġparticularly": 4487,
      "mi": 4488,
      "Ġvariables": 4489,
      "Lab": 4490,
      "ktop": 4491,
      "ks": 4492,
      "OW": 4493,
      "ĠIncorrect": 4494,
      "Ġ50": 4495,
      "Call": 4496,
      "Soft": 4497,
      "Ġprimary": 4498,
      "002": 4499,
      "Ġparticipants": 4500,
      "buffer": 4501,
      "Ġdiff": 4502,
      "Ġquestion": 4503,
      "Ġdegra": 4504,
      "ument": 4505,
      "Ġlet": 4506,
      "mand": 4507,
      "access": 4508,
      "start": 4509,
      "509": 4510,
      "Ġcorrectly": 4511,
      "ender": 4512,
      "parser": 4513,
      "ony": 4514,
      "ĠUSE": 4515,
      "Ġsets": 4516,
      "laude": 4517,
      "NG": 4518,
      "Ġauth": 4519,
      "edu": 4520,
      "Ġnatural": 4521,
      "gence": 4522,
      "Ph": 4523,
      "args": 4524,
      "Ġinvok": 4525,
      "Ġ000000000000000": 4526,
      "long": 4527,
      "Ġblocks": 4528,
      "ĠFig": 4529,
      "Ġdebug": 4530,
      "bot": 4531,
      "Ġinvestig": 4532,
      "exploit": 4533,
      "ĠAdobe": 4534,
      "Ġhere": 4535,
      "Ġplatforms": 4536,
      "Section": 4537,
      "168": 4538,
      "Ġplace": 4539,
      "ilder": 4540,
      "onomous": 4541,
      "Ab": 4542,
      "Ġintent": 4543,
      "ropy": 4544,
      "Ġdecom": 4545,
      "MC": 4546,
      "Ġproced": 4547,
      "address": 4548,
      "ireless": 4549,
      "util": 4550,
      "Ġautomated": 4551,
      "400": 4552,
      "release": 4553,
      "client": 4554,
      "ĠType": 4555,
      "Ġworks": 4556,
      "Ġplaintext": 4557,
      "Stack": 4558,
      "Ġindu": 4559,
      "Ġcoord": 4560,
      "Ġdot": 4561,
      "ĠJSON": 4562,
      "Ġobjective": 4563,
      "download": 4564,
      "chron": 4565,
      "Ġexecutable": 4566,
      "Ġescalate": 4567,
      "ĠArch": 4568,
      "probe": 4569,
      "Ġoverall": 4570,
      "create": 4571,
      "EL": 4572,
      "Ġreleased": 4573,
      "Ġremoved": 4574,
      "Ġsimilarity": 4575,
      "find": 4576,
      "Ġrefer": 4577,
      "Ġsignals": 4578,
      "Ġbroad": 4579,
      "Kit": 4580,
      "Ġhad": 4581,
      "lean": 4582,
      "ĠGra": 4583,
      "rigger": 4584,
      "Ġdigital": 4585,
      "lap": 4586,
      "Ġblockchain": 4587,
      "ont": 4588,
      "Ġassume": 4589,
      "wall": 4590,
      "Ġfew": 4591,
      "Ġhighl": 4592,
      "Ob": 4593,
      "ĠNew": 4594,
      "Ġproduce": 4595,
      "Ġreverse": 4596,
      "au": 4597,
      "includ": 4598,
      "ĊĠĠĠĠĠĠĠĠ": 4599,
      "ends": 4600,
      "Ġvisit": 4601,
      "SB": 4602,
      "ĠIdenti": 4603,
      "Ġchunk": 4604,
      "enkins": 4605,
      "Ġprofile": 4606,
      "Ġestablish": 4607,
      "Ġimport": 4608,
      "ĠSun": 4609,
      "actions": 4610,
      "Ġpractice": 4611,
      "Ġ!": 4612,
      "Ġspe": 4613,
      "txt": 4614,
      "Ġsupplied": 4615,
      "wp": 4616,
      "006": 4617,
      "tems": 4618,
      "AND": 4619,
      "ĠTrace": 4620,
      "Ġdistingu": 4621,
      "Path": 4622,
      "ĠFL": 4623,
      "IB": 4624,
      "writ": 4625,
      "uth": 4626,
      "status": 4627,
      "Ġpayloads": 4628,
      "ĠCenter": 4629,
      "logies": 4630,
      "Ġarchitectures": 4631,
      "Ġmonitoring": 4632,
      "odester": 4633,
      "Ġinvolving": 4634,
      "Ġlimitations": 4635,
      "raction": 4636,
      "ĠLevel": 4637,
      "RF": 4638,
      "ĠPr": 4639,
      "Ġexposure": 4640,
      "ply": 4641,
      "pan": 4642,
      "through": 4643,
      "Ġdiverse": 4644,
      "Ġinflu": 4645,
      "Ġcybersecurity": 4646,
      "Ġretrieve": 4647,
      "ustrial": 4648,
      "Par": 4649,
      "Ġselected": 4650,
      "bird": 4651,
      "avig": 4652,
      "Ġpresents": 4653,
      "robat": 4654,
      "Ġforward": 4655,
      "ĠURI": 4656,
      "ogene": 4657,
      "With": 4658,
      "Ġsubsequent": 4659,
      "Ġfault": 4660,
      "Ġwebsite": 4661,
      "Ġjust": 4662,
      "Ġcomprehensive": 4663,
      "Ġfore": 4664,
      "Ġlarger": 4665,
      "trace": 4666,
      "ocation": 4667,
      "Ġreading": 4668,
      "ront": 4669,
      "nom": 4670,
      "Ġneural": 4671,
      "ffffffff": 4672,
      "localhost": 4673,
      "CU": 4674,
      "Val": 4675,
      "Ġprotected": 4676,
      "ĠSo": 4677,
      "ĠRun": 4678,
      "most": 4679,
      "Ġcounter": 4680,
      "dir": 4681,
      "report": 4682,
      "Request": 4683,
      "Guard": 4684,
      "Ġ]": 4685,
      "Ġaddition": 4686,
      "Ġvirtual": 4687,
      "128": 4688,
      "Ġseed": 4689,
      "Ġobserv": 4690,
      "ĠProcessing": 4691,
      "ĠOr": 4692,
      "ĠSDK": 4693,
      "tification": 4694,
      "Ġpoisoning": 4695,
      "query": 4696,
      "Ġcaused": 4697,
      "Ġframe": 4698,
      "Ġcombin": 4699,
      "Ġadministrators": 4700,
      "ĠBl": 4701,
      "Ġempirical": 4702,
      "Citation": 4703,
      "Ġauthentic": 4704,
      "Host": 4705,
      "pty": 4706,
      "View": 4707,
      "Ġtoward": 4708,
      "ience": 4709,
      "Ġedit": 4710,
      "Ġblack": 4711,
      "frame": 4712,
      "Ġ89": 4713,
      "Ġconcer": 4714,
      "Ġbuilt": 4715,
      "Ġfive": 4716,
      "ĠAb": 4717,
      "Ġmodification": 4718,
      "Ġinside": 4719,
      "ĠBlock": 4720,
      "allery": 4721,
      "etry": 4722,
      "Confidentiality": 4723,
      "match": 4724,
      "andom": 4725,
      "hw": 4726,
      "Ġev": 4727,
      "ĠElement": 4728,
      "ĠWooCommerce": 4729,
      "Ġlight": 4730,
      "Ġdisabled": 4731,
      "DD": 4732,
      "istribution": 4733,
      "lete": 4734,
      "Image": 4735,
      "WS": 4736,
      "Ġengineering": 4737,
      "ĠPC": 4738,
      "emma": 4739,
      "Ġpassed": 4740,
      "non": 4741,
      "ĠAND": 4742,
      "lation": 4743,
      "initial": 4744,
      "error": 4745,
      "Ġindicates": 4746,
      "Ġinsert": 4747,
      "Ġenfor": 4748,
      "ASK": 4749,
      "oto": 4750,
      "ĠSur": 4751,
      "Ġrespectively": 4752,
      "PL": 4753,
      "idence": 4754,
      "ncy": 4755,
      "Ġguarantees": 4756,
      "Ġcompromised": 4757,
      "Ġonce": 4758,
      "sets": 4759,
      "mt": 4760,
      "&#": 4761,
      "Ġcreation": 4762,
      "Ġallocation": 4763,
      "Ġreco": 4764,
      "tact": 4765,
      "ensitivity": 4766,
      "kasan": 4767,
      "ĠFound": 4768,
      "Ġclasses": 4769,
      "Ġstarting": 4770,
      "Ġsolution": 4771,
      "Ġsources": 4772,
      "vari": 4773,
      "channel": 4774,
      "ĠNot": 4775,
      "USE": 4776,
      "rl": 4777,
      "rele": 4778,
      "ĠDirectory": 4779,
      "else": 4780,
      "\":\"": 4781,
      "ĠOverflow": 4782,
      "ĠHy": 4783,
      "rypted": 4784,
      "ationship": 4785,
      "Ġenter": 4786,
      "hidden": 4787,
      "ategory": 4788,
      "ĠGET": 4789,
      "RP": 4790,
      "ĠFree": 4791,
      "Ġdenote": 4792,
      "addr": 4793,
      "users": 4794,
      "Ġimplemented": 4795,
      "orig": 4796,
      "ans": 4797,
      "ĠSym": 4798,
      "ĠSmart": 4799,
      "Ġposition": 4800,
      "Ġexposed": 4801,
      "IO": 4802,
      "Ġdevelopment": 4803,
      "Ġentries": 4804,
      "Me": 4805,
      "Ġvery": 4806,
      "ĠApplications": 4807,
      "vg": 4808,
      "Ġmalware": 4809,
      "Ġcyber": 4810,
      "dd": 4811,
      "method": 4812,
      "ĠThunder": 4813,
      "ĠState": 4814,
      "ĠSign": 4815,
      "Ġdeployed": 4816,
      "Ġinvolves": 4817,
      "ĠGold": 4818,
      "GET": 4819,
      "Ġadaptive": 4820,
      "inding": 4821,
      "avas": 4822,
      "Ġinsecure": 4823,
      "ASR": 4824,
      "ajor": 4825,
      "250": 4826,
      "ĠDisclosure": 4827,
      "Ġconstruction": 4828,
      "Ġspecifically": 4829,
      "Li": 4830,
      "ading": 4831,
      "Ġframeworks": 4832,
      "Ġensures": 4833,
      "ALL": 4834,
      "ĠSch": 4835,
      "poses": 4836,
      "ĠAcrobat": 4837,
      "Ġregular": 4838,
      "Ġneeds": 4839,
      "erialization": 4840,
      "RQ": 4841,
      "Control": 4842,
      "ĠIntegrity": 4843,
      "pm": 4844,
      "Ġsocket": 4845,
      "Ġcho": 4846,
      "Acc": 4847,
      "BB": 4848,
      "Ġbot": 4849,
      "doi": 4850,
      "['": 4851,
      "Ġscope": 4852,
      "Ġbecome": 4853,
      "NULL": 4854,
      "Product": 4855,
      "AME": 4856,
      "RC": 4857,
      "ides": 4858,
      "metric": 4859,
      "ĠEnc": 4860,
      "POST": 4861,
      "multi": 4862,
      "sem": 4863,
      "Ġcompare": 4864,
      "GED": 4865,
      "Pad": 4866,
      "event": 4867,
      "Go": 4868,
      "bership": 4869,
      "tx": 4870,
      "Ġpe": 4871,
      "inite": 4872,
      "ĠSam": 4873,
      "iod": 4874,
      "ĠSpecifically": 4875,
      "Ġnecessary": 4876,
      "Qwen": 4877,
      "Ġge": 4878,
      "Ġrepresents": 4879,
      "Ġtemporal": 4880,
      "Ġstable": 4881,
      "ĠTLS": 4882,
      "Ġedge": 4883,
      "Ġsymb": 4884,
      "\\\"": 4885,
      "Ġcoverage": 4886,
      "Ġimportant": 4887,
      "crash": 4888,
      "ANCE": 4889,
      "eting": 4890,
      "Ġreceived": 4891,
      "Ġexceed": 4892,
      "Ġthereby": 4893,
      "haviors": 4894,
      "ca": 4895,
      "exec": 4896,
      "Ġtechnique": 4897,
      "Ġfailed": 4898,
      "tool": 4899,
      "umptions": 4900,
      "cook": 4901,
      "Ġpoly": 4902,
      "eli": 4903,
      "DR": 4904,
      "corpor": 4905,
      "Ġip": 4906,
      "Ġrestricted": 4907,
      "Disposition": 4908,
      "Ġpersistent": 4909,
      "ĠOp": 4910,
      "Ġlast": 4911,
      "1414": 4912,
      "LLMs": 4913,
      "alk": 4914,
      "ĠMedia": 4915,
      "lat": 4916,
      "uri": 4917,
      "Ġmanipulate": 4918,
      "Ġprotect": 4919,
      "Ass": 4920,
      "Ġmapping": 4921,
      "Ġrelative": 4922,
      "provid": 4923,
      "include": 4924,
      "plates": 4925,
      "Ġcompo": 4926,
      "Ġfilename": 4927,
      "username": 4928,
      "ĠThunderbird": 4929,
      "ĠFurther": 4930,
      "Se": 4931,
      "ĠInf": 4932,
      "orth": 4933,
      "Ġincrease": 4934,
      "Ġprint": 4935,
      "Id": 4936,
      "Ġmm": 4937,
      "Ġguest": 4938,
      "json": 4939,
      "Ġmodified": 4940,
      "appro": 4941,
      "Ġobserve": 4942,
      "Ġremove": 4943,
      "Ġspecified": 4944,
      "ĠMozilla": 4945,
      "Ġadded": 4946,
      "SO": 4947,
      "dot": 4948,
      "boot": 4949,
      "case": 4950,
      "restric": 4951,
      "Ġstatus": 4952,
      "Ġamong": 4953,
      "Adobe": 4954,
      "Ġincreases": 4955,
      "Ġsurface": 4956,
      "avascript": 4957,
      "lan": 4958,
      "Ġregard": 4959,
      "Ġregist": 4960,
      "Ġunderstanding": 4961,
      "ĠBen": 4962,
      "ĠDeep": 4963,
      "fully": 4964,
      "NC": 4965,
      "preserving": 4966,
      "cen": 4967,
      "Ġliter": 4968,
      "iao": 4969,
      "Ġweights": 4970,
      "Ġreduces": 4971,
      "ĠRUG": 4972,
      "Ġexecutes": 4973,
      "../../": 4974,
      "So": 4975,
      "ĠReal": 4976,
      "KE": 4977,
      "PA": 4978,
      "ĠAttacks": 4979,
      "iving": 4980,
      "Ġ90": 4981,
      "Ġassum": 4982,
      "gument": 4983,
      "save": 4984,
      "ĠYu": 4985,
      "ĠAPIs": 4986,
      "ĠExploiting": 4987,
      "filtra": 4988,
      "Ġobfusc": 4989,
      "Ġrealistic": 4990,
      "Ġreflected": 4991,
      "GEDCOM": 4992,
      "Android": 4993,
      "ĠRUGGEDCOM": 4994,
      "itecture": 4995,
      "Ġpartial": 4996,
      "ĠActive": 4997,
      "network": 4998,
      "ainted": 4999,
      "Ġlocally": 5000,
      "Ġindicating": 5001,
      "Ġexamples": 5002,
      "ĠResearch": 5003,
      "headers": 5004,
      "Ġinstallation": 5005,
      "Ġfuzz": 5006,
      "cpp": 5007,
      "ulating": 5008,
      "ĠHigh": 5009,
      "ixel": 5010,
      "acing": 5011,
      "Ġhandles": 5012,
      "Ġcategory": 5013,
      "TA": 5014,
      "ĠObject": 5015,
      "Dec": 5016,
      "vc": 5017,
      "Ġtraject": 5018,
      "Ġintegration": 5019,
      "Ġentity": 5020,
      "Ġ\"\\": 5021,
      "Ġreleases": 5022,
      "urate": 5023,
      "ĠWin": 5024,
      "ĠUsing": 5025,
      "Ġsplit": 5026,
      "Box": 5027,
      "Ġdescriptions": 5028,
      "Ġuntil": 5029,
      "ĠInclusion": 5030,
      "Ġgenerates": 5031,
      "Manager": 5032,
      "Ġprinci": 5033,
      "hest": 5034,
      "Ġalways": 5035,
      "Ġlogged": 5036,
      "radig": 5037,
      "idget": 5038,
      "Ġexpression": 5039,
      "look": 5040,
      "Ġdescribed": 5041,
      "SN": 5042,
      "Ġadding": 5043,
      "cel": 5044,
      "Ġ40": 5045,
      "effec": 5046,
      "Ġgradient": 5047,
      "ival": 5048,
      "Ġaround": 5049,
      "acity": 5050,
      "flag": 5051,
      "Ġide": 5052,
      "format": 5053,
      "ĠName": 5054,
      "Ġpositive": 5055,
      "ev": 5056,
      "ĠTool": 5057,
      "ĠTherefore": 5058,
      "GE": 5059,
      "Ġreferences": 5060,
      "ĠTechnology": 5061,
      "Ġperforms": 5062,
      "sl": 5063,
      "Ġvideo": 5064,
      "Ġaccessing": 5065,
      "ehic": 5066,
      "stit": 5067,
      "clud": 5068,
      "Ġcontainer": 5069,
      "Ġsugges": 5070,
      "ĠUpload": 5071,
      "Ġenforcement": 5072,
      "Ġtechnical": 5073,
      "1000": 5074,
      "SV": 5075,
      "ention": 5076,
      "These": 5077,
      "ressed": 5078,
      "Ġscreen": 5079,
      "Ġlevels": 5080,
      "ĠAvail": 5081,
      "amper": 5082,
      "coded": 5083,
      "allel": 5084,
      "ĠCheck": 5085,
      "ĠNT": 5086,
      "Ġchar": 5087,
      "ĠSimple": 5088,
      "ĠMat": 5089,
      "amed": 5090,
      "ĠUse": 5091,
      "language": 5092,
      "ĠDR": 5093,
      "Ġbyte": 5094,
      "ait": 5095,
      "Ġdetailed": 5096,
      "agn": 5097,
      "Ġwhose": 5098,
      "ĠSV": 5099,
      "Admin": 5100,
      "ĠAnd": 5101,
      "enu": 5102,
      "ĠElect": 5103,
      "ĠReason": 5104,
      "ĠHandler": 5105,
      "pat": 5106,
      "ĠSte": 5107,
      "Ġfiltering": 5108,
      "Ġeffect": 5109,
      "Ġotherwise": 5110,
      "ookie": 5111,
      "Ġteam": 5112,
      "ĠBI": 5113,
      "Ġrequiring": 5114,
      "ĠOper": 5115,
      "Ġbenchmarks": 5116,
      "Ġrecommended": 5117,
      "ighest": 5118,
      "izations": 5119,
      "130": 5120,
      "/.": 5121,
      "former": 5122,
      "Ġnovel": 5123,
      "ranch": 5124,
      "dimension": 5125,
      "Ġagentic": 5126,
      "Pr": 5127,
      "ponse": 5128,
      "ENT": 5129,
      "Ġlonger": 5130,
      "Ġexecuting": 5131,
      "ĠII": 5132,
      "MM": 5133,
      "Ġhandler": 5134,
      "ollowing": 5135,
      "Ġess": 5136,
      "trfs": 5137,
      "NET": 5138,
      "den": 5139,
      "Ġ/>": 5140,
      "Ġbecomes": 5141,
      "ĠTeam": 5142,
      "ĠSA": 5143,
      "Ġconnections": 5144,
      "Ġconsistently": 5145,
      "Ġinstalled": 5146,
      "ĠUnder": 5147,
      "Ġendpoints": 5148,
      "Ġschemes": 5149,
      "Versions": 5150,
      "iss": 5151,
      "ĠCal": 5152,
      "Ġmitigate": 5153,
      "mat": 5154,
      "tane": 5155,
      "Ġtri": 5156,
      ",\"": 5157,
      "Ġcraft": 5158,
      "Ġcluster": 5159,
      "inf": 5160,
      "ones": 5161,
      "ĠMar": 5162,
      "Ġfilesystem": 5163,
      "idel": 5164,
      "bal": 5165,
      "Ġbaselines": 5166,
      "Ġhapp": 5167,
      "Ġmultip": 5168,
      "ĠMal": 5169,
      "Ġoffer": 5170,
      "ĠForti": 5171,
      "trusion": 5172,
      "Ġyields": 5173,
      "Ġdistinguish": 5174,
      "PP": 5175,
      "Ġdistance": 5176,
      "Language": 5177,
      "ĠThen": 5178,
      "ĠMachine": 5179,
      "expected": 5180,
      "Ġstores": 5181,
      "Ġmajor": 5182,
      "Ġgrow": 5183,
      "pages": 5184,
      "ĠBusiness": 5185,
      "uplicate": 5186,
      "Ġfinger": 5187,
      "Ġtraditional": 5188,
      "Ġinteract": 5189,
      "ĠURLs": 5190,
      "Trans": 5191,
      "Ġmedia": 5192,
      "600": 5193,
      "CWE": 5194,
      "Ġconfig": 5195,
      "linux": 5196,
      "exp": 5197,
      "Ġindicate": 5198,
      "Ġmatching": 5199,
      "ATION": 5200,
      "email": 5201,
      "FC": 5202,
      "zero": 5203,
      "Ġpresented": 5204,
      "ĠWi": 5205,
      "();": 5206,
      "real": 5207,
      "ĠQwen": 5208,
      "Ġsynthetic": 5209,
      "mm": 5210,
      "option": 5211,
      "generated": 5212,
      "marily": 5213,
      "];": 5214,
      "It": 5215,
      "haus": 5216,
      "rameters": 5217,
      "Ġterms": 5218,
      "sche": 5219,
      "alert": 5220,
      "eb": 5221,
      "Ġsemantics": 5222,
      "Proof": 5223,
      "Ġlabels": 5224,
      "RCE": 5225,
      "Ġpersonal": 5226,
      "ĠValid": 5227,
      "000000": 5228,
      "Ġciphertext": 5229,
      "ĠPortal": 5230,
      "veloper": 5231,
      "Ġreward": 5232,
      "ulnerable": 5233,
      "ĠAnaly": 5234,
      "vention": 5235,
      "length": 5236,
      "Ġpast": 5237,
      "ĠDB": 5238,
      "ĠBo": 5239,
      "across": 5240,
      "Ġnegative": 5241,
      "Ġarguments": 5242,
      "tmp": 5243,
      "sian": 5244,
      "ĠEnd": 5245,
      "Ġnonce": 5246,
      "Ġmeaning": 5247,
      "Ġsole": 5248,
      "then": 5249,
      "Ġiden": 5250,
      "Ġdenotes": 5251,
      "stage": 5252,
      "emini": 5253,
      "uro": 5254,
      "Ġderived": 5255,
      "Ġartifacts": 5256,
      "Sim": 5257,
      "phic": 5258,
      "Ġconcept": 5259,
      "stantially": 5260,
      "RS": 5261,
      "chang": 5262,
      "Ġrecovery": 5263,
      "enda": 5264,
      "Ġ28": 5265,
      "Ġreveals": 5266,
      "structed": 5267,
      "Ġthread": 5268,
      "Gener": 5269,
      "Ġinstances": 5270,
      "Ġupon": 5271,
      "Ġpay": 5272,
      "ĠXu": 5273,
      "Ġeasier": 5274,
      "Ġque": 5275,
      "visory": 5276,
      "posium": 5277,
      "ĠBypass": 5278,
      "fying": 5279,
      "ociation": 5280,
      "names": 5281,
      "try": 5282,
      "Connection": 5283,
      "Ġmaximum": 5284,
      "Ġauthorized": 5285,
      "jo": 5286,
      "ighted": 5287,
      "ĠBuffer": 5288,
      "information": 5289,
      "202": 5290,
      "Ġgre": 5291,
      "coun": 5292,
      "field": 5293,
      "Ġonline": 5294,
      "TASK": 5295,
      "fb": 5296,
      "Ġvariants": 5297,
      "acent": 5298,
      "Ġbackend": 5299,
      "Ġdeployments": 5300,
      "utational": 5301,
      "Ġecosystem": 5302,
      "Ġserial": 5303,
      "restricted": 5304,
      "ĠExploitation": 5305,
      "leg": 5306,
      "Di": 5307,
      "Ġtree": 5308,
      "ĠView": 5309,
      "However": 5310,
      "Ġminimal": 5311,
      "score": 5312,
      "uble": 5313,
      "Ġfixes": 5314,
      "Ġparser": 5315,
      "Ed": 5316,
      "ĠAL": 5317,
      "gress": 5318,
      "src": 5319,
      "defined": 5320,
      "Ġstatistical": 5321,
      "Ġfrag": 5322,
      "raries": 5323,
      "ĠTime": 5324,
      "etc": 5325,
      "Ġabs": 5326,
      "Ġpreviously": 5327,
      "Ġexplain": 5328,
      "Ġtargets": 5329,
      "ĊĠ": 5330,
      "covery": 5331,
      "Ġcur": 5332,
      "Ġanswer": 5333,
      "Ġcreates": 5334,
      "attacks": 5335,
      "cb": 5336,
      "usal": 5337,
      "ĠStandard": 5338,
      "Back": 5339,
      "pk": 5340,
      "onest": 5341,
      "differ": 5342,
      "Ġdifficult": 5343,
      "reng": 5344,
      "terogene": 5345,
      "RT": 5346,
      "erous": 5347,
      "Ġ(\"": 5348,
      "power": 5349,
      "Ġwindows": 5350,
      "MI": 5351,
      "ua": 5352,
      "ĠSIM": 5353,
      "ĠTraversal": 5354,
      "Ġmeasures": 5355,
      "Memory": 5356,
      "Ġsupports": 5357,
      "Ġda": 5358,
      "Ġsharing": 5359,
      "After": 5360,
      "ĠPack": 5361,
      "endar": 5362,
      "180": 5363,
      "random": 5364,
      "TEM": 5365,
      "req": 5366,
      "Ġidentifying": 5367,
      "Ġaggregation": 5368,
      "aves": 5369,
      "kill": 5370,
      "Ġlikely": 5371,
      "skb": 5372,
      "Ġcontributor": 5373,
      "Ġ80": 5374,
      "Ġprocessed": 5375,
      "ĠiPad": 5376,
      "Ver": 5377,
      "OD": 5378,
      "ĠLayer": 5379,
      "mentations": 5380,
      "td": 5381,
      "ĠFunction": 5382,
      "Ġcorrel": 5383,
      "ĠST": 5384,
      "ĠRead": 5385,
      "''": 5386,
      "ighb": 5387,
      "Ġ0010": 5388,
      "Ġblind": 5389,
      "Ġtheore": 5390,
      "Ġrestrict": 5391,
      "Ġcontroller": 5392,
      "aptive": 5393,
      ".-": 5394,
      "processing": 5395,
      "Ġhowever": 5396,
      "Ġlif": 5397,
      "Ġmobile": 5398,
      "Online": 5399,
      "ALANCE": 5400,
      "sis": 5401,
      "Ġpropag": 5402,
      "Ġprograms": 5403,
      "ĠElementor": 5404,
      "Ġanno": 5405,
      "ĠCam": 5406,
      "Ġsrc": 5407,
      "cape": 5408,
      "Ġdistributions": 5409,
      "ierarch": 5410,
      "iny": 5411,
      "Ġweight": 5412,
      "ĠPatch": 5413,
      "ĠPolicy": 5414,
      "Ġrepeated": 5415,
      "first": 5416,
      "Ġtrain": 5417,
      "Ġphishing": 5418,
      "Ġuniform": 5419,
      "Ġwritten": 5420,
      "curl": 5421,
      "SSL": 5422,
      "Ġjud": 5423,
      "Ġ00007": 5424,
      "Ind": 5425,
      "Ġseparate": 5426,
      "ĠMark": 5427,
      "ĠProgram": 5428,
      "Ġcompliance": 5429,
      "Ġrow": 5430,
      "Ġfeedback": 5431,
      "Ġinspec": 5432,
      "Ġresi": 5433,
      "plugin": 5434,
      "Ġpreserving": 5435,
      "ĠSCALANCE": 5436,
      "ĠiPadOS": 5437,
      "Ġcare": 5438,
      "nomial": 5439,
      "ĠDO": 5440,
      "vironment": 5441,
      "eto": 5442,
      "Ġstrings": 5443,
      "NIX": 5444,
      "Ġprecision": 5445,
      "come": 5446,
      "Ġaltern": 5447,
      "pair": 5448,
      "riter": 5449,
      "Ġsugg": 5450,
      "VI": 5451,
      "Ġdia": 5452,
      "king": 5453,
      "ĠEmbed": 5454,
      "Ġissu": 5455,
      "logical": 5456,
      "Ġfreed": 5457,
      "Ġdemonstrates": 5458,
      "Ġcombined": 5459,
      "ale": 5460,
      "right": 5461,
      "chedul": 5462,
      "Ġhyper": 5463,
      "Ġoverflows": 5464,
      "default": 5465,
      "Ġnote": 5466,
      "Ġbehaviors": 5467,
      "ashboard": 5468,
      "Ġproduces": 5469,
      "Ġmodifying": 5470,
      "width": 5471,
      "Ġparadig": 5472,
      "ĠPlayer": 5473,
      "Bound": 5474,
      "Ġchannels": 5475,
      "Ġdeterministic": 5476,
      "Ġsignatures": 5477,
      "acle": 5478,
      "Ġrepresentations": 5479,
      "CON": 5480,
      "uter": 5481,
      "\",\"": 5482,
      "Ġreplace": 5483,
      "izer": 5484,
      "11111111": 5485,
      "va": 5486,
      "arget": 5487,
      "ĠRate": 5488,
      "gni": 5489,
      "ridge": 5490,
      "API": 5491,
      "PF": 5492,
      "ĠSR": 5493,
      "Ġreduction": 5494,
      "ĠEdge": 5495,
      "Length": 5496,
      "osen": 5497,
      "Ġsolely": 5498,
      "rf": 5499,
      "ident": 5500,
      "dation": 5501,
      "rong": 5502,
      "remove": 5503,
      "Ġbin": 5504,
      "mentary": 5505,
      "ali": 5506,
      "ĠIN": 5507,
      "Ġchat": 5508,
      "Ġ->": 5509,
      "Ġencoded": 5510,
      "ĠLevels": 5511,
      "ĠDoS": 5512,
      "Ġtry": 5513,
      "Ġactual": 5514,
      "ticle": 5515,
      "ĠThreat": 5516,
      "ĠLarge": 5517,
      "ĠNotes": 5518,
      "Ġvary": 5519,
      "omic": 5520,
      "ournal": 5521,
      "hance": 5522,
      "Ġhighest": 5523,
      "ĠPrompt": 5524,
      "ĠFinally": 5525,
      "0000000000000000": 5526,
      "Ġconsidered": 5527,
      "Ġnever": 5528,
      "Ġ(%)": 5529,
      "ffers": 5530,
      "Ġpairs": 5531,
      "risk": 5532,
      "003": 5533,
      "Ġconstant": 5534,
      "istant": 5535,
      "adow": 5536,
      "Mod": 5537,
      "module": 5538,
      "Ġdescription": 5539,
      "arent": 5540,
      "cuit": 5541,
      "8000": 5542,
      "211": 5543,
      "bash": 5544,
      "Ġrelies": 5545,
      "hash": 5546,
      "erce": 5547,
      "sync": 5548,
      "Ġrender": 5549,
      "Ġcalling": 5550,
      "ARN": 5551,
      "Step": 5552,
      "xiv": 5553,
      "Ġrepl": 5554,
      "onym": 5555,
      "2013": 5556,
      "ĠFP": 5557,
      "Pa": 5558,
      "cker": 5559,
      "apers": 5560,
      "Access": 5561,
      "Ġfollowed": 5562,
      "Ġliterature": 5563,
      "ather": 5564,
      "\";": 5565,
      "Ġincorpor": 5566,
      "acted": 5567,
      "ĠBas": 5568,
      "Ġsubmit": 5569,
      "Ġtraces": 5570,
      "asure": 5571,
      "Ġ:=": 5572,
      "CD": 5573,
      "ĠConfigured": 5574,
      "jan": 5575,
      "Ġ...": 5576,
      "aking": 5577,
      "YSTEM": 5578,
      "]:": 5579,
      "ior": 5580,
      "ĠUSA": 5581,
      "hel": 5582,
      "ĠDC": 5583,
      "ube": 5584,
      "LECT": 5585,
      "Ġfram": 5586,
      "RD": 5587,
      "ae": 5588,
      "ĠEvaluation": 5589,
      "Ġsurvey": 5590,
      "Ġkeep": 5591,
      "lice": 5592,
      "Zh": 5593,
      "Ġautomatically": 5594,
      "Ġbalance": 5595,
      "axonomy": 5596,
      "Ġsigned": 5597,
      "argv": 5598,
      "constra": 5599,
      "Ġrecall": 5600,
      "ĠJunos": 5601,
      "ĠIncorrectly": 5602,
      "Ġperiod": 5603,
      "Ġsupply": 5604,
      "ajax": 5605,
      "netlink": 5606,
      "ĠNeural": 5607,
      "Ġwarning": 5608,
      "Ġinitiate": 5609,
      "Ġdone": 5610,
      "Ġsessions": 5611,
      "Ġboot": 5612,
      "Ġeff": 5613,
      "charact": 5614,
      "rd": 5615,
      "vance": 5616,
      "show": 5617,
      "192": 5618,
      "Ġtiming": 5619,
      "privacy": 5620,
      "testation": 5621,
      "ĠThey": 5622,
      "ĠTrust": 5623,
      "when": 5624,
      "Ġlightweight": 5625,
      "itable": 5626,
      "ĠIDs": 5627,
      "Ġrelationship": 5628,
      "QC": 5629,
      "Ġenforce": 5630,
      "Ġenumer": 5631,
      "tan": 5632,
      "ĠAdditionally": 5633,
      "ider": 5634,
      "tices": 5635,
      "Ġ27": 5636,
      "python": 5637,
      "BA": 5638,
      "Ġthough": 5639,
      "888": 5640,
      "Ġright": 5641,
      "Ġdoi": 5642,
      "command": 5643,
      "bi": 5644,
      "fect": 5645,
      "Ġdecl": 5646,
      "solute": 5647,
      "ports": 5648,
      "quid": 5649,
      "Ġknow": 5650,
      "ĠAndroidVersions": 5651,
      "Ġupdated": 5652,
      "ĠDri": 5653,
      "ĠFlash": 5654,
      "range": 5655,
      "127": 5656,
      "Ġsystematic": 5657,
      "Ġfailures": 5658,
      "Ġinteractions": 5659,
      "Claw": 5660,
      "efficient": 5661,
      "message": 5662,
      "atal": 5663,
      "Ġprimarily": 5664,
      "Ġlogging": 5665,
      "card": 5666,
      "protocol": 5667,
      "Ġachieved": 5668,
      "aced": 5669,
      "aris": 5670,
      "Ġseverity": 5671,
      "Ġgovernance": 5672,
      "Ġconnect": 5673,
      "Ag": 5674,
      "ĠESR": 5675,
      "clude": 5676,
      "Ġinsig": 5677,
      "ĠCustom": 5678,
      "Input": 5679,
      "usb": 5680,
      "Ġskills": 5681,
      "Ġorigin": 5682,
      "Inte": 5683,
      "Ġretain": 5684,
      "otal": 5685,
      "ĊĠĠ": 5686,
      "stantial": 5687,
      "ira": 5688,
      "ĠCall": 5689,
      "ĠMicro": 5690,
      "example": 5691,
      "encoded": 5692,
      "ĠStud": 5693,
      "Ġheterogene": 5694,
      "body": 5695,
      "Ġexhaus": 5696,
      "ĠBit": 5697,
      "ducted": 5698,
      "ipv": 5699,
      "arxiv": 5700,
      "Ġdev": 5701,
      "Ġextracted": 5702,
      "Ġforce": 5703,
      "Ġexperimental": 5704,
      "ool": 5705,
      "Ġanalyzing": 5706,
      "Ġ41": 5707,
      "Ġelevated": 5708,
      "ĠPeopleSoft": 5709,
      "Ġcollection": 5710,
      "ĠCLI": 5711,
      "Ġ31": 5712,
      "Encoding": 5713,
      "FE": 5714,
      "FO": 5715,
      "super": 5716,
      "Ġ@": 5717,
      "LO": 5718,
      "Ġdocum": 5719,
      "Ġoperator": 5720,
      "Ġdevi": 5721,
      "Ġmotiv": 5722,
      "PO": 5723,
      "Ġtamper": 5724,
      "ĠCompute": 5725,
      "Ġsto": 5726,
      "Ġinfer": 5727,
      "Ġindepend": 5728,
      "Ġaccessed": 5729,
      "rute": 5730,
      "While": 5731,
      "ĠSafety": 5732,
      "ĠAlthough": 5733,
      "xi": 5734,
      "ĠGateway": 5735,
      "assisted": 5736,
      "Ġlinks": 5737,
      "ycle": 5738,
      "ĠDLL": 5739,
      "BE": 5740,
      "ĠMeta": 5741,
      "Ġcookies": 5742,
      "DC": 5743,
      "Ġbatch": 5744,
      "Ġmaintaining": 5745,
      "ris": 5746,
      "sa": 5747,
      "PM": 5748,
      "Ġ01": 5749,
      "Ġtransactions": 5750,
      "Ġsocial": 5751,
      "ilit": 5752,
      "words": 5753,
      "Ġprecise": 5754,
      "dc": 5755,
      "repres": 5756,
      "Ġbeh": 5757,
      "ATH": 5758,
      "rating": 5759,
      "thers": 5760,
      "techniques": 5761,
      "nl": 5762,
      "ĠTH": 5763,
      "Ġsampling": 5764,
      "Ġdownstream": 5765,
      "TABLE": 5766,
      "Ġcompara": 5767,
      "Ġarchitectural": 5768,
      "ulnerabilities": 5769,
      "ĠWu": 5770,
      "connect": 5771,
      "Ġdomin": 5772,
      "ĠDo": 5773,
      "ĠYou": 5774,
      "ĠThus": 5775,
      "mlink": 5776,
      "Ġcolum": 5777,
      "delete": 5778,
      "Ġexploiting": 5779,
      "Ġbar": 5780,
      "uning": 5781,
      "Ġnumbers": 5782,
      "Ġcontinuous": 5783,
      "erc": 5784,
      "clean": 5785,
      "ĠSuch": 5786,
      "Ġlatent": 5787,
      "Ġfederated": 5788,
      "typ": 5789,
      "drm": 5790,
      "Ġdocuments": 5791,
      "eled": 5792,
      "Ġcontributions": 5793,
      "ĠRet": 5794,
      "Ġadversaries": 5795,
      "usr": 5796,
      "Ġshift": 5797,
      "title": 5798,
      "ĠMethod": 5799,
      "tring": 5800,
      "wei": 5801,
      "prompt": 5802,
      "wner": 5803,
      "Ġgenerating": 5804,
      "Ġwidely": 5805,
      "Mon": 5806,
      "aussian": 5807,
      "Ġtreat": 5808,
      "Ġassumptions": 5809,
      "Ġappears": 5810,
      "thereum": 5811,
      "Ġremaining": 5812,
      "driver": 5813,
      "One": 5814,
      "Ġaffecting": 5815,
      "Ġdevelopers": 5816,
      "Sub": 5817,
      "ĠKernel": 5818,
      "ĠImproper": 5819,
      "hood": 5820,
      "ĠSearch": 5821,
      "yu": 5822,
      "Ġdrop": 5823,
      "pecially": 5824,
      "Ġverifi": 5825,
      "equ": 5826,
      "ĠNOT": 5827,
      "entralized": 5828,
      "adget": 5829,
      "ĠRout": 5830,
      "ostic": 5831,
      "Ġuploaded": 5832,
      "totype": 5833,
      "Ġachieving": 5834,
      "BUG": 5835,
      "Ġpoisoned": 5836,
      "Ġelim": 5837,
      "parison": 5838,
      "Ġgroups": 5839,
      "framework": 5840,
      "ĠMa": 5841,
      "ĠLu": 5842,
      "ĠHow": 5843,
      "atively": 5844,
      "----------------------------": 5845,
      "Ġfrequently": 5846,
      "sy": 5847,
      "Ġapplies": 5848,
      "ynamic": 5849,
      "lueto": 5850,
      "ceptible": 5851,
      "Ġquestions": 5852,
      "luetooth": 5853,
      "bus": 5854,
      "sites": 5855,
      "140": 5856,
      "Ġactivity": 5857,
      "Ġestablished": 5858,
      "Ġargs": 5859,
      "ĠAdvanced": 5860,
      "><": 5861,
      "Ġdecoding": 5862,
      "Ġappropri": 5863,
      "lig": 5864,
      "Ġdisclose": 5865,
      "Ġmove": 5866,
      "ls": 5867,
      "tify": 5868,
      "settings": 5869,
      "ĠDatabase": 5870,
      "tree": 5871,
      "Ġoptimal": 5872,
      "Ġweakness": 5873,
      "Ġconfirm": 5874,
      "Ġshortcode": 5875,
      "DS": 5876,
      "tools": 5877,
      "nologies": 5878,
      "ĠBuilder": 5879,
      "ĠLab": 5880,
      "Ġentropy": 5881,
      "trained": 5882,
      "ĠAlgorithm": 5883,
      "ighting": 5884,
      "Ġprediction": 5885,
      "UN": 5886,
      "cec": 5887,
      "Ġduplicate": 5888,
      "Ġ2008": 5889,
      "ĠFrom": 5890,
      "Ġsubstantially": 5891,
      "fl": 5892,
      "enced": 5893,
      "160": 5894,
      "mitre": 5895,
      "Ġworkarounds": 5896,
      "Ġinjecting": 5897,
      "chestra": 5898,
      "Ġtemporary": 5899,
      "relevant": 5900,
      "classi": 5901,
      "Ġautonomous": 5902,
      "Ġdouble": 5903,
      "Next": 5904,
      "iler": 5905,
      "Ġlocations": 5906,
      "leep": 5907,
      "ĠTem": 5908,
      "Ġunexpected": 5909,
      "tract": 5910,
      "phere": 5911,
      "Ġoperate": 5912,
      "Ġreducing": 5913,
      "Ġtests": 5914,
      "criber": 5915,
      "ples": 5916,
      "Ġarchive": 5917,
      "Ġalone": 5918,
      "Ġimproperly": 5919,
      "ensorFlow": 5920,
      "tcp": 5921,
      "Ġempty": 5922,
      "Ġenhan": 5923,
      "aps": 5924,
      "Ġconsistency": 5925,
      "Ġmarg": 5926,
      "gres": 5927,
      "Ġsensitivity": 5928,
      "Ġfall": 5929,
      "avail": 5930,
      "bd": 5931,
      "Ġevol": 5932,
      "VID": 5933,
      "roy": 5934,
      "serv": 5935,
      "IDs": 5936,
      "Ġreturned": 5937,
      "RAG": 5938,
      "ĠFTP": 5939,
      "Ġfeas": 5940,
      "Comp": 5941,
      "Ġvehic": 5942,
      "performance": 5943,
      "Work": 5944,
      "pective": 5945,
      "UE": 5946,
      "rusted": 5947,
      "asion": 5948,
      "lite": 5949,
      "Ġsends": 5950,
      "210": 5951,
      "See": 5952,
      "rets": 5953,
      "atures": 5954,
      "Ġamount": 5955,
      "del": 5956,
      "ĠDesktop": 5957,
      "Get": 5958,
      "ĠAR": 5959,
      "FA": 5960,
      "ĠScience": 5961,
      "Fil": 5962,
      "Ġworld": 5963,
      "ĠCA": 5964,
      "Ġdecisions": 5965,
      "Ġactor": 5966,
      "Ġaudio": 5967,
      "ĠEngineering": 5968,
      "LC": 5969,
      "ĠFin": 5970,
      "Read": 5971,
      "Ġdifferential": 5972,
      "sung": 5973,
      "ĠIOT": 5974,
      "ĠQual": 5975,
      "Orig": 5976,
      "():": 5977,
      "Ġdirectories": 5978,
      "Ġclassical": 5979,
      "Ġprocedure": 5980,
      "Ġexception": 5981,
      "Ġturn": 5982,
      "ifying": 5983,
      "meta": 5984,
      "Abstract": 5985,
      "ĠBIOS": 5986,
      "Ġreliable": 5987,
      "Token": 5988,
      "gen": 5989,
      "Ġassumption": 5990,
      "metry": 5991,
      "ĠComputing": 5992,
      "into": 5993,
      "Ġdifferences": 5994,
      "WebKit": 5995,
      "Cre": 5996,
      "Ġidentical": 5997,
      "cessive": 5998,
      "Ġrepresentative": 5999,
      "Ġdepends": 6000,
      "ĠLogin": 6001,
      "Ġtakes": 6002,
      "ĠDirect": 6003,
      "public": 6004,
      "bases": 6005,
      "ĠAny": 6006,
      "Ġactivation": 6007,
      "GP": 6008,
      "}.": 6009,
      "ĠPub": 6010,
      "Ġexfiltra": 6011,
      "ĠMem": 6012,
      "ĠDE": 6013,
      "Ġfundamental": 6014,
      "Ġcoordin": 6015,
      "Cookie": 6016,
      "Ġaccording": 6017,
      "Ġboundaries": 6018,
      "tier": 6019,
      "Ġconstraint": 6020,
      "Ġreliability": 6021,
      "TM": 6022,
      "008": 6023,
      "detection": 6024,
      "Ġconnected": 6025,
      "2026": 6026,
      "term": 6027,
      "ĠRisk": 6028,
      "missions": 6029,
      "Ġfunctional": 6030,
      "Ġlimits": 6031,
      "Bo": 6032,
      "IDS": 6033,
      "Ġdepth": 6034,
      "ĠDesign": 6035,
      "ĠFurthermore": 6036,
      "ĠCan": 6037,
      "Ġimproves": 6038,
      "ĠIntelligence": 6039,
      "ĠBecause": 6040,
      "Cor": 6041,
      "00000": 6042,
      "dimensional": 6043,
      "ract": 6044,
      "Ġmuch": 6045,
      "Ġmanually": 6046,
      "Ġhistory": 6047,
      "First": 6048,
      "SY": 6049,
      "style": 6050,
      "cloud": 6051,
      "OU": 6052,
      "ĠAssociation": 6053,
      "Ġstreng": 6054,
      "My": 6055,
      "projects": 6056,
      "times": 6057,
      "Ġrouter": 6058,
      "Ġdimensions": 6059,
      "has": 6060,
      "rie": 6061,
      "sensitive": 6062,
      "Ġnavig": 6063,
      "Ġbegin": 6064,
      "ĠCTF": 6065,
      "Ġessential": 6066,
      "Ġauthors": 6067,
      "irmware": 6068,
      "Ġstructures": 6069,
      "Ġparties": 6070,
      "List": 6071,
      "ĠNext": 6072,
      "Ġfrequency": 6073,
      "-----------------------------": 6074,
      "005": 6075,
      "Ġhar": 6076,
      "MT": 6077,
      "cast": 6078,
      "ensus": 6079,
      "NR": 6080,
      "inet": 6081,
      "Ġclicking": 6082,
      "tag": 6083,
      "seud": 6084,
      "Ġisolation": 6085,
      "including": 6086,
      "Ġdeveloped": 6087,
      "ĠCyber": 6088,
      "[]": 6089,
      "Ġcomputing": 6090,
      "Ġcontextual": 6091,
      "ĠBook": 6092,
      "Ġguard": 6093,
      "HTTP": 6094,
      "Be": 6095,
      "Ġvalidating": 6096,
      "Ġmishand": 6097,
      "Text": 6098,
      "Ġwatch": 6099,
      "Ġwhereas": 6100,
      "Ġdeletion": 6101,
      "Ġdiffusion": 6102,
      "Ġinfluence": 6103,
      "ĠSecond": 6104,
      "sid": 6105,
      "ĠPassword": 6106,
      "Ext": 6107,
      "WT": 6108,
      "ACK": 6109,
      "lm": 6110,
      "ĠSy": 6111,
      "ugg": 6112,
      "Ġoffset": 6113,
      "iper": 6114,
      "Ġpersist": 6115,
      "Ġdump": 6116,
      "Ġattach": 6117,
      "ART": 6118,
      "Ġbehavioral": 6119,
      "ĠPII": 6120,
      "Ġassessment": 6121,
      "day": 6122,
      "ĠTEE": 6123,
      "Ġcompe": 6124,
      "Ġgranted": 6125,
      "plementation": 6126,
      "Ġcomputed": 6127,
      "ori": 6128,
      "illion": 6129,
      "FP": 6130,
      "Ġothers": 6131,
      "ecycle": 6132,
      "ĠLlama": 6133,
      "irus": 6134,
      "osted": 6135,
      "Llama": 6136,
      "ham": 6137,
      "Ġtogether": 6138,
      "bc": 6139,
      "tially": 6140,
      "untu": 6141,
      "ĠCar": 6142,
      "assive": 6143,
      "Ġlibraries": 6144,
      "Ġdro": 6145,
      "icon": 6146,
      "ĠSSH": 6147,
      "Ġassign": 6148,
      "Ġoptions": 6149,
      "analysis": 6150,
      "Ġmodeling": 6151,
      "Ġrecur": 6152,
      "ITY": 6153,
      "product": 6154,
      "Ġoutperform": 6155,
      "astic": 6156,
      "Ġconducted": 6157,
      "Ġos": 6158,
      "ĠSH": 6159,
      "Ġmodern": 6160,
      "tificial": 6161,
      "007": 6162,
      "CN": 6163,
      "ĠGiven": 6164,
      "ĠHuang": 6165,
      "ĠSyn": 6166,
      "Ġdelay": 6167,
      "gre": 6168,
      "ĠNode": 6169,
      "(\"[": 6170,
      "itu": 6171,
      "Ġmanual": 6172,
      "Ġhealth": 6173,
      "Ġoperates": 6174,
      "105": 6175,
      "angerous": 6176,
      "Ġchoice": 6177,
      "ĠSimilar": 6178,
      "perimental": 6179,
      "optim": 6180,
      "ĠPerformance": 6181,
      "Heap": 6182,
      "Ġswitch": 6183,
      "SET": 6184,
      "gate": 6185,
      "header": 6186,
      "Ġoracle": 6187,
      "afari": 6188,
      "Ġsubstantial": 6189,
      "ĠCON": 6190,
      "ferer": 6191,
      "Ġrapid": 6192,
      "troduction": 6193,
      "mediately": 6194,
      "IST": 6195,
      "ĠHP": 6196,
      "()`": 6197,
      "Ġregul": 6198,
      "Ġhang": 6199,
      "NAME": 6200,
      "Spec": 6201,
      "ĠRAG": 6202,
      "Client": 6203,
      "Ġvalidated": 6204,
      "Ġpublished": 6205,
      "Ġfactor": 6206,
      "hid": 6207,
      "Ġconsists": 6208,
      "urally": 6209,
      "aaaa": 6210,
      "RIP": 6211,
      "yi": 6212,
      "ourcec": 6213,
      "Ġratio": 6214,
      "Definition": 6215,
      "ĠInc": 6216,
      "Ġsymlink": 6217,
      "Ġpan": 6218,
      "Ġperturbations": 6219,
      "crimin": 6220,
      "intended": 6221,
      "220": 6222,
      "via": 6223,
      "char": 6224,
      "than": 6225,
      "ugmented": 6226,
      "Over": 6227,
      "114": 6228,
      "Ġintermediate": 6229,
      "Ġsubject": 6230,
      "ĠSIP": 6231,
      "Ġverifier": 6232,
      "Ġimplementations": 6233,
      "without": 6234,
      "ture": 6235,
      "Ġsw": 6236,
      "argument": 6237,
      "label": 6238,
      "ocker": 6239,
      "kit": 6240,
      "vulnerability": 6241,
      "Ġequival": 6242,
      "Ġworkflows": 6243,
      "Ġperturbation": 6244,
      "DA": 6245,
      "Ġsynta": 6246,
      "RR": 6247,
      "Ro": 6248,
      "Ġ2015": 6249,
      "Ġconfidence": 6250,
      "certain": 6251,
      "osp": 6252,
      "Ġenough": 6253,
      "Ġdecre": 6254,
      "ATIC": 6255,
      "Ġconcrete": 6256,
      "Ġjoint": 6257,
      "ĠBuild": 6258,
      "ĠCorruption": 6259,
      "Ġcollect": 6260,
      "ployment": 6261,
      "2012": 6262,
      "ĠRC": 6263,
      "fi": 6264,
      "phas": 6265,
      "packet": 6266,
      "Ġwhite": 6267,
      "orphic": 6268,
      "ĠProof": 6269,
      "cpu": 6270,
      "ĠPat": 6271,
      "Ġeng": 6272,
      "Inter": 6273,
      "Ġexploits": 6274,
      "ĠIPv": 6275,
      "ĠLibrary": 6276,
      "inting": 6277,
      "ening": 6278,
      "posure": 6279,
      "ĠAutomation": 6280,
      "%.": 6281,
      "GS": 6282,
      "platform": 6283,
      "ĠJenkins": 6284,
      "true": 6285,
      "Ġhybrid": 6286,
      "img": 6287,
      "linear": 6288,
      "Ġindependently": 6289,
      "tinu": 6290,
      "design": 6291,
      "integ": 6292,
      "pression": 6293,
      "rites": 6294,
      "pport": 6295,
      "Ġaccurate": 6296,
      "Ġspan": 6297,
      "ĠClass": 6298,
      "taneously": 6299,
      "rend": 6300,
      "108": 6301,
      "Ġ2012": 6302,
      "Ġholds": 6303,
      "Ġpolynomial": 6304,
      "Ġexpose": 6305,
      "ĠRSA": 6306,
      "poch": 6307,
      "Ġelimin": 6308,
      "Process": 6309,
      "Ġarea": 6310,
      "255": 6311,
      "alf": 6312,
      "Ġeffects": 6313,
      "Ġentities": 6314,
      "Ġsmaller": 6315,
      "asm": 6316,
      "ĠRob": 6317,
      "Ġetc": 6318,
      "Ġcaptures": 6319,
      "ĠVisual": 6320,
      "ĠEl": 6321,
      "ei": 6322,
      "ĠMed": 6323,
      "Ġadopt": 6324,
      "sendmsg": 6325,
      "versaries": 6326,
      "ĠRS": 6327,
      "ĠMonitor": 6328,
      "ĠSymposium": 6329,
      "Network": 6330,
      "0000000": 6331,
      "LA": 6332,
      "Ġgame": 6333,
      "ecko": 6334,
      "Wiki": 6335,
      "Ġpython": 6336,
      "Ġalter": 6337,
      "111": 6338,
      "Ġbasic": 6339,
      "Ġtriggering": 6340,
      "ĠFiles": 6341,
      "ĠChat": 6342,
      "ĠConnect": 6343,
      "rs": 6344,
      "critical": 6345,
      "Ġcollabor": 6346,
      "Ġloaded": 6347,
      "Ġbrute": 6348,
      "ĠApr": 6349,
      "102": 6350,
      "False": 6351,
      "118": 6352,
      "Ġhandled": 6353,
      "141": 6354,
      "Ġuseful": 6355,
      "KI": 6356,
      "LP": 6357,
      "istance": 6358,
      "Ġ`/": 6359,
      "']": 6360,
      "ĠGen": 6361,
      "systems": 6362,
      "bra": 6363,
      "Ġampl": 6364,
      "ĠOptim": 6365,
      "uff": 6366,
      ".)": 6367,
      "patch": 6368,
      "utes": 6369,
      "ĠClaude": 6370,
      "Ne": 6371,
      "Ġconvers": 6372,
      "Ġpresence": 6373,
      "SPC": 6374,
      "ĠRel": 6375,
      "ĠDigital": 6376,
      "Ġdra": 6377,
      "Ġdeserialization": 6378,
      "Ġspa": 6379,
      "123": 6380,
      "ĠModule": 6381,
      "initialized": 6382,
      "ĠLin": 6383,
      "Ġdefinition": 6384,
      "ĠSensitive": 6385,
      "Ġappropriate": 6386,
      "AE": 6387,
      "Ġtainted": 6388,
      "ĠCommon": 6389,
      "Ġbrow": 6390,
      "Ġespecially": 6391,
      "Ġjob": 6392,
      "Ġbounded": 6393,
      "ĠElements": 6394,
      "JS": 6395,
      "Ġtoo": 6396,
      "Ġvision": 6397,
      "Ġverified": 6398,
      "ĠAppliance": 6399,
      "Ġcru": 6400,
      "Note": 6401,
      "ĠController": 6402,
      "ĠZhou": 6403,
      "idance": 6404,
      "Ġmaliciously": 6405,
      "istrator": 6406,
      "handle": 6407,
      "ĠTer": 6408,
      "Ġimportance": 6409,
      "dr": 6410,
      "ĠAm": 6411,
      "Ġbehav": 6412,
      "ntrusted": 6413,
      "aterial": 6414,
      "Ġanomaly": 6415,
      "Let": 6416,
      "ĠPay": 6417,
      "ĠDue": 6418,
      "Users": 6419,
      "trigger": 6420,
      "utor": 6421,
      "Theorem": 6422,
      "Ġauto": 6423,
      "Ġdependencies": 6424,
      "Algorithm": 6425,
      "Ġowner": 6426,
      "Ġwrong": 6427,
      "Intern": 6428,
      "Ġpool": 6429,
      "Ġcell": 6430,
      "worker": 6431,
      "fiers": 6432,
      "aming": 6433,
      "require": 6434,
      "Ġincreasingly": 6435,
      "Bas": 6436,
      "Ġenhance": 6437,
      "Ġapps": 6438,
      "115": 6439,
      "execution": 6440,
      "Ġsites": 6441,
      "isation": 6442,
      "grained": 6443,
      "Ġmitigation": 6444,
      "CV": 6445,
      "fession": 6446,
      "mous": 6447,
      "ĠCommunications": 6448,
      "Multi": 6449,
      "mic": 6450,
      "ups": 6451,
      "Ġcontin": 6452,
      "Ġfamily": 6453,
      "quoted": 6454,
      "cms": 6455,
      "Point": 6456,
      "ĠMoreover": 6457,
      "Rejected": 6458,
      "Ġsolutions": 6459,
      "Ġcombination": 6460,
      "IV": 6461,
      "OO": 6462,
      "Ġproduction": 6463,
      "Ġembeddings": 6464,
      "ek": 6465,
      "Reg": 6466,
      "zes": 6467,
      "Ġfire": 6468,
      "number": 6469,
      "Ġobservation": 6470,
      "True": 6471,
      "adding": 6472,
      "ĠSolaris": 6473,
      "ĠTheorem": 6474,
      "Ġapplying": 6475,
      "Ġeasily": 6476,
      "Cloud": 6477,
      "olio": 6478,
      "Ġsteal": 6479,
      "ĠFoundation": 6480,
      "ĠSIMATIC": 6481,
      "between": 6482,
      "Ġbalan": 6483,
      "rail": 6484,
      "Ġinterfaces": 6485,
      "Ġreconstruction": 6486,
      "From": 6487,
      "Ġadvanced": 6488,
      "Ġ!=": 6489,
      "Ġqueue": 6490,
      "debug": 6491,
      "these": 6492,
      "rice": 6493,
      "Ġrein": 6494,
      "Ġbuilding": 6495,
      "semble": 6496,
      "Config": 6497,
      "Ġunified": 6498,
      "xity": 6499,
      "Ġtopo": 6500,
      "Ġbody": 6501,
      "ĠAWS": 6502,
      "Ġadvantage": 6503,
      "ĠDOM": 6504,
      "Ġdaemon": 6505,
      "RU": 6506,
      "ha": 6507,
      "Ġdegradation": 6508,
      "Ġ29": 6509,
      "track": 6510,
      "ĠSafari": 6511,
      "Ġediting": 6512,
      "Ġorganization": 6513,
      "authenticated": 6514,
      "Co": 6515,
      "ĠGroup": 6516,
      "CM": 6517,
      "Ġroles": 6518,
      "ĠIdentity": 6519,
      "*]": 6520,
      "Free": 6521,
      "mits": 6522,
      "Ġbranch": 6523,
      ":/": 6524,
      "Ġpen": 6525,
      "vert": 6526,
      "ĠStorage": 6527,
      "~~": 6528,
      "ticip": 6529,
      "comes": 6530,
      "Ġparse": 6531,
      "aud": 6532,
      "ĠBro": 6533,
      "pg": 6534,
      "yp": 6535,
      "Ġmanif": 6536,
      "Ġconcerns": 6537,
      "dest": 6538,
      "Ġprovider": 6539,
      "Ġapplic": 6540,
      "190": 6541,
      "Ġneighb": 6542,
      "Ġflows": 6543,
      "Gen": 6544,
      "bs": 6545,
      "Ġcosts": 6546,
      "ea": 6547,
      "ĠEmail": 6548,
      "Ġnorm": 6549,
      "Ġsanitize": 6550,
      "Ġbenef": 6551,
      "Ġwords": 6552,
      "033": 6553,
      "Ġparallel": 6554,
      "Ġhel": 6555,
      "ĠDescription": 6556,
      "malicious": 6557,
      "Ġ128": 6558,
      "istingu": 6559,
      "Ġhypot": 6560,
      "mac": 6561,
      "Ġintrusion": 6562,
      "cepts": 6563,
      "Ġprefix": 6564,
      "ĠSAP": 6565,
      "Ġdisable": 6566,
      "Ġcomposition": 6567,
      "Ġdiv": 6568,
      "Ġstages": 6569,
      "tably": 6570,
      "=&": 6571,
      "ĠRL": 6572,
      "Ġintercept": 6573,
      "607": 6574,
      "NU": 6575,
      "Ġincomplete": 6576,
      "ana": 6577,
      "Ġ60": 6578,
      "ulty": 6579,
      "Ġcomputer": 6580,
      "Ġserves": 6581,
      "utex": 6582,
      "ĠResults": 6583,
      "Ġfinancial": 6584,
      "ometric": 6585,
      "ĠRelease": 6586,
      "except": 6587,
      "Ġguess": 6588,
      "Ġchosen": 6589,
      "Ġreceive": 6590,
      "CI": 6591,
      "btrfs": 6592,
      "Ġshif": 6593,
      "Ġproofs": 6594,
      "Ġrend": 6595,
      "oting": 6596,
      "Ġimmediately": 6597,
      "parameter": 6598,
      "counter": 6599,
      "Method": 6600,
      "pdf": 6601,
      "Ġlen": 6602,
      "ĠEthereum": 6603,
      "ĠLim": 6604,
      "dual": 6605,
      "Ġgenerator": 6606,
      "ponents": 6607,
      "Ġsimpl": 6608,
      "Ġstronger": 6609,
      "Ġheterogeneous": 6610,
      "Tools": 6611,
      "ĠREST": 6612,
      "Ġinstanti": 6613,
      "leak": 6614,
      "apped": 6615,
      "ĠJuniper": 6616,
      "Ġcircum": 6617,
      "Col": 6618,
      "usive": 6619,
      "Ġ\"/": 6620,
      "Ġfactors": 6621,
      "Ġbias": 6622,
      "Ġtransition": 6623,
      ".(": 6624,
      "knowledge": 6625,
      "ĠAtt": 6626,
      "ĠES": 6627,
      "ĠVideo": 6628,
      "Ġleft": 6629,
      "Ġ37": 6630,
      "ĠVerification": 6631,
      "gressive": 6632,
      "Codester": 6633,
      "gex": 6634,
      "ĠProject": 6635,
      "tility": 6636,
      "??": 6637,
      "ĠCer": 6638,
      "Ġdifference": 6639,
      "location": 6640,
      "Bl": 6641,
      "Ġcodes": 6642,
      "ĠIss": 6643,
      "ĠSamsung": 6644,
      "104": 6645,
      "Ġsuggests": 6646,
      "gree": 6647,
      "Program": 6648,
      "ĠValidation": 6649,
      "VIDIA": 6650,
      "Ġ()": 6651,
      "Ġexpec": 6652,
      "metic": 6653,
      "HTML": 6654,
      "abric": 6655,
      "consist": 6656,
      "Ġmicro": 6657,
      "urse": 6658,
      "Deep": 6659,
      "Ġtags": 6660,
      "origin": 6661,
      "Ġ35": 6662,
      "Ġ38": 6663,
      "ĠContext": 6664,
      "ĠDefense": 6665,
      "Check": 6666,
      "ios": 6667,
      "rojan": 6668,
      "EVO": 6669,
      "policy": 6670,
      "Ġevaluating": 6671,
      "ĠTensorFlow": 6672,
      "iddleware": 6673,
      "ĠDiffer": 6674,
      "Ġmer": 6675,
      "rams": 6676,
      "pic": 6677,
      "Ġsystematically": 6678,
      "((": 6679,
      "Fuzz": 6680,
      "win": 6681,
      "Ġintegrated": 6682,
      "2000": 6683,
      "Ġexplor": 6684,
      "New": 6685,
      "Ġcontexts": 6686,
      "ĠDOS": 6687,
      "Ġrated": 6688,
      "Ġrouting": 6689,
      "ĠTools": 6690,
      "Ġwatermarking": 6691,
      "Ġspoofing": 6692,
      "Med": 6693,
      "reason": 6694,
      "reme": 6695,
      "170": 6696,
      "subcomponent": 6697,
      "Ġaligned": 6698,
      "Ġhijacking": 6699,
      "onymous": 6700,
      "urs": 6701,
      "const": 6702,
      "ĠSpecial": 6703,
      "ĠAgents": 6704,
      "Ġsimulation": 6705,
      "ĠATT": 6706,
      "Ġcommunity": 6707,
      "roll": 6708,
      "bf": 6709,
      "240": 6710,
      "Ġplay": 6711,
      "document": 6712,
      "ECT": 6713,
      "Ġ45": 6714,
      "Ġforens": 6715,
      "Ġrecei": 6716,
      "ervation": 6717,
      "quantum": 6718,
      "Ġtranspare": 6719,
      "Ġcapacity": 6720,
      "230": 6721,
      "submit": 6722,
      "Ġrefusal": 6723,
      "contain": 6724,
      "private": 6725,
      "Ġimplicit": 6726,
      "103": 6727,
      "parameters": 6728,
      "execu": 6729,
      "ĠContact": 6730,
      "CK": 6731,
      "Ġadapt": 6732,
      "ĠFore": 6733,
      "Ġidentifiers": 6734,
      "stud": 6735,
      "Ġsuc": 6736,
      "Ġyear": 6737,
      "tables": 6738,
      "ORT": 6739,
      "TLS": 6740,
      "Ġcurrently": 6741,
      "dataset": 6742,
      "High": 6743,
      "Ġtaxonomy": 6744,
      "alleng": 6745,
      "Ġtracking": 6746,
      "direct": 6747,
      "malloc": 6748,
      "Ġnamed": 6749,
      "Ġrest": 6750,
      "ĠIII": 6751,
      "idental": 6752,
      "Ġadvised": 6753,
      "object": 6754,
      "configuration": 6755,
      "Ġextended": 6756,
      "Ġterm": 6757,
      "worth": 6758,
      "Ġnature": 6759,
      "redu": 6760,
      "ĠMail": 6761,
      "Ġtemplates": 6762,
      "Port": 6763,
      "Ġpatches": 6764,
      "Ġincorrectly": 6765,
      "IPS": 6766,
      "generation": 6767,
      "timer": 6768,
      "SELECT": 6769,
      "Ġhaving": 6770,
      "ĠProtection": 6771,
      "ilies": 6772,
      "ĠMax": 6773,
      "ĠLD": 6774,
      "Ġfilters": 6775,
      "Seek": 6776,
      "Ġfb": 6777,
      "ĠHost": 6778,
      "Ġvariant": 6779,
      "Ġtrajectory": 6780,
      "fted": 6781,
      "picious": 6782,
      "iii": 6783,
      "bpf": 6784,
      "UP": 6785,
      "Ġsizes": 6786,
      "Ġhierarch": 6787,
      "vergence": 6788,
      "Ġ33": 6789,
      "Ġmanage": 6790,
      "ulative": 6791,
      "ĠGallery": 6792,
      "ractical": 6793,
      "Ġtv": 6794,
      "ĠMc": 6795,
      "Ġreceives": 6796,
      "lec": 6797,
      "ĠGecko": 6798,
      "Engine": 6799,
      "ault": 6800,
      "Ġseem": 6801,
      "Ġparadigm": 6802,
      "Ġtested": 6803,
      "ĠDoc": 6804,
      "etermin": 6805,
      "Ġwriting": 6806,
      "Ġfolder": 6807,
      "omom": 6808,
      "Ġ>=": 6809,
      "Ġnar": 6810,
      "rupal": 6811,
      "coming": 6812,
      "Ġuploading": 6813,
      "Ġoffers": 6814,
      "EMU": 6815,
      "004": 6816,
      "ĠHel": 6817,
      "VER": 6818,
      "Ġdemonstrating": 6819,
      "Ġproblems": 6820,
      "ĠĠĠĠĠĠĠĠĠĠĠĠĠĠĠĠ": 6821,
      "Ġfacilit": 6822,
      "eyond": 6823,
      "sum": 6824,
      "Ġbackground": 6825,
      "Ġshowing": 6826,
      "Ġadop": 6827,
      "ĠConnec": 6828,
      "Ġtheoretical": 6829,
      "ĠTask": 6830,
      "Ġlate": 6831,
      "Ġagain": 6832,
      "Ġexperiment": 6833,
      "Ġbugs": 6834,
      "Hardware": 6835,
      "Ġlinked": 6836,
      "Ġmatches": 6837,
      "cookie": 6838,
      "bil": 6839,
      "ossible": 6840,
      "Ġhonest": 6841,
      "Ġconven": 6842,
      "Error": 6843,
      "Ġsimply": 6844,
      "Ġchanging": 6845,
      "scalation": 6846,
      "Ġguarantee": 6847,
      "ĠIndustrial": 6848,
      "Ġpanic": 6849,
      "Ġgenerative": 6850,
      "ĠZhu": 6851,
      "handler": 6852,
      "ĠSourceCodester": 6853,
      "fail": 6854,
      "Ġelevation": 6855,
      "Ġreduced": 6856,
      "Side": 6857,
      "Ġcriter": 6858,
      "manager": 6859,
      "gpu": 6860,
      "Ġcharacteristics": 6861,
      "consistent": 6862,
      "Ġlacks": 6863,
      "istinguish": 6864,
      "Run": 6865,
      "ĠIOS": 6866,
      "Ġcoll": 6867,
      "Ġdetermined": 6868,
      "pip": 6869,
      "Ġsitu": 6870,
      "ached": 6871,
      "Core": 6872,
      "evalu": 6873,
      "uration": 6874,
      "igration": 6875,
      "ĠSVG": 6876,
      "rx": 6877,
      "Ġmail": 6878,
      "itories": 6879,
      "Ġintelligence": 6880,
      "sm": 6881,
      "ĠPri": 6882,
      "result": 6883,
      "Ġbackdo": 6884,
      "Ġstealth": 6885,
      "Ġmix": 6886,
      "ĠSpr": 6887,
      "omla": 6888,
      "ĠChain": 6889,
      "Ġexistence": 6890,
      "full": 6891,
      "ĠNUM": 6892,
      "Ġinterval": 6893,
      "ASAN": 6894,
      "Ġspeed": 6895,
      "Ġemphas": 6896,
      "Ġpipelines": 6897,
      "ices": 6898,
      "byte": 6899,
      "Ġsummary": 6900,
      "media": 6901,
      "fit": 6902,
      "Ġsecrets": 6903,
      "echanism": 6904,
      "ĠAddress": 6905,
      "Ġresili": 6906,
      "standard": 6907,
      "tegan": 6908,
      "Ġdeflate": 6909,
      "Ġactually": 6910,
      "num": 6911,
      "Ġrev": 6912,
      "ĠFusion": 6913,
      "ĠLif": 6914,
      "ĠMin": 6915,
      "Ġapproximately": 6916,
      "pd": 6917,
      "Ġer": 6918,
      "ĠOnce": 6919,
      "1234": 6920,
      "ĠDevice": 6921,
      "ffix": 6922,
      "proc": 6923,
      "Ġclosed": 6924,
      "Ġcorrectness": 6925,
      "Ġsusceptible": 6926,
      "Privacy": 6927,
      "ĠTHIS": 6928,
      "pers": 6929,
      "creen": 6930,
      "Ġcrucial": 6931,
      "Ġbroader": 6932,
      "Ġforms": 6933,
      "107": 6934,
      "Ġaccept": 6935,
      "amd": 6936,
      "Ġadjacent": 6937,
      "ĠAIR": 6938,
      "Avail": 6939,
      "ptr": 6940,
      "Insecure": 6941,
      "may": 6942,
      "Ġaccum": 6943,
      "available": 6944,
      "Ġflo": 6945,
      "Ġspecification": 6946,
      "Ġexplore": 6947,
      "Ġclaims": 6948,
      "ithmetic": 6949,
      "timate": 6950,
      "ĠBut": 6951,
      "ĠZhao": 6952,
      "iding": 6953,
      "Ġones": 6954,
      "commit": 6955,
      "rices": 6956,
      "ACE": 6957,
      "grading": 6958,
      "Ġunit": 6959,
      "Ġperspective": 6960,
      "Ġreplay": 6961,
      "Ġproceed": 6962,
      "Ġinvolved": 6963,
      "TL": 6964,
      "cn": 6965,
      "ĠGet": 6966,
      "106": 6967,
      "Ġskb": 6968,
      "ĠInfrastructure": 6969,
      "Sphere": 6970,
      "raud": 6971,
      "Ġremoving": 6972,
      "Ġwor": 6973,
      "Ġdependency": 6974,
      "ĠSYSTEM": 6975,
      "Layer": 6976,
      "Ġpanel": 6977,
      "ĠStar": 6978,
      "ĠOther": 6979,
      "ITRE": 6980,
      "Ġcontribution": 6981,
      "Ġtitle": 6982,
      "ĠBig": 6983,
      "aker": 6984,
      "SER": 6985,
      "Ġsanitise": 6986,
      "Rel": 6987,
      "ulator": 6988,
      "anguages": 6989,
      "ĠwatchOS": 6990,
      "Ġregistration": 6991,
      "osed": 6992,
      "ORD": 6993,
      "Ġloading": 6994,
      "connec": 6995,
      "011": 6996,
      "normal": 6997,
      "Ġrank": 6998,
      "Ġpositives": 6999,
      "ĠRuntime": 7000,
      "BS": 7001,
      "ĠDocker": 7002,
      "inder": 7003,
      "ertion": 7004,
      "opy": 7005,
      "Output": 7006,
      "Ġstatistics": 7007,
      "Ġsix": 7008,
      "odec": 7009,
      "goform": 7010,
      "ĠtvOS": 7011,
      "ĠDrupal": 7012,
      "ĠEvent": 7013,
      "Ġgen": 7014,
      "Ġmethodology": 7015,
      "ergy": 7016,
      "Ġevaluates": 7017,
      "ism": 7018,
      "Ġunintended": 7019,
      "Ġexactly": 7020,
      "ĠFalse": 7021,
      "Ġsatisfies": 7022,
      "filtered": 7023,
      "IBCO": 7024,
      "920": 7025,
      "CAP": 7026,
      "syn": 7027,
      "Ġsni": 7028,
      "ĠConsequently": 7029,
      "Uni": 7030,
      "uly": 7031,
      "Ġattestation": 7032,
      "Ġcontroll": 7033,
      "Ġ44": 7034,
      "Ġsigning": 7035,
      "Ġclassifier": 7036,
      "ĠSupport": 7037,
      "fill": 7038,
      "Ġ36": 7039,
      "Ġrefine": 7040,
      "alluc": 7041,
      "mini": 7042,
      "onal": 7043,
      "Ġconsequ": 7044,
      "Ġfocuses": 7045,
      "DU": 7046,
      "RB": 7047,
      "ĠWrite": 7048,
      "fork": 7049,
      "Ġworking": 7050,
      "996": 7051,
      "ĠShare": 7052,
      "Ġsynchron": 7053,
      "rq": 7054,
      "Ġconsole": 7055,
      "Ġresponsible": 7056,
      "ĠTele": 7057,
      "Ġhor": 7058,
      "ĠEscalation": 7059,
      "**:": 7060,
      "IL": 7061,
      "Ġcalib": 7062,
      "tuned": 7063,
      "Ġsymbolic": 7064,
      "GA": 7065,
      "ips": 7066,
      "ĠPoC": 7067,
      "Ġleverages": 7068,
      "ĠElevation": 7069,
      "tified": 7070,
      "Ġgraphs": 7071,
      "Ġcircuit": 7072,
      "Ġdeclared": 7073,
      "ĠTIBCO": 7074,
      "2010": 7075,
      "ĠGaussian": 7076,
      "ĠConsult": 7077,
      "itations": 7078,
      "ĠUnlike": 7079,
      "Ġscaling": 7080,
      "Ġmaintains": 7081,
      "Ġffffffff": 7082,
      "aro": 7083,
      "Ġtheme": 7084,
      "Require": 7085,
      "Ġdiscovery": 7086,
      "****************": 7087,
      "AU": 7088,
      "LR": 7089,
      "guard": 7090,
      "Ġextend": 7091,
      "pur": 7092,
      "Ġdate": 7093,
      "ĠSal": 7094,
      "oders": 7095,
      "Ġupper": 7096,
      "Ġdepending": 7097,
      "................": 7098,
      "CB": 7099,
      "GD": 7100,
      "Tech": 7101,
      "Ġwra": 7102,
      "Ġutilized": 7103,
      "Att": 7104,
      "ROM": 7105,
      "vo": 7106,
      "Ġcallback": 7107,
      "ĠVPN": 7108,
      "Ġdetecting": 7109,
      "Or": 7110,
      "embed": 7111,
      "IDATE": 7112,
      "900": 7113,
      "Action": 7114,
      "Block": 7115,
      "ĠIV": 7116,
      "Controller": 7117,
      "ODE": 7118,
      "activ": 7119,
      "ĠALPS": 7120,
      "forward": 7121,
      "clear": 7122,
      "Integer": 7123,
      "660": 7124,
      "DT": 7125,
      "Ġextensions": 7126,
      "Base": 7127,
      "ĠWire": 7128,
      "ploys": 7129,
      "ĠUl": 7130,
      "rb": 7131,
      "Ġprobe": 7132,
      "ligible": 7133,
      "remain": 7134,
      "ĠSl": 7135,
      "blem": 7136,
      "Info": 7137,
      "mlx": 7138,
      "Ġrounds": 7139,
      "anking": 7140,
      "Ġpi": 7141,
      "Ġvolume": 7142,
      "ĠGitLab": 7143,
      "Hand": 7144,
      "String": 7145,
      "pub": 7146,
      "tity": 7147,
      "ats": 7148,
      "Ġdecrypt": 7149,
      "inguistics": 7150,
      "ĠError": 7151,
      "Ġgreater": 7152,
      "making": 7153,
      "Ġ2000": 7154,
      "false": 7155,
      "ĠTop": 7156,
      "Ġelse": 7157,
      "Ġ2013": 7158,
      "profile": 7159,
      "Ġ*/": 7160,
      "ĠOverall": 7161,
      "ĠInterface": 7162,
      "Ġexplan": 7163,
      "Ġprove": 7164,
      "allenging": 7165,
      "ĠNUMBER": 7166,
      "IEEE": 7167,
      "env": 7168,
      "Ġcurl": 7169,
      "Ġfront": 7170,
      "coin": 7171,
      "dients": 7172,
      "hy": 7173,
      "ĠIO": 7174,
      "Since": 7175,
      "entations": 7176,
      "Ġfc": 7177,
      "Ġexcessive": 7178,
      "Ġauditing": 7179,
      "Ġrights": 7180,
      "HR": 7181,
      "Ġaltering": 7182,
      "Ġcapable": 7183,
      "Ġpractices": 7184,
      "Ġpackages": 7185,
      "IFAR": 7186,
      "Stream": 7187,
      "Ġpixel": 7188,
      "Ġpartition": 7189,
      "Ġcontracts": 7190,
      "Prompt": 7191,
      "ga": 7192,
      "els": 7193,
      "shellcode": 7194,
      "encrypted": 7195,
      "ĠDriver": 7196,
      "Ġdire": 7197,
      "their": 7198,
      "rupted": 7199,
      "idelity": 7200,
      "Ġcut": 7201,
      "tificate": 7202,
      "achie": 7203,
      "engine": 7204,
      "aligned": 7205,
      "ki": 7206,
      "Ġpapers": 7207,
      "Ġgadget": 7208,
      "Ġencoder": 7209,
      "ASP": 7210,
      "KS": 7211,
      "Linux": 7212,
      "lin": 7213,
      "Ġdisk": 7214,
      "Ġgeneric": 7215,
      "ĠMode": 7216,
      "ĠHardware": 7217,
      "rcv": 7218,
      "ĠSubs": 7219,
      "Ġobfuscation": 7220,
      "agents": 7221,
      "SCALL": 7222,
      "TY": 7223,
      "WF": 7224,
      "hema": 7225,
      "Ġserve": 7226,
      "Ġ||": 7227,
      "Ġprinciple": 7228,
      "SESS": 7229,
      "beta": 7230,
      "teganograph": 7231,
      "agic": 7232,
      "Ġstability": 7233,
      "ĠConsultIDs": 7234,
      "%),": 7235,
      "Session": 7236,
      "Ġput": 7237,
      "ĠSi": 7238,
      "Ġcontained": 7239,
      "Ġidentification": 7240,
      "PRO": 7241,
      "Ġreload": 7242,
      "Ġimperson": 7243,
      "decode": 7244,
      "Ġcounts": 7245,
      "urp": 7246,
      "IME": 7247,
      "SYSCALL": 7248,
      "Ġexpand": 7249,
      "Of": 7250,
      "controller": 7251,
      "encing": 7252,
      "References": 7253,
      "ĠTraining": 7254,
      "Ġproduced": 7255,
      "urope": 7256,
      "Ġ04": 7257,
      "ialog": 7258,
      "results": 7259,
      "Ġabuse": 7260,
      "Ġlargely": 7261,
      "istributed": 7262,
      "ulations": 7263,
      "predic": 7264,
      "ryptographic": 7265,
      "Do": 7266,
      "Ġap": 7267,
      "Ġbelong": 7268,
      "ĠMi": 7269,
      "KD": 7270,
      "Ġir": 7271,
      "Ġaware": 7272,
      "ĠStack": 7273,
      "peg": 7274,
      "shop": 7275,
      "Ġfoundation": 7276,
      "Ġgains": 7277,
      "lective": 7278,
      "setup": 7279,
      "berg": 7280,
      "management": 7281,
      "Ġcoding": 7282,
      "Ġsimultaneously": 7283,
      "Ġ00000000000000": 7284,
      "Ġmembership": 7285,
      "ĠEasy": 7286,
      "uid": 7287,
      "sts": 7288,
      "Ġdeveloper": 7289,
      "Conference": 7290,
      "ĠComputational": 7291,
      "Ġequal": 7292,
      "next": 7293,
      "Ġbo": 7294,
      "anner": 7295,
      "Ġmanager": 7296,
      "Ġcorpus": 7297,
      "Ġdoesn": 7298,
      "Ġmultimodal": 7299,
      "-]": 7300,
      "Fetch": 7301,
      "ĠCAND": 7302,
      "Ġconj": 7303,
      "Ġrequirement": 7304,
      "Ġmanipulating": 7305,
      "Ġfinding": 7306,
      "ME": 7307,
      "ja": 7308,
      "Ġ2003": 7309,
      "hwframe": 7310,
      "gnition": 7311,
      "fessional": 7312,
      "mk": 7313,
      "both": 7314,
      "tel": 7315,
      "ĠPRO": 7316,
      "Ġenergy": 7317,
      "ĠConfiguration": 7318,
      "################################": 7319,
      "Ġreflects": 7320,
      "ĠCANDIDATE": 7321,
      "Ġep": 7322,
      "ĠIC": 7323,
      "Ġ95": 7324,
      "Ġanomal": 7325,
      "Ġregardless": 7326,
      ")-": 7327,
      "Ġcollected": 7328,
      "Ġcryptography": 7329,
      "FLAG": 7330,
      "Logic": 7331,
      "Ġemployed": 7332,
      "Ġtransi": 7333,
      "Ġnor": 7334,
      "Ġproviders": 7335,
      "Ġstatement": 7336,
      "Ġdrift": 7337,
      "Ġ(,": 7338,
      "Referer": 7339,
      "ĠEditor": 7340,
      "TO": 7341,
      "care": 7342,
      "Ġexposes": 7343,
      "Ġentirely": 7344,
      "pol": 7345,
      "Ġanch": 7346,
      "void": 7347,
      "ĠDIR": 7348,
      "PEG": 7349,
      "Ġtrend": 7350,
      "Ġbott": 7351,
      "Ġalternative": 7352,
      "ĠEmbedded": 7353,
      "ficial": 7354,
      "Ġretrieved": 7355,
      "png": 7356,
      "Ġ34": 7357,
      "initions": 7358,
      "Ġinitialization": 7359,
      "izon": 7360,
      "Ġevaluations": 7361,
      "Ġlearned": 7362,
      "oriented": 7363,
      "shark": 7364,
      "Ġchains": 7365,
      "Ġphys": 7366,
      "{\"": 7367,
      "Ġface": 7368,
      "Ġhosts": 7369,
      "ley": 7370,
      "Ġ70": 7371,
      "NIST": 7372,
      "ĠFeb": 7373,
      "GB": 7374,
      "bigu": 7375,
      "Ġunlearning": 7376,
      "Ġdatabases": 7377,
      "ĠJournal": 7378,
      "Ġidentifies": 7379,
      "hook": 7380,
      "ĠGe": 7381,
      "Ref": 7382,
      "QA": 7383,
      "Source": 7384,
      "eas": 7385,
      "Ġ=>": 7386,
      "###": 7387,
      "TER": 7388,
      "iliary": 7389,
      "125": 7390,
      "split": 7391,
      "Ġpseud": 7392,
      "Ġlogical": 7393,
      "(\"\\": 7394,
      "State": 7395,
      "Query": 7396,
      "Ġwhy": 7397,
      "ifications": 7398,
      "dentials": 7399,
      "allowed": 7400,
      "ustering": 7401,
      "Tool": 7402,
      "ARNING": 7403,
      "atel": 7404,
      "Ġled": 7405,
      "Ġconfusion": 7406,
      "Ġmaps": 7407,
      "Ġsucceed": 7408,
      "ĠArchitecture": 7409,
      "Google": 7410,
      "sibility": 7411,
      "ĠInstead": 7412,
      "ĠQEMU": 7413,
      "Ġtargeting": 7414,
      "Ġinform": 7415,
      "INK": 7416,
      "Ġlimitation": 7417,
      "Ġexhibits": 7418,
      "omomorphic": 7419,
      "116": 7420,
      "CHAR": 7421,
      "Value": 7422,
      "ilding": 7423,
      "Ġrestart": 7424,
      "ruc": 7425,
      "Ġreconstruct": 7426,
      "AAAAAAAAAAAAAAAA": 7427,
      "gr": 7428,
      "attacker": 7429,
      "miti": 7430,
      "sur": 7431,
      "Ġsegmentation": 7432,
      "Mark": 7433,
      "Ġprioriti": 7434,
      "Ġseconds": 7435,
      "Ġcleartext": 7436,
      "ĠAdvances": 7437,
      "bar": 7438,
      "ĠReference": 7439,
      "ensors": 7440,
      "ĠScript": 7441,
      "ĠRandom": 7442,
      "Ġviolation": 7443,
      "Class": 7444,
      "Ġrelying": 7445,
      "Ġcop": 7446,
      "Ġmeasurement": 7447,
      "Ġelevate": 7448,
      "Ġabsolute": 7449,
      "Ġacceler": 7450,
      "Ġign": 7451,
      "Ġconstructed": 7452,
      "Ġstrictly": 7453,
      "LAN": 7454,
      "Ġexerc": 7455,
      "ĠAdversarial": 7456,
      "uxiliary": 7457,
      "buntu": 7458,
      "ĠRest": 7459,
      "reement": 7460,
      "DK": 7461,
      "Ġaccidental": 7462,
      "Ġreads": 7463,
      "portion": 7464,
      "Ġtimeout": 7465,
      "Red": 7466,
      "Ġded": 7467,
      "ĠText": 7468,
      "Ġchild": 7469,
      "Ġsevere": 7470,
      "Ġcarefully": 7471,
      "custom": 7472,
      "Ġfraction": 7473,
      "Ġwebsites": 7474,
      "260": 7475,
      "Ġvictims": 7476,
      "ĠAES": 7477,
      "reach": 7478,
      "Ġparent": 7479,
      "204": 7480,
      "Instruct": 7481,
      "behavior": 7482,
      "Ġstop": 7483,
      "safety": 7484,
      "Ġalert": 7485,
      "pha": 7486,
      "Ġdirections": 7487,
      "Ġpure": 7488,
      "Ġret": 7489,
      "Ġgzip": 7490,
      "evaluation": 7491,
      "XXXX": 7492,
      "ĠConsumer": 7493,
      "512": 7494,
      "ĠAS": 7495,
      "Ġprevents": 7496,
      "PoC": 7497,
      "Shell": 7498,
      "vs": 7499,
      "proxy": 7500,
      "ĠACL": 7501,
      "UTH": 7502,
      "Ġindirect": 7503,
      "Ġobjectives": 7504,
      "partment": 7505,
      "inode": 7506,
      "asc": 7507,
      "Ġbridge": 7508,
      "enable": 7509,
      "loop": 7510,
      "ĠSafe": 7511,
      "ĠAud": 7512,
      "description": 7513,
      "ĠSetup": 7514,
      "Ġcard": 7515,
      "Ġheur": 7516,
      "Ġpreserve": 7517,
      "Ġfamilies": 7518,
      "alignment": 7519,
      "ĠSN": 7520,
      "------": 7521,
      "olding": 7522,
      "Ġadds": 7523,
      "Ġmoder": 7524,
      "Ġdiscussion": 7525,
      "FX": 7526,
      "Payload": 7527,
      "Ġ2010": 7528,
      "Ġtransmission": 7529,
      "/?": 7530,
      "537": 7531,
      "thing": 7532,
      "Ġhighlight": 7533,
      "ĠTrue": 7534,
      "bind": 7535,
      "two": 7536,
      "tml": 7537,
      "Ġdual": 7538,
      "Ġbox": 7539,
      "Ġunfiltered": 7540,
      "program": 7541,
      "ĠTest": 7542,
      "install": 7543,
      "ĠCE": 7544,
      "Ġleveraged": 7545,
      "Ġcontact": 7546,
      "Ġpeer": 7547,
      "Ġfuzzing": 7548,
      "ĠSocial": 7549,
      "resource": 7550,
      "ĠUnified": 7551,
      "Ġlocated": 7552,
      "periments": 7553,
      "Ġdead": 7554,
      "Ġ39": 7555,
      "ĠIDS": 7556,
      "caten": 7557,
      "jsp": 7558,
      "Ġshap": 7559,
      "||": 7560,
      "ĠHE": 7561,
      "Ġpk": 7562,
      "Ġevolution": 7563,
      "Ġepoch": 7564,
      "attach": 7565,
      "Ġprojects": 7566,
      "Ġcompati": 7567,
      "agick": 7568,
      "Ġflags": 7569,
      "Ġconfirmed": 7570,
      "ĠOAuth": 7571,
      "___": 7572,
      "Ġheav": 7573,
      "Ġfocused": 7574,
      "Ġcomment": 7575,
      "rank": 7576,
      "ĠJoomla": 7577,
      "ĠBased": 7578,
      "Ġbypassing": 7579,
      "ĠPrivate": 7580,
      "seg": 7581,
      "ĠWei": 7582,
      "Ġguidance": 7583,
      "Ġoptimized": 7584,
      "Ġcombining": 7585,
      "Ġ0000000000000001": 7586,
      "ĠLite": 7587,
      "ĠVi": 7588,
      "Graph": 7589,
      "Ġmodes": 7590,
      "Ġsequential": 7591,
      "Local": 7592,
      "Ġtele": 7593,
      "Ġcorrelation": 7594,
      "Ġcolumn": 7595,
      "ategor": 7596,
      "Ġrecommend": 7597,
      "mitives": 7598,
      "}/": 7599,
      "uln": 7600,
      "Ġexchange": 7601,
      "ĠRepres": 7602,
      "Ġcomplementary": 7603,
      "Ġposts": 7604,
      "Ġsuspicious": 7605,
      "ership": 7606,
      "oxit": 7607,
      "nual": 7608,
      "rece": 7609,
      "Ġqual": 7610,
      "agnit": 7611,
      "Origin": 7612,
      "WP": 7613,
      "large": 7614,
      "Ġillustrates": 7615,
      "ĠList": 7616,
      "Ġdecryption": 7617,
      "Ġvisible": 7618,
      "ĠAdministrator": 7619,
      "Max": 7620,
      "aver": 7621,
      "Ġlines": 7622,
      "Ġpreventing": 7623,
      "bits": 7624,
      "Ġports": 7625,
      "rontier": 7626,
      "crafted": 7627,
      "have": 7628,
      "prior": 7629,
      "Ġreuse": 7630,
      "Ġbackup": 7631,
      "ĠSp": 7632,
      "Ġcommonly": 7633,
      "169": 7634,
      "Ġimproving": 7635,
      "Ġ46": 7636,
      "Ġmeasured": 7637,
      "erts": 7638,
      "Ġgate": 7639,
      "ĠGemini": 7640,
      "(\"[+]": 7641,
      "elihood": 7642,
      "FTP": 7643,
      "alt": 7644,
      "ĠAV": 7645,
      "ĠMer": 7646,
      "ĠDataset": 7647,
      "Ġrandomness": 7648,
      "pfx": 7649,
      "tf": 7650,
      "ĠHuman": 7651,
      "mask": 7652,
      "Ġdetec": 7653,
      "ATA": 7654,
      "890": 7655,
      "Secure": 7656,
      "onical": 7657,
      "inking": 7658,
      "Ġworkload": 7659,
      "keys": 7660,
      "Ġchanged": 7661,
      "ĠGuard": 7662,
      "Ġsatisfy": 7663,
      "rative": 7664,
      "stro": 7665,
      "Ġoutcomes": 7666,
      "single": 7667,
      "Ġdynamics": 7668,
      "Ġpor": 7669,
      "passwd": 7670,
      "oolean": 7671,
      "certainty": 7672,
      "sample": 7673,
      "ĉĉ": 7674,
      "Ġinfo": 7675,
      "ĠSome": 7676,
      "hn": 7677,
      "master": 7678,
      "help": 7679,
      "oli": 7680,
      "GR": 7681,
      "tamp": 7682,
      "ĠSon": 7683,
      "ĠHosp": 7684,
      "Ġdetail": 7685,
      "Ġdespite": 7686,
      "Ġitem": 7687,
      "Command": 7688,
      "Ġinfinite": 7689,
      "ĠDiscovery": 7690,
      "Ġforged": 7691,
      "ĠJan": 7692,
      "2006": 7693,
      "ĠCreate": 7694,
      "mad": 7695,
      "ĠAJ": 7696,
      "ĠOF": 7697,
      "Ġimprovement": 7698,
      "copy": 7699,
      "SSRF": 7700,
      "Ġchallenging": 7701,
      "build": 7702,
      "apture": 7703,
      "napshot": 7704,
      "Password": 7705,
      "Ġio": 7706,
      "robust": 7707,
      "ĠDan": 7708,
      "Ġaccepted": 7709,
      "how": 7710,
      "Ġsave": 7711,
      "Ġvalidity": 7712,
      "Ġrepositories": 7713,
      "center": 7714,
      "}\")": 7715,
      "characters": 7716,
      "Ġflex": 7717,
      "ours": 7718,
      "pop": 7719,
      "ĠPlus": 7720,
      "ĠIssue": 7721,
      "ko": 7722,
      "Ġhook": 7723,
      "ĠDownload": 7724,
      "romium": 7725,
      "Ġdetectors": 7726,
      "writing": 7727,
      "Ġverifiable": 7728,
      "usic": 7729,
      "ĠExternal": 7730,
      "Ġactivities": 7731,
      "ĠAddons": 7732,
      "recv": 7733,
      "Mail": 7734,
      "eper": 7735,
      "hard": 7736,
      "Ġunprivileged": 7737,
      "bytes": 7738,
      "Ġregions": 7739,
      "246": 7740,
      "Ġcorresponds": 7741,
      "ĠPhase": 7742,
      "ĠHyper": 7743,
      "dio": 7744,
      "âĢ": 7745,
      "rier": 7746,
      "119": 7747,
      "Ġdocumentation": 7748,
      "(,": 7749,
      "Ġ'\\": 7750,
      "TH": 7751,
      "quests": 7752,
      "109": 7753,
      "cm": 7754,
      "ood": 7755,
      "Ġconsensus": 7756,
      "attr": 7757,
      "Ġexit": 7758,
      "Ġreporting": 7759,
      "Ġobservations": 7760,
      "ĠRO": 7761,
      "Ġleaks": 7762,
      "MCP": 7763,
      "home": 7764,
      "Ġ2014": 7765,
      "INT": 7766,
      ")).": 7767,
      "Cer": 7768,
      "against": 7769,
      "Ġencode": 7770,
      "ORM": 7771,
      "Safe": 7772,
      "ĠEqu": 7773,
      "ryp": 7774,
      "aved": 7775,
      "Ġnumer": 7776,
      "prec": 7777,
      "2007": 7778,
      "BERT": 7779,
      "authorized": 7780,
      "Ġsubstit": 7781,
      "Scan": 7782,
      "Ġvers": 7783,
      "idential": 7784,
      "Page": 7785,
      "ĠCap": 7786,
      "Ġlic": 7787,
      "lie": 7788,
      "----------------------------------------------------------------": 7789,
      "NA": 7790,
      "pool": 7791,
      "ĠClassi": 7792,
      "Ġdestination": 7793,
      "Ġregistry": 7794,
      "Ġband": 7795,
      "Ġmaster": 7796,
      "Ġmaterial": 7797,
      "ĠCS": 7798,
      "ĠKASAN": 7799,
      "Context": 7800,
      "ĠSequ": 7801,
      "BL": 7802,
      "bes": 7803,
      "ĠStep": 7804,
      "ĠJia": 7805,
      "Ġheld": 7806,
      "Ġdynamically": 7807,
      "distribution": 7808,
      "Ġdig": 7809,
      "Ġ(+": 7810,
      "ACT": 7811,
      "Ġillustrated": 7812,
      "ĠRouter": 7813,
      "Ġfirewall": 7814,
      "Ġlayout": 7815,
      "GI": 7816,
      "well": 7817,
      "ĠCOM": 7818,
      "Ġsuite": 7819,
      "pending": 7820,
      "Ġrandomly": 7821,
      "ĠExtension": 7822,
      "Ġsufficiently": 7823,
      "Test": 7824,
      "UR": 7825,
      "ĠSession": 7826,
      "ĠIT": 7827,
      "Ġsubmitted": 7828,
      "Ġdeleg": 7829,
      "general": 7830,
      "slab": 7831,
      "Ġleaked": 7832,
      "Ġlabeled": 7833,
      "Ġtakeover": 7834,
      "hib": 7835,
      "ularity": 7836,
      "Cy": 7837,
      "ren": 7838,
      "Ġsound": 7839,
      "ĠMP": 7840,
      "ĠUSB": 7841,
      "Ġpartially": 7842,
      "Ġaims": 7843,
      "omware": 7844,
      "Ġconcurrent": 7845,
      "ĠNex": 7846,
      "Ġintern": 7847,
      "ĠAdaptive": 7848,
      "ĠResponse": 7849,
      "Ġdetector": 7850,
      "zh": 7851,
      "lower": 7852,
      "ĠXiao": 7853,
      "commerce": 7854,
      "Ġremoval": 7855,
      "Ġrendering": 7856,
      "ĠNon": 7857,
      "ĠNET": 7858,
      "Ġdescript": 7859,
      "Ġconjunction": 7860,
      "dp": 7861,
      "ker": 7862,
      "Ġ000": 7863,
      "also": 7864,
      "lligent": 7865,
      "Ġequivalent": 7866,
      "Ġai": 7867,
      "ĠDav": 7868,
      "clusive": 7869,
      "Ġrespect": 7870,
      "Ġinsights": 7871,
      "Each": 7872,
      "zk": 7873,
      "Ġadoption": 7874,
      "Ġdesigns": 7875,
      "ĠScal": 7876,
      "witches": 7877,
      "second": 7878,
      "incre": 7879,
      "Ġreboot": 7880,
      "Ġstyle": 7881,
      "ectors": 7882,
      "Ġconflic": 7883,
      "Ġframes": 7884,
      "tl": 7885,
      "Ġminimum": 7886,
      "seman": 7887,
      "arily": 7888,
      "shake": 7889,
      "Ġgeneralization": 7890,
      "ĠWireshark": 7891,
      "injection": 7892,
      "Ġsuitable": 7893,
      "reset": 7894,
      "encode": 7895,
      ")]": 7896,
      "ride": 7897,
      "ĠTrojan": 7898,
      "ĠProducts": 7899,
      "category": 7900,
      "ula": 7901,
      "Ġshowed": 7902,
      "440": 7903,
      "Target": 7904,
      "UF": 7905,
      "Ġschedul": 7906,
      "tained": 7907,
      "Ġrouters": 7908,
      "ĠAvailability": 7909,
      "Sol": 7910,
      "ipped": 7911,
      "Ġwireless": 7912,
      "ĠExper": 7913,
      "Ġedges": 7914,
      "Ġestimation": 7915,
      "Ġcat": 7916,
      "uruk": 7917,
      "Ġcras": 7918,
      "shared": 7919,
      "Ġsubsystem": 7920,
      "kelihood": 7921,
      "inv": 7922,
      "ĠZero": 7923,
      "isoning": 7924,
      "itness": 7925,
      "compa": 7926,
      "cation": 7927,
      "ulates": 7928,
      "ĠAct": 7929,
      "ĠCommunity": 7930,
      "Ġschema": 7931,
      "Ġvarying": 7932,
      "cur": 7933,
      "ilo": 7934,
      "sity": 7935,
      "icated": 7936,
      "itative": 7937,
      "cher": 7938,
      "117": 7939,
      "AGE": 7940,
      "Ġscalability": 7941,
      "Ġextensive": 7942,
      "docs": 7943,
      "320": 7944,
      "Claude": 7945,
      "vable": 7946,
      "Ġhome": 7947,
      "project": 7948,
      "Ġdescribe": 7949,
      "ourcecodester": 7950,
      "ĠSSRF": 7951,
      "ĠGS": 7952,
      "SEC": 7953,
      "testing": 7954,
      "ĠElectron": 7955,
      "Ġtun": 7956,
      "tibility": 7957,
      "ĠRCE": 7958,
      "Ġseparation": 7959,
      "Ġslight": 7960,
      "select": 7961,
      "ĠComple": 7962,
      "urukul": 7963,
      "Ġdecentralized": 7964,
      "Ġdiscussed": 7965,
      "ĠCP": 7966,
      "rand": 7967,
      "entally": 7968,
      "ustry": 7969,
      "Ġrare": 7970,
      "Ġeasy": 7971,
      "necess": 7972,
      "Ġcompr": 7973,
      "80211": 7974,
      "ĠThrough": 7975,
      "andscape": 7976,
      "IoT": 7977,
      "ĠBUG": 7978,
      "Ġ'/": 7979,
      "ĠStore": 7980,
      "requency": 7981,
      "FG": 7982,
      "Pres": 7983,
      "PER": 7984,
      "Ġdangerous": 7985,
      "ĠAD": 7986,
      "ĠFl": 7987,
      "ĠKim": 7988,
      "ĠBenchmark": 7989,
      "Sign": 7990,
      "ĠPers": 7991,
      "Ġpayment": 7992,
      "Write": 7993,
      "tp": 7994,
      "ĠLinguistics": 7995,
      "icket": 7996,
      "ĠStatement": 7997,
      "+)": 7998,
      "Total": 7999,
      "Ġdam": 8000,
      "quality": 8001,
      "ĠComparison": 8002,
      "Ġchecked": 8003,
      "blog": 8004,
      "Ġarithmetic": 8005,
      "poral": 8006,
      "Ġconstrained": 8007,
      "ĠActiveX": 8008,
      "Ġdegree": 8009,
      "ĠRen": 8010,
      "histic": 8011,
      "Ġoverlap": 8012,
      "offs": 8013,
      "mental": 8014,
      "Ġgives": 8015,
      "Ġprogramming": 8016,
      "Ġregulatory": 8017,
      "DSA": 8018,
      "Ġdon": 8019,
      "ctions": 8020,
      "CESS": 8021,
      "Ġcamera": 8022,
      "Ġwrites": 8023,
      "ĠToken": 8024,
      "uber": 8025,
      "inds": 8026,
      "responding": 8027,
      "Ġaccepts": 8028,
      "fin": 8029,
      "xhtml": 8030,
      "Ġconference": 8031,
      "Ġlibc": 8032,
      "visor": 8033,
      "Ġeffort": 8034,
      "Ġlatest": 8035,
      "Ġten": 8036,
      "Ġarises": 8037,
      "Ġuninitialized": 8038,
      "ĠKnowledge": 8039,
      "trum": 8040,
      "Ġcommitment": 8041,
      "Ġpowerful": 8042,
      "Ġbinaries": 8043,
      "Ġ42": 8044,
      "Ġgenerally": 8045,
      "modules": 8046,
      "Ġstrength": 8047,
      "Ġpasses": 8048,
      "Ġexamine": 8049,
      "ĠAvailable": 8050,
      "folio": 8051,
      "ĠTim": 8052,
      "claim": 8053,
      "Ġrv": 8054,
      "Ġtechnology": 8055,
      "\"{": 8056,
      "Ġcrypto": 8057,
      "erstand": 8058,
      "wan": 8059,
      "Ġinherent": 8060,
      "Ġrecogn": 8061,
      "Boundary": 8062,
      "ĠRetrie": 8063,
      "Ġsoft": 8064,
      "Ġbinding": 8065,
      "Ġtransformation": 8066,
      "lines": 8067,
      "tenance": 8068,
      "Policy": 8069,
      "Ġphone": 8070,
      "Ġvariance": 8071,
      "review": 8072,
      "itch": 8073,
      "ĠSong": 8074,
      "Ġextreme": 8075,
      "LD": 8076,
      "prom": 8077,
      "Ġunable": 8078,
      "112": 8079,
      "changed": 8080,
      "Cisco": 8081,
      "ercial": 8082,
      "Ġfast": 8083,
      "Introduction": 8084,
      "Ġcorrupt": 8085,
      "ĠConsole": 8086,
      "static": 8087,
      "Ġassets": 8088,
      "Ġcompletion": 8089,
      "cible": 8090,
      "centric": 8091,
      "ĊĠĠĠĠĠĠĠĠĠĠĠ": 8092,
      "Ġenterprise": 8093,
      "ners": 8094,
      "Ġbypassed": 8095,
      "Ġfingerpr": 8096,
      "Em": 8097,
      "Ġpadding": 8098,
      "1145": 8099,
      "Information": 8100,
      "Ġdecoder": 8101,
      "Ġtab": 8102,
      "Ġ(`": 8103,
      "Ġadver": 8104,
      "ventory": 8105,
      "2011": 8106,
      "Ġbasis": 8107,
      "manage": 8108,
      "Tem": 8109,
      "Ġ05": 8110,
      "Ġsuggest": 8111,
      "Evaluation": 8112,
      "introdu": 8113,
      "ĠFlow": 8114,
      "Ġtw": 8115,
      "Ġsensor": 8116,
      "att": 8117,
      "Ġcomputes": 8118,
      "Ġhighlights": 8119,
      "Fe": 8120,
      "GK": 8121,
      "LT": 8122,
      "zen": 8123,
      "chastic": 8124,
      "Ġprototype": 8125,
      "Ġdiscrete": 8126,
      "Ġparts": 8127,
      "dm": 8128,
      "sql": 8129,
      "Ġbus": 8130,
      "Ġresidual": 8131,
      "ĠTO": 8132,
      "Ġorchestra": 8133,
      "(&": 8134,
      "Ġmention": 8135,
      "Lib": 8136,
      "Mal": 8137,
      "})": 8138,
      "effective": 8139,
      "STM": 8140,
      "Chain": 8141,
      "Level": 8142,
      "isy": 8143,
      "Ġasym": 8144,
      "phone": 8145,
      "Ġrevealing": 8146,
      "ĠAJAX": 8147,
      "Ġoperators": 8148,
      "AUC": 8149,
      "Op": 8150,
      "fg": 8151,
      "Ġfar": 8152,
      "Ġ99": 8153,
      "Ġemploys": 8154,
      "olders": 8155,
      "velopment": 8156,
      "nc": 8157,
      "ĠEurope": 8158,
      "ferred": 8159,
      "Ġintroducing": 8160,
      "ĠLDAP": 8161,
      "Ġ57": 8162,
      "ĠReview": 8163,
      "/*;": 8164,
      "ĠElectric": 8165,
      "null": 8166,
      "ws": 8167,
      "Ġtur": 8168,
      "Ġdiversity": 8169,
      "Chat": 8170,
      "Ġauthority": 8171,
      "Ġpurpose": 8172,
      "ASE": 8173,
      "atives": 8174,
      "nv": 8175,
      "Ġeditor": 8176,
      "Ġrevealed": 8177,
      "Ġisolated": 8178,
      "Ġlifecycle": 8179,
      ")),": 8180,
      "ias": 8181,
      "Ġovers": 8182,
      "ĠSkill": 8183,
      "adj": 8184,
      "ĠHere": 8185,
      "Ġperfect": 8186,
      "ĠArbitrary": 8187,
      "ĠQualcomm": 8188,
      "ĠTransactions": 8189,
      "ĠViewer": 8190,
      "Us": 8191,
      "ĠExisting": 8192,
      "ersonal": 8193,
      "Ġorganizations": 8194,
      "Ġcrafting": 8195,
      "Ġuploads": 8196,
      "Ġfair": 8197,
      "Dataset": 8198,
      "Object": 8199,
      "1414141": 8200,
      "enabled": 8201,
      "Ġstand": 8202,
      "Real": 8203,
      "Ġexport": 8204,
      "CTION": 8205,
      "Ġproducing": 8206,
      "Ġoffline": 8207,
      "Business": 8208,
      "git": 8209,
      "scan": 8210,
      "tin": 8211,
      "paration": 8212,
      "ĠEnvironment": 8213,
      "rivial": 8214,
      "Ġtopology": 8215,
      "215": 8216,
      "280": 8217,
      "pci": 8218,
      "sus": 8219,
      "Incorrect": 8220,
      "Ġ85": 8221,
      "ĠChina": 8222,
      "before": 8223,
      "Ġtypical": 8224,
      "ĠResource": 8225,
      "Ġaggregate": 8226,
      "nu": 8227,
      "ĠAir": 8228,
      "ĠAcross": 8229,
      "hidra": 8230,
      "ZE": 8231,
      "ĠTom": 8232,
      "================================================================": 8233,
      "ĠAlex": 8234,
      "Ġconv": 8235,
      "jective": 8236,
      "Chromium": 8237,
      "Ġrigor": 8238,
      "hematical": 8239,
      "Ste": 8240,
      "vl": 8241,
      "ĠFPR": 8242,
      "ĠEL": 8243,
      "band": 8244,
      "Ġul": 8245,
      "ĠUbuntu": 8246,
      "Create": 8247,
      "FLAGS": 8248,
      "VR": 8249,
      "ĠCI": 8250,
      "Ġconditional": 8251,
      "Ġconcaten": 8252,
      "urrency": 8253,
      "ĠBooking": 8254,
      "ĠBer": 8255,
      "ĠQuery": 8256,
      "FR": 8257,
      "Task": 8258,
      "indu": 8259,
      "embly": 8260,
      "Ġeth": 8261,
      "20100": 8262,
      "Ġdeleted": 8263,
      "Ġcomments": 8264,
      "Ġexperience": 8265,
      "hesis": 8266,
      "agnitude": 8267,
      "atter": 8268,
      "Ġrequested": 8269,
      "ĠEntity": 8270,
      "within": 8271,
      "Ġimpacted": 8272,
      "Avg": 8273,
      "trust": 8274,
      "ĠTechnical": 8275,
      "Fore": 8276,
      "Ġlanguages": 8277,
      "Ġ75": 8278,
      "TC": 8279,
      "udge": 8280,
      "ouse": 8281,
      "lishes": 8282,
      "Ġbehavio": 8283,
      "Ġseen": 8284,
      "605": 8285,
      "Ġupdating": 8286,
      "global": 8287,
      "amily": 8288,
      "ĠParsing": 8289,
      "Gra": 8290,
      "OPT": 8291,
      "ĠDomain": 8292,
      "ĠHat": 8293,
      "support": 8294,
      "ĠFinancial": 8295,
      "role": 8296,
      "Ġfetch": 8297,
      "Ġunrestricted": 8298,
      "ĠContributor": 8299,
      "Ġquick": 8300,
      "ĠĠĠĠĠĠĠ": 8301,
      "filename": 8302,
      "iling": 8303,
      "ummary": 8304,
      "Ġmarket": 8305,
      "Ġsl": 8306,
      "ĠVol": 8307,
      "ipi": 8308,
      "Ġstatements": 8309,
      "Ġprompting": 8310,
      "Ġsummarizes": 8311,
      "lder": 8312,
      "Ġopening": 8313,
      "Ġtruth": 8314,
      "requests": 8315,
      "Ġpreserves": 8316,
      "ĠAnalytics": 8317,
      "codes": 8318,
      "Ġold": 8319,
      "abilistic": 8320,
      "Hy": 8321,
      "ster": 8322,
      "protected": 8323,
      "allenge": 8324,
      "Ġreceiving": 8325,
      "ĠAPQ": 8326,
      "forms": 8327,
      "istry": 8328,
      "ĠGNU": 8329,
      "Ġappend": 8330,
      "neg": 8331,
      "Ġrefcount": 8332,
      "Ġlimiting": 8333,
      "Ġcriteria": 8334,
      "plus": 8335,
      "demonstra": 8336,
      "','": 8337,
      "Ġyielding": 8338,
      "Win": 8339,
      "Ġbusiness": 8340,
      "ĠFa": 8341,
      "ĠHan": 8342,
      "display": 8343,
      "Ġmetacharacters": 8344,
      "\"\"\"": 8345,
      "xmit": 8346,
      "ĠBoth": 8347,
      "Ġrelatively": 8348,
      "benchmark": 8349,
      "Ġcontinue": 8350,
      "array": 8351,
      "ĠLTS": 8352,
      "Ġhardcoded": 8353,
      "zon": 8354,
      "Ġpos": 8355,
      "ĠEven": 8356,
      "Ġplanning": 8357,
      "different": 8358,
      "tate": 8359,
      "ĠPi": 8360,
      "ĠRSI": 8361,
      "Ġ83": 8362,
      "Ġdeliver": 8363,
      "ASS": 8364,
      "Doc": 8365,
      "MAC": 8366,
      "br": 8367,
      "kes": 8368,
      "ĠRad": 8369,
      "ĠExcel": 8370,
      "Ġconsum": 8371,
      "ĠShi": 8372,
      "constrained": 8373,
      "Ġopport": 8374,
      "Ġthroughput": 8375,
      "Ġcommunic": 8376,
      "record": 8377,
      "Ġenforces": 8378,
      "ĠEncryption": 8379,
      "Pack": 8380,
      "Ġsig": 8381,
      "ĠProper": 8382,
      "NO": 8383,
      "Ġord": 8384,
      "cost": 8385,
      "obj": 8386,
      "Ġconstit": 8387,
      "INFO": 8388,
      "ĠRobust": 8389,
      "rum": 8390,
      "ĠWen": 8391,
      "prove": 8392,
      "640": 8393,
      "ĠFeature": 8394,
      "phy": 8395,
      "bounded": 8396,
      "Ġshellcode": 8397,
      "Ġcombines": 8398,
      "leneck": 8399,
      "Ġhappen": 8400,
      "Ġpropagation": 8401,
      "Dell": 8402,
      "Post": 8403,
      "254": 8404,
      "trateg": 8405,
      "Ġresolve": 8406,
      "Ġattribution": 8407,
      "sleep": 8408,
      "Ġbad": 8409,
      "ĠEffec": 8410,
      "Ġsolve": 8411,
      "Ġcrashes": 8412,
      "sym": 8413,
      "ĠBar": 8414,
      "ĠAgentic": 8415,
      "Ġsampled": 8416,
      "Ġsegment": 8417,
      "Ġpropos": 8418,
      "values": 8419,
      "Adversaries": 8420,
      "Ġfl": 8421,
      "ĠFirmware": 8422,
      "Ġblocked": 8423,
      "define": 8424,
      "OCK": 8425,
      "Ġgaps": 8426,
      "Ġmember": 8427,
      "Ġincident": 8428,
      "Ġregistered": 8429,
      "reasoning": 8430,
      "forming": 8431,
      "Ġanalyzed": 8432,
      "Mozilla": 8433,
      "More": 8434,
      "ya": 8435,
      "ĠON": 8436,
      "ĠGlobal": 8437,
      "Ġstandards": 8438,
      "Ġcarry": 8439,
      "!/": 8440,
      "attribu": 8441,
      "ĠBIG": 8442,
      "usters": 8443,
      "Ġreliably": 8444,
      "Ġspecialized": 8445,
      "None": 8446,
      "hao": 8447,
      "Ġwant": 8448,
      "rails": 8449,
      "Identi": 8450,
      "VD": 8451,
      "internal": 8452,
      "ĠDistribution": 8453,
      "ĠWireless": 8454,
      "peed": 8455,
      "redirect": 8456,
      "Ġfinite": 8457,
      "rable": 8458,
      "uni": 8459,
      "Ġnative": 8460,
      "ĠPanel": 8461,
      "resol": 8462,
      "Ġexfiltration": 8463,
      "ĠMAC": 8464,
      "mooth": 8465,
      "Authenticated": 8466,
      "bro": 8467,
      "kvm": 8468,
      "verify": 8469,
      "ĠXP": 8470,
      "Ġexpert": 8471,
      "spin": 8472,
      "vulnerabilities": 8473,
      "ances": 8474,
      "imal": 8475,
      "osh": 8476,
      "Ġsandboxed": 8477,
      "ĠEndpoint": 8478,
      "850": 8479,
      "CG": 8480,
      "ano": 8481,
      "ĠAB": 8482,
      "124": 8483,
      "Ġanalys": 8484,
      "Ġinvari": 8485,
      "EA": 8486,
      "340": 8487,
      "ĠRDI": 8488,
      "ĠDH": 8489,
      "ĠJWT": 8490,
      "Ġgood": 8491,
      "ceptions": 8492,
      "Ġpersistence": 8493,
      "Ġauxiliary": 8494,
      "utdown": 8495,
      "Ġ140": 8496,
      "Ġconversion": 8497,
      "Ġroute": 8498,
      "Ġregisters": 8499,
      "Ġinspection": 8500,
      "ĠStart": 8501,
      "cop": 8502,
      "Ġforensic": 8503,
      "Ġsop": 8504,
      "truth": 8505,
      "Ġincreased": 8506,
      "Ġfingerprint": 8507,
      "worthy": 8508,
      "arp": 8509,
      "ĠIM": 8510,
      "ĠLong": 8511,
      "Ġcoup": 8512,
      "Ġstri": 8513,
      "ĠZheng": 8514,
      "ĠStage": 8515,
      "Ġprofiles": 8516,
      "Ġprimitives": 8517,
      "Ġ49": 8518,
      "Ġbucket": 8519,
      "Ġsupporting": 8520,
      "Ġtrunc": 8521,
      "Ġutilize": 8522,
      "aling": 8523,
      "alone": 8524,
      "arly": 8525,
      "ĠInference": 8526,
      "ĠDu": 8527,
      "Ġgive": 8528,
      "prob": 8529,
      "versary": 8530,
      "ogni": 8531,
      "Ġmisuse": 8532,
      "ĠPublish": 8533,
      "ĠMS": 8534,
      "ĠEM": 8535,
      "ĠLow": 8536,
      "ĠJet": 8537,
      "ĠJiang": 8538,
      "ĠFirewall": 8539,
      "Update": 8540,
      "Ġinduce": 8541,
      "Hel": 8542,
      "ael": 8543,
      "\\\\\\\\": 8544,
      "ĠGuo": 8545,
      "replace": 8546,
      "Ġreached": 8547,
      "ĠSemantic": 8548,
      "ĠNone": 8549,
      "Ġcompression": 8550,
      "Integ": 8551,
      "Ġverifying": 8552,
      "Ġcaptured": 8553,
      "ĠCra": 8554,
      "ĠEq": 8555,
      "Ġmanipulated": 8556,
      "Ġrelation": 8557,
      "ĊĊĊĊ": 8558,
      "etary": 8559,
      "following": 8560,
      "ĠPy": 8561,
      "ĠVision": 8562,
      "selves": 8563,
      "Login": 8564,
      "Internet": 8565,
      "XR": 8566,
      "ried": 8567,
      "adversarial": 8568,
      "Ġestimate": 8569,
      "ĠNews": 8570,
      "balance": 8571,
      "ĠNexus": 8572,
      "%).": 8573,
      ",*": 8574,
      "Pass": 8575,
      "Scal": 8576,
      "ĠMessage": 8577,
      "achines": 8578,
      "qi": 8579,
      "Ġlists": 8580,
      "Ġgradients": 8581,
      "Ġtreated": 8582,
      "amming": 8583,
      "Ġ55": 8584,
      "options": 8585,
      "Finally": 8586,
      "sof": 8587,
      "Ġspecify": 8588,
      "Ġpassing": 8589,
      "mpirical": 8590,
      "Ġworst": 8591,
      "450": 8592,
      "sg": 8593,
      "ctf": 8594,
      "ĠFoxit": 8595,
      "123456": 8596,
      "20100101": 8597,
      "KEM": 8598,
      "same": 8599,
      "ĠQuantum": 8600,
      "ĠVirtualBox": 8601,
      "+\"": 8602,
      "Here": 8603,
      "dit": 8604,
      "Ġsparse": 8605,
      "ĠSI": 8606,
      "Ġcorre": 8607,
      "netes": 8608,
      "instruction": 8609,
      "ĠAG": 8610,
      "ĠClick": 8611,
      "Ġ256": 8612,
      "threat": 8613,
      "())": 8614,
      "tyle": 8615,
      "Ġitems": 8616,
      "Ġhappens": 8617,
      "ĠSpringer": 8618,
      "DX": 8619,
      "Http": 8620,
      "verification": 8621,
      "ĠConcept": 8622,
      "ĠExec": 8623,
      "Ġmeaningful": 8624,
      "Index": 8625,
      "Filter": 8626,
      "Gemini": 8627,
      "Magick": 8628,
      "]).": 8629,
      "ition": 8630,
      "ĠSk": 8631,
      "ĠSche": 8632,
      "Ġhalluc": 8633,
      "template": 8634,
      "Ret": 8635,
      "Ġdel": 8636,
      "Ġresearchers": 8637,
      "Ġprotections": 8638,
      "Ġconfirming": 8639,
      "Ġshares": 8640,
      "ĠEther": 8641,
      "ĠLL": 8642,
      "Ġroutine": 8643,
      "Ġresilience": 8644,
      "Ġolder": 8645,
      "strateg": 8646,
      "Ġeconom": 8647,
      "ĠBackup": 8648,
      ";&#": 8649,
      "cam": 8650,
      "Ġways": 8651,
      "Ġlive": 8652,
      "2008": 8653,
      "ĠImpact": 8654,
      "Ġcorrespond": 8655,
      "ubernetes": 8656,
      "determin": 8657,
      "hr": 8658,
      "kthread": 8659,
      "ned": 8660,
      "ropic": 8661,
      "Ġviolations": 8662,
      "ĠConnectivity": 8663,
      "rev": 8664,
      "ulus": 8665,
      "Ġconcent": 8666,
      "perature": 8667,
      "istral": 8668,
      "Ġgets": 8669,
      "Ġjudge": 8670,
      "Ġcoher": 8671,
      "illing": 8672,
      "Ġdefinitions": 8673,
      "esh": 8674,
      "ĠSO": 8675,
      "ĠRust": 8676,
      "ĠLeak": 8677,
      "Ġsemantically": 8678,
      "III": 8679,
      "Ġderive": 8680,
      "bench": 8681,
      "Upload": 8682,
      "Ġtables": 8683,
      "Ġsm": 8684,
      "learn": 8685,
      "ada": 8686,
      "authentication": 8687,
      "Ġallocate": 8688,
      "Upgrade": 8689,
      "Ġsuggesting": 8690,
      "Ġrelationships": 8691,
      "dy": 8692,
      "ĠTheme": 8693,
      "Ġ66": 8694,
      "Remote": 8695,
      "ĠHTTPS": 8696,
      "element": 8697,
      "Ġiterative": 8698,
      "ĠRBX": 8699,
      "rist": 8700,
      "unities": 8701,
      "Ġthroughout": 8702,
      "visible": 8703,
      "Ġexposing": 8704,
      "ĠQuick": 8705,
      "Ġindustrial": 8706,
      "Ġabsence": 8707,
      "And": 8708,
      "ufact": 8709,
      "Ġcenter": 8710,
      "lored": 8711,
      "Ġaspec": 8712,
      "Ġdiscre": 8713,
      "ĠJin": 8714,
      "ported": 8715,
      "Ġcollap": 8716,
      "Ġmajority": 8717,
      "Es": 8718,
      "ĠOverview": 8719,
      "Ġrendered": 8720,
      "Line": 8721,
      "ars": 8722,
      "ĠOR": 8723,
      "126": 8724,
      "Ġpublish": 8725,
      "Ġdelivery": 8726,
      "structured": 8727,
      "Yes": 8728,
      "std": 8729,
      "ĠWidget": 8730,
      "Ġsuffix": 8731,
      "Ġideal": 8732,
      "ĠMalicious": 8733,
      "rcu": 8734,
      "Ġdashboard": 8735,
      "pay": 8736,
      "lement": 8737,
      "ĠEFLAGS": 8738,
      "Impact": 8739,
      "Ġscanning": 8740,
      "Ġinvoke": 8741,
      "ĠRCX": 8742,
      "urlencoded": 8743,
      "Ġauthenticate": 8744,
      "jax": 8745,
      "Ġ1000": 8746,
      "ĠSuccess": 8747,
      "Ġimplications": 8748,
      "Ġsure": 8749,
      "ĠEC": 8750,
      "RED": 8751,
      "Trust": 8752,
      "Using": 8753,
      "Ġanonym": 8754,
      "Ġasset": 8755,
      "Ġconfirms": 8756,
      "350": 8757,
      "Search": 8758,
      "tam": 8759,
      "ĠNX": 8760,
      "div": 8761,
      "ĠAnti": 8762,
      "etrics": 8763,
      "Ġambigu": 8764,
      "Ġnat": 8765,
      "cell": 8766,
      "condition": 8767,
      "Ġprinciples": 8768,
      "ĠSimilarly": 8769,
      "histicated": 8770,
      "focus": 8771,
      "ufficient": 8772,
      "Ġconfigure": 8773,
      "cuits": 8774,
      "Ġmeasurements": 8775,
      "ĠCalendar": 8776,
      "Ġexhaustion": 8777,
      "Ġcomparable": 8778,
      ")}": 8779,
      "Ġsil": 8780,
      "Ġ2007": 8781,
      "Dri": 8782,
      "nn": 8783,
      "uses": 8784,
      "Ġdefensive": 8785,
      "Ġ0000000": 8786,
      "Ġnegligible": 8787,
      "tasks": 8788,
      "cibility": 8789,
      "Ġtheory": 8790,
      "ffusion": 8791,
      "Ġdiscrimin": 8792,
      "Ġrecognition": 8793,
      "Ġuniformly": 8794,
      "proof": 8795,
      "measure": 8796,
      "Ġphases": 8797,
      "Insufficient": 8798,
      "Ġquantify": 8799,
      "Ġdiagn": 8800,
      "ĠDI": 8801,
      "Ġ74": 8802,
      "Ġ97": 8803,
      "Ġsubsequently": 8804,
      "Ġguide": 8805,
      "wards": 8806,
      "centage": 8807,
      "ĠXR": 8808,
      "Ġinternet": 8809,
      "Ġmonit": 8810,
      "was": 8811,
      "Ġdispu": 8812,
      "ĠYan": 8813,
      "Ġdiscuss": 8814,
      "Ġmasking": 8815,
      "Ġexercise": 8816,
      "Group": 8817,
      "fn": 8818,
      "Ġdefines": 8819,
      "Ġabstract": 8820,
      "Ġsender": 8821,
      "Ġcomparing": 8822,
      "news": 8823,
      "Ġdisplayed": 8824,
      "Ġpurposes": 8825,
      "Ġassumes": 8826,
      "Bit": 8827,
      "sched": 8828,
      "ĠBluetooth": 8829,
      "ĠInstit": 8830,
      "Ġleaving": 8831,
      "Ġ47": 8832,
      "ĠJob": 8833,
      "Ġscales": 8834,
      "cas": 8835,
      "Ġmech": 8836,
      "Ġnone": 8837,
      "ĠFull": 8838,
      "ĠExample": 8839,
      "cleanup": 8840,
      "Ġexploration": 8841,
      "Min": 8842,
      "tw": 8843,
      "detect": 8844,
      "ĠOpenSSL": 8845,
      "Ġmatrices": 8846,
      "ĠOnly": 8847,
      "ĠParameter": 8848,
      "Ġmarginal": 8849,
      "wide": 8850,
      "lots": 8851,
      "owards": 8852,
      "ĠHo": 8853,
      "Ġ08": 8854,
      "guided": 8855,
      "1111111111111111": 8856,
      "BR": 8857,
      "TI": 8858,
      "Ġaver": 8859,
      "tise": 8860,
      "imp": 8861,
      "Ġask": 8862,
      "Ġ500": 8863,
      "Ġablation": 8864,
      "bn": 8865,
      "ora": 8866,
      "rogate": 8867,
      "Ġfont": 8868,
      "ĠInclude": 8869,
      "ĠGhidra": 8870,
      "Ġroll": 8871,
      "Ġsanitized": 8872,
      "libc": 8873,
      "plugins": 8874,
      "845": 8875,
      "DO": 8876,
      "ny": 8877,
      "Ġincoming": 8878,
      "ĠCH": 8879,
      "Ġcommunications": 8880,
      "ĠStudy": 8881,
      "Ġphysically": 8882,
      "ino": 8883,
      "porting": 8884,
      "ĠUDP": 8885,
      "ĠManage": 8886,
      "Ġplugins": 8887,
      "INE": 8888,
      "ĠSMP": 8889,
      "secret": 8890,
      "Ġinherently": 8891,
      "Ġdeviation": 8892,
      "WebKitForm": 8893,
      "></": 8894,
      "ĠPayload": 8895,
      "Ġchoose": 8896,
      "wal": 8897,
      "ĠIs": 8898,
      "ĠLive": 8899,
      "calc": 8900,
      "cussion": 8901,
      "FILE": 8902,
      "ĠSL": 8903,
      "ĠMPC": 8904,
      "Valid": 8905,
      "Ġyears": 8906,
      "WebKitFormBoundary": 8907,
      "/,": 8908,
      "serial": 8909,
      "121": 8910,
      "ACM": 8911,
      "Ġpredictions": 8912,
      "Ġexceeds": 8913,
      "Pub": 8914,
      "iation": 8915,
      "Ġvalu": 8916,
      "Ġ54": 8917,
      "ĠDetails": 8918,
      ".*": 8919,
      "`)": 8920,
      "reli": 8921,
      "Ġsteganograph": 8922,
      "Stage": 8923,
      "software": 8924,
      "Ġexclud": 8925,
      "indic": 8926,
      "dict": 8927,
      "Ġoccurre": 8928,
      "Ġautomation": 8929,
      "Ġsyntax": 8930,
      "gs": 8931,
      "invalid": 8932,
      "chat": 8933,
      "ssl": 8934,
      "ĠBurp": 8935,
      "Ġoverview": 8936,
      "wait": 8937,
      "Ġecho": 8938,
      "hex": 8939,
      "ĠXia": 8940,
      "mitive": 8941,
      "item": 8942,
      "svc": 8943,
      "ĠUID": 8944,
      "Ġtransparency": 8945,
      "010": 8946,
      "Now": 8947,
      "javascript": 8948,
      "Ġpress": 8949,
      "eign": 8950,
      "ĠTenda": 8951,
      "ĠAug": 8952,
      "ĠOct": 8953,
      "Ġclustering": 8954,
      "Ġtransmit": 8955,
      "380": 8956,
      "bel": 8957,
      "ĠOpenClaw": 8958,
      "147": 8959,
      "Ġscalable": 8960,
      "account": 8961,
      "ilation": 8962,
      "overnance": 8963,
      "TYPE": 8964,
      "Ġsem": 8965,
      "Ġdialog": 8966,
      "ĠSci": 8967,
      "details": 8968,
      "Ġintegrates": 8969,
      "ĠImp": 8970,
      "Ġcompromising": 8971,
      "works": 8972,
      "420": 8973,
      "Tenda": 8974,
      "URE": 8975,
      "even": 8976,
      "ĠSpace": 8977,
      "ĠDS": 8978,
      "atable": 8979,
      "ĠInstall": 8980,
      "Ġhashes": 8981,
      "ĠStudio": 8982,
      "ĠAccessed": 8983,
      "Ġthresholds": 8984,
      "Ġiterations": 8985,
      "ĠBackdoor": 8986,
      "utility": 8987,
      "Once": 8988,
      "Ġanti": 8989,
      "ĠFed": 8990,
      "bert": 8991,
      "Ġrestriction": 8992,
      "similar": 8993,
      "GT": 8994,
      "RAX": 8995,
      "Ġ84": 8996,
      "Ġlegal": 8997,
      "1109": 8998,
      "Ġfeasible": 8999,
      "ĠCAP": 9000,
      "Ġllm": 9001,
      "Address": 9002,
      "methods": 9003,
      "360": 9004,
      "Ġmere": 9005,
      "ĠUniversal": 9006,
      "prietary": 9007,
      "Ġfundamentally": 9008,
      "written": 9009,
      "Ġshifts": 9010,
      ",*/*;": 9011,
      "binary": 9012,
      "ĠEvalu": 9013,
      "Ġcustomer": 9014,
      "Ġsynthesis": 9015,
      "Ġadopted": 9016,
      "Mac": 9017,
      "ĠUntrusted": 9018,
      "ĠZK": 9019,
      "ĠCRM": 9020,
      "Ġmedical": 9021,
      "Ġjointly": 9022,
      "vector": 9023,
      "research": 9024,
      "Ġintention": 9025,
      "ĠSIG": 9026,
      "vider": 9027,
      "LMs": 9028,
      "Ġresolution": 9029,
      "Response": 9030,
      "cookies": 9031,
      "ological": 9032,
      "Ġmillion": 9033,
      "ane": 9034,
      "ĠSing": 9035,
      "ĠTian": 9036,
      "Ġpublication": 9037,
      "Ġmacro": 9038,
      "ĠDynamic": 9039,
      "ĠBob": 9040,
      "#!/": 9041,
      "=%": 9042,
      "PATH": 9043,
      "Ġpromis": 9044,
      "Ġmultiplication": 9045,
      "Ġpick": 9046,
      "Ġml": 9047,
      "ĠRQ": 9048,
      "Ġ98": 9049,
      "Ġconsent": 9050,
      "Ġemails": 9051,
      "!]": 9052,
      "ĠTR": 9053,
      "ummy": 9054,
      "mean": 9055,
      "ĠShort": 9056,
      "cpy": 9057,
      "ensing": 9058,
      "Requests": 9059,
      "ĠSuper": 9060,
      "Description": 9061,
      "xff": 9062,
      "Ġpassive": 9063,
      "Ġfake": 9064,
      "ulk": 9065,
      "Ġcompact": 9066,
      "Ġresistance": 9067,
      "Ġdisrupt": 9068,
      "LEX": 9069,
      "700": 9070,
      "Ġcri": 9071,
      "ĠJailbreak": 9072,
      "Ġ52": 9073,
      "oke": 9074,
      "team": 9075,
      "Ġeval": 9076,
      "ĠICL": 9077,
      "ĠFort": 9078,
      "Ġshadow": 9079,
      "Ġring": 9080,
      "ĠComponent": 9081,
      "...]": 9082,
      "Ġbackdoors": 9083,
      "ĠPublic": 9084,
      "ĠRF": 9085,
      "iag": 9086,
      "limited": 9087,
      "tinuous": 9088,
      "Var": 9089,
      "mutation": 9090,
      "ĠExpress": 9091,
      "many": 9092,
      "Ġrepresented": 9093,
      "going": 9094,
      "Ġownership": 9095,
      "Phase": 9096,
      "390": 9097,
      "rator": 9098,
      "Ġproxim": 9099,
      "cles": 9100,
      "Ġscoring": 9101,
      "portant": 9102,
      "ĠCollabor": 9103,
      "Availability": 9104,
      "dma": 9105,
      "mutex": 9106,
      "quis": 9107,
      "Ġregime": 9108,
      "Ġregression": 9109,
      "ĠLee": 9110,
      "provided": 9111,
      "Node": 9112,
      "rather": 9113,
      "270": 9114,
      "ĠFilename": 9115,
      "ĠSelf": 9116,
      "ifs": 9117,
      "ĠGB": 9118,
      "stable": 9119,
      "validation": 9120,
      "Ġredund": 9121,
      "feature": 9122,
      "Ġtaken": 9123,
      "Ġfraud": 9124,
      "ĠZIP": 9125,
      "Ġtransmitted": 9126,
      "Ġtampering": 9127,
      "tached": 9128,
      "lients": 9129,
      "Ġusernames": 9130,
      "ĠCommunication": 9131,
      "Ġcos": 9132,
      "ulting": 9133,
      "Ġcompletely": 9134,
      "GAN": 9135,
      "Jenkins": 9136,
      "Ġextends": 9137,
      "ĠUSENIX": 9138,
      "Ġchunks": 9139,
      "saniti": 9140,
      "Ġca": 9141,
      "ignment": 9142,
      "Ġcorrupted": 9143,
      "END": 9144,
      "ĠWhat": 9145,
      "9000": 9146,
      "lear": 9147,
      "ĠEV": 9148,
      "134": 9149,
      "Ġoutperforms": 9150,
      "3000": 9151,
      "za": 9152,
      "ĠPres": 9153,
      "ĠDa": 9154,
      "Ġencounter": 9155,
      "Ġmanaged": 9156,
      "Ġdesired": 9157,
      "enuine": 9158,
      "330": 9159,
      "Top": 9160,
      "cross": 9161,
      "multiple": 9162,
      "eds": 9163,
      "Ġrestore": 9164,
      "veys": 9165,
      "Ġmodifications": 9166,
      "Ġterminal": 9167,
      "Ġpopular": 9168,
      "Ġdedicated": 9169,
      "12345678": 9170,
      "vulnerable": 9171,
      "tang": 9172,
      "images": 9173,
      "Ġcomes": 9174,
      "tral": 9175,
      "8880": 9176,
      "OG": 9177,
      "tient": 9178,
      "Ġreaches": 9179,
      "Ġ170": 9180,
      "irically": 9181,
      "disable": 9182,
      "ĠTransfer": 9183,
      "cenario": 9184,
      "car": 9185,
      "Ġbeg": 9186,
      "seen": 9187,
      "Ġlocalhost": 9188,
      "ĠDespite": 9189,
      "Ġpredictable": 9190,
      "Ġmedian": 9191,
      "lectively": 9192,
      "bone": 9193,
      "Ġ02": 9194,
      "TAw": 9195,
      "AO": 9196,
      "EW": 9197,
      "MPT": 9198,
      "ye": 9199,
      "heet": 9200,
      "tages": 9201,
      "ĠMay": 9202,
      "Ġ[<": 9203,
      "ichael": 9204,
      "122": 9205,
      "ĠAnnual": 9206,
      "Ġhandshake": 9207,
      "Threat": 9208,
      "Ġinvestigate": 9209,
      "Ġvehicle": 9210,
      "Ġpin": 9211,
      "ancy": 9212,
      "allenges": 9213,
      "Lim": 9214,
      "ppet": 9215,
      "Ġpositions": 9216,
      "Ġserialized": 9217,
      "atalog": 9218,
      "destroy": 9219,
      "Cache": 9220,
      "remote": 9221,
      "ĠTarget": 9222,
      "Ġalthough": 9223,
      "Ġprogress": 9224,
      "blk": 9225,
      "NB": 9226,
      "XML": 9227,
      "rv": 9228,
      "ĠYi": 9229,
      "Ġexplored": 9230,
      "Ġconstructs": 9231,
      "functions": 9232,
      "Ġexpressions": 9233,
      "310": 9234,
      "840": 9235,
      ":(": 9236,
      "ipher": 9237,
      "tirq": 9238,
      "Ġrich": 9239,
      "Ġmanner": 9240,
      "urance": 9241,
      "ĠVMware": 9242,
      "550": 9243,
      "Event": 9244,
      "hci": 9245,
      "apter": 9246,
[...]
